#version: 0.2
i n
Ġ t
Ġ a
e r
o n
e s
e n
t i
in g
Ġ s
Ġ c
Ġt h
o r
a l
n d
r e
Ġ p
i t
Ġ o
a t
Ġth e
e d
a n
ti on
Ġa nd
Ġ f
Ġ in
a r
o u
Ġ w
i s
Ġ d
Ġ m
l e
Ġ b
r o
Ġt o
Ġ e
i c
en t
Ġo f
Ġ h
s t
o m
a tion
a c
e l
e c
Ġ re
u r
i l
e t
Ġ l
l y
er s
es s
i d
i g
a s
o l
Ġ u
c e
v e
i m
Ġc on
t h
Ġ n
o w
Ġ g
u l
Ġs t
Ġp ro
Ġ r
i r
m ent
Ġe x
- -
Ġf or
v er
Ġ T
u c
t s
r a
Ġ A
it y
it h
Ġw h
Ġc om
a b
Ġ S
u s
Ġ C
a m
at e
Ġ v
u t
Ġ en
Ġ on
t er
q u
p p
a g
Ġw ith
Ġ y
a y
ti c
r i
o s
e m
Ġa s
ou r
i f
Ġ I
i on
a in
a d
Ġa l
ig h
Ġ or
o c
o t
ation s
ĠT h
a nd
p l
f or
Ġa c
Ġ it
Ġa n
' s
Ġb e
Ġ P
k e
i z
Ġc h
Ġ B
u n
i es
Ġ M
o d
Ġ le
t ing
r ou
c h
i ti
Ġr es
u re
an ce
i v
u m
Ġin t
u st
Ġd e
o p
-- --
Ġth at
tion s
Ġ E
Ġ im
p er
Ġa d
u d
Ġcom p
g h
Ġs h
ou s
Ġ is
i al
Ġthe ir
a p
is t
Ġ F
p ec
Ġ D
o g
ti ve
al l
at ing
v el
er e
an t
Ġ R
ig n
Ġu s
Ġ (
Ġp r
Ġ W
Ġcon t
ar d
Ġu n
ab le
es e
es t
en ti
Ġs e
il l
Ġ H
or e
en d
k ing
ic al
ag e
in e
Ġc an
i p
or t
a re
en ce
ou t
ro m
Ġn e
l d
Ġw e
Ġt r
Ġin c
Ġp l
Ġa pp
Ġb y
en c
Ġth is
u al
ac h
g e
an s
f f
Ġim p
Ġ L
for m
c ess
Ġe m
Ġy our
th er
Ġd is
Ġy ou
d uc
ent s
on g
Ġa t
v es
ac t
Ġst r
i le
Ġh e
Ġa b
Ġw or
en s
f er
o st
i b
iti es
igh t
Ġs u
Ġf rom
at ed
ment s
Ġcon s
nd er
rou gh
id e
e p
or s
an c
a st
Ġs uc
om e
u e
ur ing
Ġ O
Ġint o
â Ģ
il ity
Ġp ar
a v
i tion
Ġth ese
Ġcom m
l ow
k s
f ul
Ġin d
Ġ G
Ġin ter
h er
Ġ U
enti al
Ġe v
Ġa re
ec h
Ġ j
Ġm e
ar y
i ke
Ġm an
i e
on s
Ġthe y
in d
Ġs p
Ġc re
Ġa r
le c
Ġit s
Ġc l
a ti
i re
i ous
Ġu nder
el l
ĠI n
i ve
o ver
Ġp re
r ess
---- ----
Ġ N
Ġp er
a il
e ar
Ġ ro
Ġpro v
ur es
Ġth rough
ac k
ac e
Ġb et
ou n
if ic
ti m
ou ld
Ġd es
ĠTh e
Ġo ur
n ing
al ly
Ġu p
el y
t ed
Ġt ra
Ġo ver
ar k
m s
Ġb o
Ġex per
st and
as s
Ġl ike
ech n
Ġ qu
Ġ k
t ain
r y
Ġre c
Ġab out
at es
Ġin s
ul t
Ġin v
l es
Ġs er
ic h
w e
ol og
Ġsuc h
v ing
n e
os e
Ġre l
vel op
p le
l ic
Ġre g
Ġh ow
Ġa m
a ve
Ġc ol
Ġo p
s e
g es
Ġm a
d ing
Ġf e
Ġinc l
is h
Ġt im
at er
i qu
* *
h ip
i a
I n
Ġwh ile
Ġex pl
Ġo ut
Ġdis c
ion s
Ġwh en
rou nd
ul ar
Ġt echn
o o
Ġs c
Ġre m
t r
ec t
ou nd
Ġtr ans
d ition
a tive
Ġs ign
Ġ -
al s
as e
id er
p h
e g
we en
n ow
ĠTh is
ri b
on d
ro w
h e
it e
ate g
or y
Ġthe m
ow er
Ġbet ween
Ġv ar
ti v
Ġe ff
ing s
pp ort
Ġcomm un
on e
Ġ "
Ġac c
e ver
t en
enc es
Ġal l
u es
Ġincl ud
Ġs y
w ard
y s
i ence
Ġas s
Ġh igh
Ġv al
ĠB y
tic al
r uc
Ġde velop
Ġp os
Ġw ill
Ġen s
e f
Ġm ore
Ġ 2
Ġ J
Ġad v
Ġp ers
ou gh
iv id
Ġ 1
c l
s s
Ġ âĢ
Ġs o
al th
Ġre p
Ġs pec
el f
ay s
o v
Ġd ec
Ġe ver
ab ility
Ġt e
it s
as ed
Ġin st
ĠW h
g ing
stand ing
u b
o y
Ġp ot
at h
Ġh ave
Ġh el
Ġre qu
Ġprov id
Ġs ome
a k
r es
Ġn ot
Ġst ud
Ġen g
ation al
Ġa g
o od
ic e
Ġex am
Ġ Ġ
ivid ual
g an
ĠC h
ĠS t
Ġh er
n ess
ar t
Ġd if
Ġle ad
p t
et h
in ess
Ġle ar
all en
iz e
st em
ark et
Ġind ividual
Ġpot ential
Ġp h
Ġth ere
l ed
Ġk now
Ġd uring
g et
Ġb ec
Ġsign ific
al ity
Ġhel p
er ing
Ġbo th
Ġex p
Ġpro duc
Ġne w
Ġon e
o in
Ġpr ac
Ġtim e
Ġpro m
Ġapp ro
ter n
iz ing
Ġh as
Ġo ther
r ic
Ġof f
Ġvar ious
ĠâĢ ĵ
igh ts
Ġb ut
ti l
o b
Ġstr ateg
' t
s o
Ġcons ider
iz ed
Ġwh o
w or
Ġwh ich
ic es
Ġdes ign
Ġpro cess
in ing
Ġch allen
v en
) .
Ġd o
Ġm ain
in es
Ġhe alth
Ġs et
Ġh is
Ġwith in
at a
Ġw as
ec tion
Ġwh ere
b er
Ġth an
Ġm od
us ion
Ġinv ol
Ġne ed
c i
Ġm ay
Ġal low
Ġs k
Ġdif fer
r ac
Ġpr es
t y
is e
Ġg en
am e
Ġp ol
Ġever y
enc y
us iness
ĠA d
Ġd el
a ke
ir st
Ġs oc
Ġal so
l ing
er n
p or
y p
le x
ib le
ur al
ro ss
Ġ K
Ġb u
ĠA s
Ġs ur
Ġs ol
Ġan y
x t
Ġs im
Ġ V
Ġpl ay
ent ly
it al
Ġd em
Ġ ke
Ġch an
Ġpro f
Ġwh at
for e
Ġres p
on al
Ġc are
Ġad d
u tion
Ġin f
Ġinc re
Ġc ould
Ġpar tic
v ed
ĠC on
tic s
Ġn o
oun t
ur ther
Ġsy stem
age ment
Ġl oc
re e
ar m
Ġm arket
iv ers
ĠE x
Ġo b
rib ut
Ġsignific ant
ol d
anc es
Ġre al
Ġs a
ro duc
Ġg row
Ġwor ld
or ing
ĠH ow
ic i
Ġre f
c t
ag es
Ġeff ec
Ġf ac
oc us
Ġv is
Ġd et
olog y
c es
ow n
Ġin form
ag ing
Ġc o
ie w
Ġsuc cess
a king
end s
Ġc ap
ust om
ĠF or
ward s
Ġsu b
) ,
Ġe qu
iqu e
Ġm ed
Ġor gan
Ġm o
Ġwor k
cl usion
p ar
ic ation
Ġen c
Ġb usiness
ĠC om
Ġ ess
Ġd ata
Ġimp ro
and s
ical ly
at ely
Ġs ec
our se
Ġth ose
an g
pec t
Ġf in
Ġ ed
Ġt w
Ġof fer
Ġev en
vel y
f t
Ġg u
T he
Ġle t
Ġfor m
un c
Ġf ost
pport un
Ġf ocus
w n
ĠI t
Ġpro g
ic s
Ġs m
Ġ $
ĠU n
Ġe ach
Ġen h
Ġm y
l ess
iz ation
il y
re at
Ġn um
ĠTh ese
tion al
y ing
Ġimp ort
Ġcont in
Ġper form
us s
Ġam ong
Ġcon n
f ter
il d
-------- --------
are d
Ġunder standing
Ġb l
o ther
er g
or d
Ġmain tain
Ġcon f
Ġp ower
ĠA n
ĠP ro
ti t
ab or
Ġ ent
Ġresp ons
Ġm ight
Ġo pportun
ti es
it ing
Ġess ential
Ġp e
I I
i tions
Ġus ing
ĠE n
et y
ra m
v ers
at ure
Ġc ustom
Ġse e
Ġb en
Ġc ur
ir on
Ġd ist
Ġ if
Ġan al
at her
if e
oo k
l ine
t e
Ġinclud ing
our ces
er m
Ġun ique
p s
ol low
Ġg o
Ġf l
Ġ id
Ġ2 0
Ġcon c
a w
a us
u tions
ol s
l ish
ruc ial
c om
enti f
dition al
Ġd ue
il ities
v iron
Ġexper i
Ġappro ach
Ġc rucial
r u
Ġ Y
Ġcont ribut
eg r
Ġof ten
Ġm ul
Ġto wards
Ġb ack
Ġf unc
Ġc ult
is s
Ġrel ations
Ġin n
Ġdevelop ment
Ġac cess
Ġser v
Ġsk ill
Ġac ross
j ec
ess ion
Ġt yp
ro l
ĠHow ever
Ġm in
ib ility
Ġa round
el s
pl es
l abor
tic es
Ġf act
Ġro le
Ġch ar
Ġtw o
i ed
e ad
Ġrem ain
Ġe le
Ġg l
b le
Ġben ef
f for
Ġf ollow
pl oy
Ġm em
Ġen viron
Ġed uc
Ġem b
Ġbe h
ĠI m
ic k
Ġgen er
or ies
i el
Ġchallen ges
et her
Ġis s
is m
Ġdiffer ent
Ġsh e
ce p
Ġf ind
Ġmul ti
ac y
r is
ur n
hip s
Ġapp lic
Ġl ong
Ġpers onal
et s
c on
Ġgrow th
ou ra
Ġstrateg ies
Ġexper ience
Ġse ver
Ġpro t
Ġg ra
in ation
as ing
c c
Ġp ur
Ġh um
Ġbe fore
e w
Ġe ar
at ch
Ġm us
at form
Ġdisc uss
as es
Ġrequ ire
en g
roduc tion
Ġpar t
Ġa v
Ġat t
Ġdec is
Ġlear n
iqu es
u th
Ġp ri
e y
ear ch
b ers
a ir
Ġh ist
T h
Ġindividual s
a pp
Ġb r
Ġ &
Ġo wn
ĠW ith
Ġin iti
Ġo per
re d
Ġover all
ĠA l
Ġsa f
Ġman y
oc i
ec ess
Ġma ke
iti ve
Ġcomp lex
iel d
Ġrep res
Ġj ust
Ġint egr
Ġinn ov
an ts
Ġke y
Ġ est
Ġprac tices
Ġex t
Ġprom ot
Ġb ased
Ġc le
Ġde p
Ġl o
Ġopportun ities
Ġd ivers
Ġte am
Ġreg ard
Ġm ust
Ġd own
Ġex c
Ġadd ress
er tain
Ġlear ning
Ġres earch
Ġpro per
Ġde f
Ġc or
Ġf irst
og n
Ġpos s
ab lish
ap e
Ġb re
ub lic
S t
Ġprov ide
Ġwith out
uc h
Ġag ain
Ġon ly
st r
ti vely
Ġexpl ore
Ġs ch
Ġ '
Ġins ights
d ay
Ġthrough out
ore over
eth od
Ġpl atform
ater ial
Ġens uring
Ġf am
A s
Ġf ound
t ure
Ġw ould
Ġp ass
Ġcre ate
v iew
l u
Ġl iv
Ġst and
Ġb el
Ġen d
Ġre le
Ġth ough
Ġsoc ial
Ġal ong
anc ing
eng th
Ġr is
le ment
Ġbe en
. ,
e qu
Ġprof ession
Ġf urther
ĠA m
Ġ =
ut ure
ĠC ons
a u
Ġch o
it ed
Ġcol labor
Ġp op
Ġl ife
Ġsever al
led ge
pec ts
anc ed
ĠW e
Ġle vel
Ġem p
Ġexam ple
Ġconn ec
t roduction
ad e
Ġrequ ir
u nd
Ġpl an
0 0
ent al
Ġsu pport
Ġre duc
il ar
âĢ Ķ
Ġind ust
Ġinclud e
W h
Ġtechn iques
ti ce
end ing
ti ves
Ġem ploy
Ġw ell
or ed
Ġpartic ular
Ġn ecess
t o
Ġsu pp
it le
e x
Ġd ig
or ding
in ed
ly ing
Ġcon st
Ġh ad
i er
Ġinform ation
i an
Ġimp act
Ġskill s
Ġres ources
av ig
Ġop en
Ġim m
an ge
Ġh and
Ġe ffor
Ġj our
Ġa w
Ġen ab
Ġens ure
Ġd ire
ĠT o
Ġm ethod
Ġme an
en ess
ful ly
ĠWh ile
Ġac tiv
. "
ĠD e
Ġ 3
Ġm aterial
Ġde ep
Ġsystem s
in s
Ġcomp an
il ding
Ġpre v
Ġar ti
dition ally
lec t
Ġstud ents
ar ing
at ures
ra ph
Ġs ens
Ġg ain
Ġw ere
Ġoff ers
Ġass oci
Ġres ul
Ġfact ors
Ġp oin
ĠThe y
ĠE m
Ġloc al
th ers
Ġcomp on
pl ic
Ġy ear
Ġt ake
op le
Ġf ri
Ġ **
oc k
Ġcommun ity
ual ly
Ġs om
Ġan other
i o
Ġop tim
Ġse em
ment al
ĠTh rough
Ġle g
Ġiss ues
Ġbet ter
i ver
Ġpol ic
Ġpr in
Ġval u
# #
Ġunder stand
Ġun it
Ġc ri
u g
Ġa fter
i or
Ġprovid ing
Ġw ay
Ġm ost
a x
Ġexperi ences
Ġcommun ication
Ġc ar
Ġagain st
ne y
av ing
Ġknow ledge
Ġorgan iz
Ġc ourse
eth ing
Ġperform ance
y ond
Ġbe yond
Ġeff ici
Ġto o
Ġcre ating
Ġm on
Ġimpro ve
ens ive
Ġcons um
Ġregard ing
Ġb ra
Ġinf lu
em ber
Ġf uture
Ġid entif
Ġinter n
on str
Ġsom ething
or por
Ġtechn ology
Ġest ablish
l tim
Ġ ide
Ġa im
re ci
y n
Ġm et
Ġc ent
Ġwe b
Ġg rou
Ġcontin u
Ġup on
Ġstr uc
lec tion
Ġman agement
Ġanal y
er v
og raph
Ġp ublic
j ect
T itle
St ep
Ġas pects
is ts
Ġon line
Ġfost ering
d itions
Ġto p
Ġcom b
Ġcont rol
Ġl im
Ġa ff
Ġinst ance
Ġdo es
ĠO ne
Ġsh ow
ard s
Ġl ess
ac ter
Ġme as
âĢ Ļ
ce pt
Ġval ue
ar ch
Ġcons ist
nder standing
Ġo thers
Ġre ad
Ġgu id
Ġqu es
th e
Ġbe ing
r on
al u
am p
Ġg re
ĠA r
in k
Ġdem onstr
get her
Ġto gether
Ġa ud
Ġpres ent
Ġus ers
Ġmarket ing
Ġto ols
el ves
Ġfunc tion
erg y
T o
Ġapp reci
Ġpe ople
in al
Ġserv ices
u p
ac tion
g o
olog ical
Ġhum an
om es
Ġc all
Ġth en
Ġbenef its
Ġspec ial
Ġdivers e
p ir
ĠAd ditionally
n er
Ġa uth
p ite
Ġdig ital
ĠR e
Ġd ri
al ing
Ġb ro
Ġs elf
Ġimport ance
Ġc ost
anc ial
Ġs it
i x
Ġneed s
d u
in ce
Ġph ys
Ġ \
a tic
ĠS o
c are
Ġst ep
Ġallow s
Ġcon clusion
Ġd i
ltim ately
Ġassoci ated
Ġvalu able
Ġde v
w ays
Ġbec ome
Ġp ati
re am
ĠM oreover
Ġtra ditional
f act
Ġcomm it
Ġp at
Ġd ay
il it
ĠH e
Ġinc orpor
Ġconc ern
ur ity
ust ain
ĠL et
Ġmin im
l l
m ore
i ec
Ġsm all
as h
Ġt al
Ġrepres ent
Ġdisc over
Ġf ul
Ġspec ific
Ġsignificant ly
r it
Ġmaintain ing
Ġtrans form
p ort
h ie
Ġus ed
ati s
Ġhigh l
Ġinv est
Ġac hie
Ġele ments
Ġb est
w h
at ors
Ġenc oura
ĠA pp
Ġem o
ar get
tr act
p os
Ġb al
Ġn avig
ati ves
Ġc ra
Ġmulti ple
Ġset ting
Ġrelations hips
wor k
Ġ es
c ed
ell ing
r en
Ġpr im
z e
Ġimp lement
il i
Ġcomp e
i ents
ire d
Ġad ap
e e
Ġlead ing
Ġbusiness es
Ġus er
Ġcl os
Ġst ar
Ġma king
s elf
x im
e ed
Ġsh ould
C on
Ġdire ct
o ot
Ġfe el
urther more
Ġrec ogn
Ġqu ality
Ġwh y
ys is
v ity
ĠB ut
Ġstr ong
Ġstr ength
v ant
Ġeduc ation
Ġg over
Ġtra vel
es ts
ri es
ac es
ress ion
ĠĠ ĠĠ
Ġc ase
Ġto day
Ġincre asing
Ġexpl oring
Ġimport ant
Ġc aus
om m
t le
Ġl ar
Ġcompon ents
u fact
id ence
p tion
re h
ĠA nd
ĠP l
is tic
Ġpartic ip
ĠM an
Ġus e
Ġjour ney
Ġinvol ves
Ġm at
Ġplatform s
Ġcontribut e
er c
Ġrequir es
Ġs ustain
Ġorganiz ations
g er
Ġsee king
Ġpol i
Ġsur round
re ad
Ġc ertain
b y
Ġm en
ands c
Ġeffor ts
w are
Ġreg ul
Ġ20 1
Ġmod ern
yn am
Ġfin ancial
Ġwh ether
' re
n ers
Ġsuccess ful
O ne
Ġcl ass
jec ts
Ġh ome
lec ting
Ġg r
Ġav ail
oo king
Ġt er
Ġallow ing
Ġc ount
ci ples
z ing
Ġn et
ĠS h
Ġt arget
Ġpro ble
Ġen ergy
Ġre t
Ġindust ry
in ary
Ġcom es
Ġtr ust
Ġsu g
r ation
Ġ 4
Ġm ade
b e
Ġchan ge
if ically
f ic
t ers
Ġval ues
i os
Ġsh ared
Ġa ut
Ġpre fer
Ġm ar
ten tion
Ġcomm on
Ġu til
Ġm ind
Ġcon ditions
Ġl andsc
Ġdet ail
or ical
Ġchar acter
ĠO n
ic t
Ġmethod s
Ġlevel s
Ġg iv
en ing
Ġfollow ing
ĠD es
Ġt ail
i k
ac tions
ro p
er ous
Ġprocess es
i ety
us h
Ġfe atures
Ġd ra
ĠF urthermore
Ġgl ob
an e
Ġop tions
ir c
ĠWh en
Ġmean ing
Ġf ield
ar s
Ġsol utions
ĠU nderstanding
Ġf il
Ġcult ural
Ġp iec
ĠCom m
Ġprovid es
Ġy et
Ġthough t
Ġbeh av
Ġpat tern
Ġbu ilding
o id
Ġcle ar
til l
Ġt ri
Ġe l
oun ter
is ting
Ġ ill
o ol
enc ies
Ġsh ap
Ġh im
Ġpop ular
Ġdet erm
du ce
Ġeng agement
Ġprin ciples
Ġsc en
Ġdecis ion
Ġv ers
ĠUn it
ĠS tr
Ġsaf ety
Ġl ook
Ġeffec tively
Ġconcern s
er ed
Ġmed ia
A n
Ġyear s
Ġcommun ities
ph as
Ġbra nd
for t
ĠI nd
Ġsim ilar
Ġr ather
Ġenh ance
Ġeffec tive
ĠT r
a h
ol ution
e xt
Ġmaterial s
Ġbro ad
: **
Ġproduc t
Ġmo ve
er ic
our ce
Ġt urn
or ts
as c
Ġconnec tions
Ġnecess ary
th ing
em por
Ġl aw
Ġapplic ations
ĠA c
ang u
Ġv iew
Ġp ost
C ourse
is ing
con om
Ġpri v
Ġare as
Ġl it
Ġr ight
Ġfocus ing
Ġd ed
Ġt reat
Ġre ach
Ġman ufact
r al
av or
Ġpromot ing
Ġcomp reh
Ġke ep
Ġin ves
olog ies
Ġe t
Ġac t
rac ing
Ġd ynam
Ġar t
os s
Ġprovid ed
Ġe as
Ġcont ent
ter m
ĠC ol
el ines
as on
Ġev ents
plic ations
Ġ 5
ĠA t
Ġmus ic
Ġcon vers
Ġdel iver
ech an
Ġf und
Ġvis ual
ar ies
Ġsh are
Ġc ul
Ġst ate
Ġen ti
Ġo cc
Ġwor king
Ġw ater
Ġcur r
k es
ap s
Ġremain s
i ent
ĠCom p
Ġs al
Ġfri ends
Ġmem bers
ol ving
Ġal ways
m ing
Ġm om
Ġsit u
Ġs ince
ous ly
pec ted
r im
d s
at ural
Ġcompe ti
Ġproduc ts
ĠSt ud
Ġgover n
ti g
Ġhelp s
N ow
Ġsy m
Ġal tern
b r
os ing
ens e
Ġor ig
Ġn on
i od
in ating
Ġch ild
u ts
i pp
Ġactiv ities
Ġen j
com es
Ġparticular ly
Ġbel ie
Ġnum erous
Ġst y
is c
Ġser ve
Ġf re
Ġm uch
d en
ĠO ver
Ġstud y
Ġex tract
Ġso ft
Ġphys ical
Ġint ric
Ġsurround ing
Ġas pect
Ġcollabor ation
Ġf el
ĠC l
Ġdesign ed
Ġn ar
Ġcri tical
pec tive
ra ms
Con clusion
Ġadap t
Ġinst ead
Ġc al
Ġn ature
Ġme et
h old
Ġbeh ind
Ġacc ur
Ġinform ed
Ġ +
st s
ĠB e
Ġb od
Ġl ist
Ġpr ess
re t
on es
Ġbu ild
ĠAm eric
Ġavail able
ĠDe velop
Ġc irc
Ġresul ts
e per
ul ation
tim es
Ġknow n
Ġp o
Ġev alu
F irst
Ġ ver
Ġl ay
Ġtim es
Ġout comes
Ġh ere
k ed
Ġg et
er y
Ġyour self
o ve
Ġcomp ut
Ġob s
aus e
Ġl angu
Ġenj oy
empor ary
, "
Ġst ay
Ġpos itive
Ġpattern s
Ġem phas
am es
ab ilities
Ġcustom er
at ory
is ion
Ġcon cept
Ġat tention
Ġcomp le
Ġd iv
Ġinter est
Ġrele vant
Ġh arm
Ġs till
Ġtr ends
ĠEx am
our s
Ġth ree
ip s
Ġbec omes
Ġv ia
Ġst ri
al e
Ġe conom
Ġfac ilit
Ġst ory
ac ks
Ġm ental
Ġincorpor ating
or ting
es ting
Ġd id
Ġhealth care
Ġincre ased
Ġens ures
ec ting
tim e
Ġre ce
d e
ens ion
Ġe th
Ġsec urity
Ġlead ers
Ġdecis ions
p ri
Ġthe ms
Ġthems elves
is es
Ġu ltimately
Ġg ame
Ġ er
Ġde eper
Th is
or ation
Ġth ings
at s
Ġ Q
ĠR eg
Ġprog ram
Ġpri or
Ġrec ent
\ _
or m
ur r
Ġr ates
Ġsp ace
Ġtail ored
ĠIn troduction
Ġnum ber
Ġaddress ing
Ġglob al
Ġevery one
Ġl ight
end ed
Ġal ign
Ġ ve
Ġm echan
Ġeng age
s ing
o f
Ġinvol ved
Ġpre c
lec tr
ĠR es
ĠT ra
Ġreg ular
Ġpers on
Ġchan ges
Ġn ow
iss ion
Ġenab les
Ġsh aring
y m
Ġdel ve
i um
Ġd oc
Ġu nd
Ġqu ick
Ġm ess
g round
ĠR ec
I V
Ġapp e
Ġacc ording
u id
Ġam id
Ġv ital
Ġrem ember
ast s
Ġ1 9
Ġcont ain
Ġprofession als
Ġres ult
ur y
Ġne ar
Ġn atural
ul es
Ġprog ress
Ġadv ant
Ġs um
In troduction
Ġcom e
p ro
b all
wor ks
Ġenh ancing
Ġro b
ĠA cc
b ack
Ġte ach
Ġth er
Ġeng aging
K ey
Ġcon ven
atis f
o ts
or es
Ġques tions
Ġl ine
Ġinnov ation
Ġf ood
ag ine
Ġweb s
Ġhist ory
Ġt as
o h
ĠA fter
ib r
Ġp ay
Ġspec ifically
Ġcol lec
ĠAn al
Ġgo als
il ience
Ġplan ning
Ġex pect
Ġtyp es
Ġbal ance
Ġcult ure
Ġd on
Ġprac tice
pec ial
om en
Ġab ility
ug g
Ġbe g
id ent
p ut
Ġpl ays
Ġfost er
Ġsp ir
ĠCon t
Ġcra f
Ġris ks
ĠS c
Ġass ess
d er
Ġserv ice
Ġc over
Ġcommit ment
Ġh app
Ġma kes
Ġhist orical
Ġw ays
. .
Ġp ain
Ġser ves
Ġmeas ures
ĠO r
ast ing
e an
Ġemp ower
ĠCh ris
Ġear ly
e es
i ance
Wh en
a z
Ġprog rams
Ġconst ruc
if y
Ġad m
e le
ĠS p
Ġanal ysis
j ust
in t
Ġhigh er
Ġris k
n g
it es
Ġpl ace
ti f
enc ed
Ġs w
Ġcall ed
Ġcomp ared
Ġdist in
Ġcre d
ak es
Ġenviron ment
ag ed
Ġposs ible
go ing
Ġ z
Ġon es
Ġapp ear
Ġwor ks
Ġpower ful
ov ed
Ġaut om
iv ed
cep ts
Ġnar ra
ĠS im
Ġpart ners
iz es
Ġp ath
Ġappro pri
pl ay
Ġs ing
ist ance
Ġres t
Ġcustom ers
Ġbehav ior
Ġs ound
y stem
ili ar
Ġgrou p
Ġme ans
Ġinnov ative
ĠIn st
op e
Ġtra ining
Ġs atisf
om p
Ġstep s
Ġd ive
Ġr an
Ġlandsc ape
id es
Ġp ast
od e
Ġfam ily
op h
Ġf oot
Ġv ol
Ġbec ause
Ġres ilience
ĠF rom
Ġper iod
Ġw r
Ġst e
Ġproduc tion
igh ting
ĠTh ere
Ġh aving
ra st
Ġins tit
Ġde b
Ġper f
ĠChris ti
Ġexp ress
Ġmen tion
Ġprofession al
Ġintern ational
Ġl ies
m aking
Ġpoin ts
Ġg ood
ar eness
Ġamid st
Ġacc ount
Ġw ant
ec ted
Ġliv es
II I
em s
Ġem er
Ġup d
Ġ ing
Ġprev ent
Ġev ent
om s
Ġw a
Ġr a
Ġhe art
Ġe y
i et
Ġstruc t
Ġhe ad
ĠT echn
Ġc amp
Ġapproach es
k now
Ġac tion
ĠY ou
ag n
ous e
Ġcompan y
en tic
in king
Ġstrateg ic
i able
p art
Ġt em
Ġplay ers
en ed
s ide
ast er
Ġdes pite
Ġsignific ance
Ġne xt
Ġr un
Ġc y
ic ate
Ġb i
Ġsh if
Ġcurr ent
Ġgre ater
Ġf asc
Ġachie ve
** :
Ġst ories
s c
ĠG od
g ed
Ġad ditional
Ġb as
s y
Ġma xim
Ġid enti
Ġrob ust
Ġb ound
Ġenviron mental
Ġreduc ing
Ġlangu age
Ġad op
Ġdes c
Ġman aging
ĠA ss
oin t
ra in
Ġcompan ies
Ġenab ling
Ġshap ing
Ġbroad er
Ġleg al
Ġ x
Ġproble m
Ġdirect ly
Ġfe ed
id ed
Ġpre d
Ġrequire ments
ed i
Ġpos ition
Ġincreasing ly
---------------- ----------------
Ġreg ion
Ġspir it
Ġfor ms
Ġemb racing
Ġf ill
ĠP ers
Ġchallen ging
Ġr ich
ra y
ĠCons ider
ast e
Ġal ike
Ġrespons ible
ĠP rac
Ġmed ical
s u
Ġ |
' ll
ut e
Ġprefer ences
Ġe lectr
Ġh ard
Ġcost s
ust r
it ch
p r
ec k
An other
Ġapplic ation
er ving
Ġres pect
Ġter ms
i ences
Ġcon duc
Ġs l
Ġpro ject
ati vity
ĠS ome
ib ilities
Ġgrou ps
Ġpro jects
ĠI f
Ġpoin t
Ġlo ve
end er
Ġcon cepts
Ġcontin ue
ĠP er
Ġpolic ies
b ased
Ġtechn ologies
` `
ti se
ir t
H ow
er ation
Ġh old
Ġoptim al
ĠD ef
Ġidentif y
ram e
Ġdra w
Ġon going
Ġsome times
Ġl if
u ly
ĠStr ateg
ĠEx pl
Ġr ig
Ġpro s
ul ations
Ġyou ng
ĠP h
Ġv ide
Ġt aking
Ġsoft ware
Ġcont emporary
Ġg round
Ġd am
Ġc ore
Ġm ath
Ġadv ent
Ġrelations hip
o le
a im
Ġst ream
ĠE v
Ġnum bers
Ġaw ay
Ġeffici ency
Ġcare ful
Ġperf ect
th ough
u ment
is ms
re p
Ġinvol ve
Ġte xt
Ġob jec
Ġem erg
ast ly
Ġm er
Ġtyp ically
Ġex isting
tiv ity
pecial ly
Ġ 6
f ace
Ġeng ine
O n
Ġd ial
us i
Ġrem ind
Ġrequire d
le t
Ġf ar
Ġre ve
Ġstrateg y
sy ch
Ġexp and
Ġstr ugg
Ġexam ine
Ġiniti al
Ġbeg in
Ġappropri ate
Ġpoli tical
ec tive
Ġun ex
Ġs ources
a f
Ġis n
Ġs ame
Ġent h
a ign
Ġb ar
Ġmon it
Ġav oid
Ġes pecially
Ġoper ations
Ġenti re
o th
Ġrel ated
âĢ Ŀ
Ġemo tional
Ġf lex
Ġun til
B ut
Ġref ers
enc ing
at or
Ġex ec
ĠThe ir
ur s
Ġe c
Ġsol id
au gh
Ġmention ed
Ġopportun ity
Ġcle an
Ġne g
Ġad just
Ġinter p
2 0
ic ial
ac tive
Ġsk in
E x
Ġful l
Ġro les
h ood
if ied
ĠW or
Ġsh ort
Ġgiv en
an ti
Ġcom fort
Ġc ut
Ġr out
Ġless ons
Ġinvol ving
Ġex erc
Ġc ross
ut y
Ġse arch
Ġprim ary
Ġl ooking
Ġenth usi
ar ily
pl ace
rib ution
c ome
Ġa ir
Ġcompreh ensive
Ġteam s
ĠS u
Ġim plications
ĠS e
ĠIn t
Ġ `
Ġexam ining
Ġsp e
Ġchallen ge
ĠM arket
Ġenviron ments
Ġg e
Ġstud ies
Ġare a
Ġaim ed
Ġtr uly
Ġauth or
Ġt re
Ġconn ection
Ġon ce
u le
Ġm ach
Ġcont ext
ail y
Ġun c
Ġtr ue
Ġf ree
Ġre view
ĠN ew
um p
am less
ĠEn c
Ġorgan ization
Ġimpro ved
ĠAmeric an
ĠâĢ ľ
Ġre fer
Ġmeaning ful
Ġits elf
Ġadv ance
Ġappreci ation
em ic
Ġsub st
V I
Ġunex pected
Ġshow c
us ive
Ġlearn ed
Ġadv anced
Ġdec ided
r an
Ġconsist ent
Ġsim ple
Ġpromot e
Ġinter ests
Ġcl ients
Ġlar ge
oun ts
Ġl og
n ot
tern al
Ġh ol
Ġhe av
Ġre v
ĠS he
? "
Ġmanufact uring
Ġfe w
Ġf ace
ĠB l
Ġintric ate
Ġh y
Ġbod y
Ġev idence
Ġpolic y
Ġbo o
ip ment
Ġauth entic
Ġfac ed
ing ly
ĠP ol
on ic
Ġing red
Ġpotential ly
ath y
ĠR em
in ally
Ġa ge
Ġeduc ational
Ġliv ing
Ġsing le
Ġscen ar
Ġsec ure
Ġstruc ture
Ġdem and
Ġiniti atives
or n
ur ance
Ġse amless
Ġcul tiv
Ġhow ever
Ġexpect ations
Ġrepres ents
ĠAcc ording
Ġ Z
Ġproper ty
Ġchan n
Ġlim it
Ġ 0
ab les
m ed
ot e
au ti
or ous
wor ld
Ġther ap
Ġar ts
ĠChristi an
Ġph ot
Ġtrans port
Ġsoc iety
Ġexp os
Ġnavig ate
Ġg ather
qu ality
Ġfre qu
B y
Ġback ground
Ġstand ards
Ġsens e
ew el
or ough
Ġm is
ĠTh at
Ġd aily
he ad
it able
for ce
h es
Ġr en
Ġdial og
Ġcre ativity
Ġfor ward
Ġf avor
ic ated
o x
ake hold
pp ing
Ġbre ak
Ġconf lic
Ġwor th
od ay
ven tion
Ġorig inal
Ġle ver
ĠT im
Ġin j
ep end
Ġdetail s
Ġdev ices
Ġcamp aign
el ess
Ġinflu ence
Ġsm oo
Ġproper ties
Ġclos er
Ġpiec e
Ġqu al
Ġneed ed
ud e
ff ici
Ġtrans par
Ġexper tise
Ġins pir
Ġn am
el ing
Ġset s
ac ts
all s
Ġret urn
Ġoffer ing
Ġsustain able
Ġaw areness
in ist
Ġimplement ing
Ġresul ting
Ġcol or
Ġp a
ĠK ey
Ġl ik
Ġrec ord
Ġinves tig
Ġpriv acy
ĠS ec
Ġfasc inating
ĠI d
Ġsc i
Ġdevelop ing
Ġan im
ĠP re
Ġquick ly
ag er
Ġf ail
um b
Ġl ow
h ic
Ġrespons e
How ever
ish ed
Ġc ele
ish ing
Ġo ld
Ġsetting s
Ġques tion
ĠC ase
Ġan n
is ed
op s
Ġaltern ative
Ġre d
Ġstruct ures
Ġon to
ap id
Ġg reat
ul ate
Ġcap abilities
Ġd om
ig u
Ġcontinu ed
ĠS uch
Ġcap able
m e
Ġcol le
ĠM ar
er al
Ġtreat ment
tic ip
Ġexpl oration
Ġmod els
Ġpur ch
ou ch
Ġcal c
a ff
on om
Ġr ights
ĠE ach
ĠM ed
Ġc ell
w ide
Ġo uts
h ib
em a
ace u
Ġcontinu ous
l ier
ith er
Ġen ough
ur b
Ġst akehold
on y
arm aceu
Ġhighl ights
Ġpro ced
Ġenc ounter
Ġf rame
Ġind ic
Ġs un
A t
Ġw ond
Ġrep ut
if ying
Ġsome one
Ġm atch
id ents
res h
Ġar ch
Ġappreci ate
at ter
Ġth reat
Ġvar i
Ġfunc tions
Ġill ustr
Ġj ob
Ġc ry
ĠEnc oura
Ġvis it
Ġt our
Ġidenti ty
be ing
Ġstr ess
a un
S ection
## #
Ġcontribut ing
ĠEn g
Ġeth ical
er ve
Ġen able
v al
Ġsug ges
ĠWh ether
Ġv o
Ġm ut
iti g
it ness
Ġexperi enced
p ose
Ġtas ks
i ol
Ġaud iences
Ġac qu
pec tives
Ġtyp e
S o
Ġle ft
Ġrec omm
Ġw atch
ĠP ar
Ġcre ative
Ġsec ond
m er
ic ro
ĠT oday
} {
Ġh ar
ĠComm un
Ġrig orous
an k
ut ri
ewel ry
ac king
Ġalong side
Ġbe gan
ar ah
Ġcho ices
Ġfri end
ĠIn s
Ġsu per
Ġar g
ir d
Ġl ower
Ġdistin ct
Ġint r
ati vely
et er
Ġimprove ment
g est
Ġex ist
ĠTr ans
a uty
c le
Ġre duce
Ġestablish ed
Ġf low
Ġc ater
Ġth orough
Ġin her
ten ance
Ġarti sts
ĠB u
Ġprev ious
Ġne ver
il t
Ġins p
Ġeconom ic
Ġp sych
Ġdo ing
Ġt est
Ġinstit utions
ĠIn ter
) :
Ġprot ection
p ly
Ġstar ted
Ġequ ipment
Ġex ch
Ġconsum ers
Ġf ig
in ition
Ġded icated
Ġsch ool
Ġs ection
Ġthere by
Ġr ange
om ing
Ġfe ature
Ġposs ess
Ġw arm
Ġtop ics
1 9
Ġpar am
Ġac tions
Ġloc ation
Ġadvant ages
Ġpass ion
Ġstakehold ers
ric s
ron t
Ġpur su
Ġman age
es the
ios ity
Ġchild ren
ure d
ens ions
Ġac tive
ou d
Ġr apid
Ġo pp
ĠCons equ
Ġl oss
Ġexc iting
l and
Ġse ason
Ġpre par
Ġw ar
ul ner
Ġve hic
Ġwe e
$ $
Ġdynam ics
s h
Ġrequir ing
is tics
Ġcor re
ĠInst ead
Ġseem ingly
ir m
p on
ĠH is
ĠĠ Ġ
Ġint roduc
Ġp ack
Ġmom ent
Ġfeed back
Ġdes ired
Ġs ide
ĠY our
Ġd est
ult ane
Ġchann els
Ġnavig ating
c er
Ġconsider ing
Ġex act
Ġguid elines
Ġc and
ĠDes ign
Ġear lier
Ġpati ents
Ġw al
ĠCon clusion
Ġsy n
Ġh ours
re en
ult ural
ou th
n y
Ġf a
us e
m an
ĠHe alth
ens es
Ġsal es
Ġm ob
Ġanaly zing
Ġguid ance
Ġcirc um
Ġeffec ts
d om
Ġmon th
Ġiss ue
Ġrec ip
Ġpati ent
ap ter
Ġimpro ving
Ġt erm
armaceu tical
Ġcare fully
Ġinter actions
iti z
Ġex ternal
ple ment
Ġpiec es
Ġinvest ment
Ġcomp os
Ġide as
Ġadv oc
ab ly
ese arch
Ġcare er
Ġbound aries
ĠC o
Ġemp athy
it ation
f rac
I m
Ġgovern ment
Ġd im
Ġsc ience
Ġext ra
Ġth ink
ac ed
Ġto ol
First ly
Ġfel low
Ġr ad
Ġdiscover ed
Ġst ra
Ġc ity
Ġintegr ation
Ġpar ties
Ġg ames
Ġpre p
Ġunder lying
Ġbe auti
Ġ X
Ġ 7
Ġas pir
Ġv irt
ĠI ts
Ġfind ing
Ġarti s
Ġcompeti tive
ĠSim ilar
Ġj oin
Ġinst all
Ġpl ans
Ġthem es
Ġworld wide
Ġet c
Ġadv ers
Ġfill ed
m a
ect or
Ġdis e
Ġs il
im ent
st er
ĠI s
Ġbe auty
ell ig
il es
j or
Ġpers pectives
ut es
Ġres ource
Ġ *
Ġth inking
ak ers
ĠB en
Ġh ost
Ġv ulner
Ġth ri
Ġreduc ed
Ġs qu
os p
Ġwebs ite
ĠConsequ ently
Ġsatisf action
ĠS ch
c ing
Ġsh ape
ĠM od
ĠThere fore
e v
Ġcur iosity
Ġemer ging
Ġmat ter
Ġvide o
Ġa part
av ors
Ġcom pl
ĠStud y
Ġimm edi
Ġdri ving
Ġcollec tive
Ġar tic
ce ed
tiv eness
Ġexc ell
ruc ture
Ġfam iliar
Ġtem per
Ġun ivers
ĠO p
ĠG o
Ġmo tiv
Ġl ines
Ġa esthe
Ġco ach
Ġac ad
Ġfund a
oh n
Ġfin al
ĠDevelop ment
Ġres on
ultane ously
Ġw ind
Ġm ag
ĠC re
Ġingred ients
l o
Ġsmoo th
Ġab s
Ġy ield
Ġdialog ue
Ġsitu ations
= =
Ġlit er
ĠH igh
Ġan ti
ograph y
Ġregul ations
tic ally
Ġsp aces
s w
Ġv ibr
Ġt ac
Ġbenef it
Ġconst ant
one y
Ġsym b
Ġmechan isms
M oreover
ress ive
n ed
Ġgu ide
Ġund ers
Ġm or
Ġb ase
Ġus age
Ġeas y
l s
Ġd ur
id den
ific ation
Ġconsider ations
-- -
Ġnet works
ĠM r
Ġd en
Ġexp ression
Ġf our
Ġer r
Ġreal ized
Ġdevelop ers
Ġeffor t
Ġleaders hip
r ing
d ed
en e
Ġnam ed
Ġpar ts
Ġcl im
ĠG uid
Ġd er
Ġcut ting
ĠM e
id s
Ġ20 0
t al
ĠH ist
Ġse par
wh ile
Ġac know
u x
Ġev olving
erv ation
Ġpro pos
Ġexpl ain
Ġlit tle
ĠStrateg ies
in ations
Ġc ounter
Ġs us
Ġspirit ual
Ġto ward
Ġour s
Ġc ame
Ġouts ide
Ġplay er
ĠPers onal
Ġp ort
Ġex cep
ĠId entif
Ġconc er
Ġcomp et
' ve
Ġdynam ic
Ġobjec tives
m y
Ġimm ers
b s
Ġd ays
Ġcircum st
Ġind epend
Ġpress ure
Ġaud ience
Ġso le
Ġv ary
Ġcons equ
Ġrel ig
Ġc am
ff ic
Ġbelie f
Ġst art
Ġfunction ality
omp ass
Ġsch ed
Ġj ewelry
Ġgain ed
i ans
Ġm ill
ĠR esearch
Ġeffici ent
ic tion
com ing
Ġdiscuss ions
Ġn u
Ġoffer ed
Ġs ize
L astly
ail s
Ġintegr ating
Ġn or
Ġenh anced
Ġab ove
Ġc ateg
Ġl ed
ĠS arah
Ġse lecting
Ġadvance ments
ĠOver view
ond s
Ġit ems
Ġcele br
Ġpres erving
it ect
Ġmain tenance
Ġb ud
Ġdep ending
Ġtranspar ency
act ers
Ġfost ers
al le
ac ity
Ġw rit
Ġdif fic
ĠL e
Ġh on
Ġenc ompass
Ġprior iti
Ġdist ribution
Ġdoc ument
Ġinves ting
g or
Ġc ases
am ple
rast ructure
ess ions
F or
Ġor der
t uring
in a
Ġro om
Ġb ur
Ġab ilities
Ġrespons ibility
Ġar r
g en
Ġcircumst ances
Ġt ax
Ġgrow ing
Ġproble ms
m it
Ġflex ibility
Ġsty le
ĠS pec
Ġno vel
Ġp ush
Ġfel t
Ġe ither
Ġnecess it
Ġv iol
ĠE duc
Ġw in
C h
Ġsol ution
ĠR ep
Ġas ked
ĠSimilar ly
Ġapp ly
g ra
Ġunders c
ĠU til
Ġto wn
iet al
Ġcre ation
ĠReg ular
ĠB usiness
Ġevery thing
Ġw omen
On ce
Ġlar ger
ffor d
Ġad ding
B e
Ġdiscuss ing
ff ective
Ġn ur
Ġnarra tives
Ġmom ents
ĠRem ember
Ġinst ruc
Ġours elves
ĠR ed
Ġb ig
over y
Ġcl aim
Ġdam age
Ġtal ent
u ps
Ġsupp orting
Ġtechn ical
Ġl and
Ġincre ase
Ġexpos ure
Ġw is
ĠIm port
b ility
if ies
Ġan sw
Ġt ouch
Ġproced ures
ĠIm plement
Ġh ope
Ġsp orts
Ġsoc ietal
r ich
Ġf air
Ġtechn ological
Ġre in
um e
igh b
Ġconsider ation
l ation
ĠD isc
Ġsustain ability
Ġnew s
â Ī
s et
Ġmod el
Ġ 8
el ine
ĠS ystem
Ġins ide
Ġtransport ation
ur ies
est y
iv ing
ĠIm p
Ġgen u
Ġpres ence
gor ith
ac ting
Ġwell being
Ġdesign s
ri p
Ġsaf e
Ġencoura ges
Ġst ability
l ike
id ing
Ġvers ati
Ġs ure
ak en
uc k
Ġref lec
Ġn utri
rib utions
Ġs av
ill s
m ar
Ġhand ling
Ġprovid ers
Ġr ules
ĠA lex
Ġo il
Ġad her
Ġm itig
oy al
Ġfacilit ate
em pl
Ġsee k
Ġconsum er
Ġinher ent
Ġf u
u rop
Ġma jor
Ġst at
ĠTh us
Ġf ear
Ġinf rastructure
ĠJ ohn
Ġbl ock
ĠE st
Wh ile
ĠEx per
ĠM y
ad es
Ġdisc i
! "
Ġminim ize
o or
ti tion
Ġdiffer ences
Ġnet work
em p
ac ies
Ġdem ands
Ġdesc rib
Ġwe ight
ic ious
Ġide a
Ġlearn ers
Ġwor ds
ĠM on
Ġconsequ ences
Ġfa ith
Ġth us
Ġgo al
Ġtr ack
Ġlim ited
ap es
Ġvibr ant
Ġbec ame
ĠAl though
Ġsole ly
Ġc at
Ġdemonstr ate
tain ing
Ġcons tit
Ġser ies
Ġst or
Ġpoli tics
ĠAnal ysis
Ġmut ual
Ġl ater
Ġfound ation
Ġchan ging
Ġbr ing
Ġappe al
t on
Ġemo tions
Ġd r
Ġcomput er
ass ion
Ġcomplex ity
Ġd at
Ġat tr
Ġcomp rom
ri ers
r ight
Ġ$ \
Ġl ive
Ġsim ultaneously
ĠT e
iv al
Ġmonit oring
Ġv ac
Ġded ication
ark ed
iss ions
Ġreal m
Ġchar acters
ĠMan agement
Ġcould n
00 0
Ġsitu ation
Ġaccur ate
Ġminim izing
ers hip
Ġst age
z z
o es
Ġh ab
Ġcontribut es
Ġcomple te
l am
ĠAnal y
Ġc er
{ \
ĠWh at
ĠMarket ing
Ġfunda mental
omm od
ici ans
agn os
Ġint ellig
Ġacc ommod
Ġscenar ios
Ġex cl
Ġmarket s
Ġhealth y
Ġexact ly
Ġdivers ity
Ġcho ose
ven ue
ffici ent
ean while
Ġl ab
Ġsug gest
Ġcan not
Ġph armaceutical
ĠDes pite
Ġconvers ations
Ġempower ment
Ġencoura ge
Ġh idden
ĠP ower
ĠD is
te xt
Ġcl in
Ġaccording ly
ĠN ot
Ġgener ations
Ġful ly
Ġfoot ball
Ġprim arily
Ġm ast
Ġne ighb
Ġsur face
Ġun f
ĠImport ance
Ġk ind
ĠS erv
ĠT ips
Ġapp l
ĠO ff
ĠH er
Ġt esting
Ġprac tical
Ġfam il
Ġf un
Ġpe ace
Ġsa id
Ġartis tic
Ġprot ect
in y
ac ing
Ġactiv ity
Ġadm inist
Ġele v
ipp ed
Ġn ich
Ġst aff
Ġcomp ati
oc ial
ĠR el
Ġa head
Ġall oc
a ment
Ġnot able
Ġparticip ants
Ġsubst anti
ic tions
Ġsp eed
Ġk ne
ĠC an
Ġlead s
Ġstand ard
l ife
Ġal gorith
Ġconf idence
i ors
ĠE ar
ĠD r
Ġse qu
ill ing
Ġam b
b o
Ġspecial ized
Ġs essions
us iv
Ġcount less
$ ,
ful ness
Ġtoo k
Ġdeep ly
Ġmath ema
us tice
qu e
ch es
Ġclos ely
Ġapp lying
Ġex hib
Ġanaly ze
Ġintern al
Ġtherap y
Ġprof ound
Ġindust ries
Ġidentif ying
Ġbre ath
ru g
Ġm ere
t elling
Ġsens itive
Ġutil izing
Ġsim ply
Ġcho osing
as tic
Ġgra ph
Ġmed ic
Ġcand id
u ments
Ġgre en
ec ts
Ġmove ment
i ability
Ġiniti ally
Ġa fford
Ã ©
entif ic
ĠD ata
Ġencoura ging
Ġc rim
Ġpur pose
Ġvirt ual
Ġg am
Ġbeauti ful
Ġcl ose
Ġhighl ighting
Ġc ris
ĠR ole
un e
Ġ 9
ĠC ar
Ġv s
ow ers
ĠE urop
ain s
Ġan x
ro s
ĠU ltimately
Ġarch itect
Ġdire c
Ġm ix
r ist
ĠF irst
Ġmeas ure
Ġl oved
er ia
o ke
ri end
Ġey e
Ġadvent ure
Ġh ands
Ġcampaign s
Ġref lect
Ġregion al
le v
Ġsty les
A d
Ġh or
Ġro ot
Ġdoes n
Ġachie ving
r ace
Ġ1 0
Ġcomp elling
Ġexam ples
Ġh ot
al f
Ġm ass
Ġdep th
Ġstay ing
Ġhighl ight
b re
l er
ar ity
Ġr ate
Ġs ay
Ġwe ak
ĠK e
Ġmer ely
if t
Ġsim pl
ĠCol labor
Ġcre ated
Ġfocus ed
Ġn ame
or ial
Ġover l
ĠL ear
Ġide al
Ġwr iting
Ġch em
Ġpartners hips
Ġequ al
Ġpos iti
Ġs ource
c ent
Ġse lection
ĠO ur
Ġt akes
Ġc op
Ġaff ecting
Ġdis s
Ġhigh ly
Ġintegr ity
Ġc ode
Ġco ord
Ġdisci pl
Ġdis play
ed ge
Ġlimit ations
Ġwas n
Ġbu ilt
w ay
Ġupd ates
$ .
Ġexcep tional
Ġag ree
Ġaim s
Ġenthusi asts
Ġexam ination
Ġregul atory
pr ise
Ġfunc tional
augh t
le ar
Ġv ast
Ġstud ent
I t
ĠDef inition
Ġcap acity
Ġprocess ing
Ġpers pective
Ġj ud
Ġposs ibilities
Ġval id
ul a
ĠP ri
Ġinterp ret
ĠExam ples
re g
Ġt able
ul ating
tic ing
Ġcon ver
Ġg old
Ġcompeti tion
Ġcry pt
ĠU s
n el
l ines
Ġst ates
Ġplay ing
Ġim agine
l ight
ĠG en
Ġfield s
Ġrecogn izing
Ġintr igu
Ġappro xim
is ter
Ġimp acts
h aps
Ġb row
ir ing
Ġnarra tive
Ġemploy ees
ĠS am
Ġhar ness
ĠS k
Ġle aving
il le
Ġt en
Ġtransform ation
Ġnich e
ĠP res
Ġneg ative
Ġa th
.. .
ad s
er o
Ġ20 2
ĠB al
Ġcap ital
ĠGuid elines
Th rough
Ġdiscuss ion
ific ations
Ġcraf ts
Ġcho ice
Ġl oyal
ti s
Ġp ut
Ġconf ig
ord ers
Ġoff icial
Ġcompon ent
Ġan g
Ġacknow led
Ġmanufact ur
Ġsp read
ĠA I
ĠC ent
ĠPro g
yp es
Ġinclud es
ĠM us
Ġwho le
ru it
ar ant
in ate
Ġpriv ate
ĠA g
Ġar ri
Ġarti st
Ġperform ing
Ġey es
r act
Ġadapt ability
1 0
Ġcol lection
ow s
Ġres tr
Ġt aken
Be fore
Ġc oun
ĠIn tern
Ġsci entific
ri pt
Ġcaus ing
Ġran ging
Ġpres ents
oo ks
Ġaccess ibility
Ġbas ic
Ġf resh
Ġcent ral
w ise
Ġob st
Ġcred it
Ġch apter
Ġmat ters
Ġrecomm end
Ġs low
Ġex cess
ĠBu ilding
at uring
Ġdeliver ing
E O
p ris
Ġst atis
air s
ĠF in
ivers ity
Ġknow ing
Ġt end
Ġread ers
D es
Ġl ack
Ġhelp ing
ĠAd v
Ġc r
Ġbu y
os en
eg u
Ġstor age
ur ning
Ġnot e
ĠM ay
`` `
ot al
c ious
Ġw aste
Ġrel iable
Ġal one
Ġrep ort
an ning
Ġtr y
Ġgenu ine
Ġor d
m ath
ĠImp act
se qu
Ġbud get
Ġins urance
tic ed
H ave
Ġpr ice
ĠD uring
Ġdemonstr ates
er t
Ġfamil ies
y th
Ġenh ances
Ġdiffer ence
Ġc ou
Ġdeterm ine
Ġpre m
Ġs le
g ment
ru p
et ed
uc cess
Ġm id
ĠUn ited
Ġfind ings
Ġconsist ency
Ġwebs ites
ĠJ ust
Ġeffici ently
ic it
Ġ /
Ġdevelop ments
Ġthreat s
Ġl asting
Ġse en
Ġen rich
Ġsubstanti al
Ġaltern atives
Ġc itiz
Ġbo x
Ġhe ight
oc al
Ġl ength
Ġcont act
ĠT w
og ether
Ġfor ce
Ġc iv
ra nd
Ġad dition
Ġcl ient
Ġc ard
Ġfavor ite
ĠCh ar
ot t
rough t
Ġ Ċ
Ġcontin ues
Ġfac ing
Ġpresent ed
oc ks
Ġres istance
Ġre pl
ĠAr t
Ġsmall er
Ġstat us
Ġrep e
Ġexper iment
Ġturn ed
Ġc ooking
Ġlaw s
Ġlandsc apes
un ning
n al
Ġab le
Ġdiffic ult
ĠU sing
Ġf it
Ġresearch ers
ĠInt egr
ress ing
ĠPro f
F inally
Ġass istance
ĠPer form
riend ly
Ġrece ive
Ġconcer ning
Ġimplement ation
Ġstar ting
p e
Ġt ang
ĠAl l
Ġbar riers
ĠAd d
Ġintric acies
tic ul
Ġf ra
tit ude
re l
Ġcompl iance
Ġcon dition
^ {
ĠS m
ĠCh rist
Ġcount ry
Ġfil m
og le
Ġdis par
Ġtra ffic
Ġhe at
Ġproduc tivity
Ġdi agnos
Ġadvant age
Ġto tal
Ġun w
Ġinspir ation
Ġstrength s
Ġconsum ption
em b
Ġl at
Ġbec oming
Ġconsist ently
ĠS et
Ġexerc ise
in ated
Ġint ers
Ġsaf egu
Ġcont ributions
ic ing
ĠM ain
pos es
Ġm ent
Ġe ager
Ġch osen
rain ts
pp ed
Ġregard less
ren e
Ġprogram ming
form ation
Ġgen e
anc y
Ġem ail
Ġcap tiv
Ġcor por
Ġ ir
Ġoffer ings
Ġcult ures
Ġoper ating
Ġarr ange
a ks
b acks
ĠB oth
Ġser ving
Ġadd ed
un g
Ġcol ors
Ġdri ve
Ġtac tics
Ġclim ate
Ġel se
Ġrecord s
ĠD el
Ġresp ond
Ġent ertain
o ols
Ġtal k
Ġgu arant
Ġm iss
Ġstrong er
Ġh ouse
ĠS ocial
Ġfor ces
Ġim ag
Ġcomp assion
id ential
force ment
Ġim age
Ġs ite
ib er
Ġsym pt
om et
Ġ <
Ġdem oc
ĠApp lic
Ġm oney
wh ere
ect ors
ac les
Ġintellig ence
ĠWor ld
go ti
Ġprot oc
Ġdemonstr ated
ul ated
Ġrespons es
ĠKe ep
Ġrelig ious
Ġme ticul
Ġun l
ĠPro t
ĠN o
Ġpa per
m ission
ĠA f
ĠEduc ation
al es
Ġ i
Ġcomb ining
Ġreve al
Ġrecogn ize
Ġboo k
Ġrecogn ition
Ġcount ries
Ġkne w
Ġinst ru
od y
Ġwis dom
Ġprom o
ud den
ĠRe al
Ġre ality
Ġcharacter istics
Ġstory telling
Ġpur poses
Ġprioriti ze
Ġperiod s
Ġt ap
Ġcra ft
Ġp en
Ġdraw ing
Ġl ast
Ġj ustice
Ġrepresent ation
avig ating
ĠN ow
os ystem
Ġde aling
Ġconvers ation
Ġocc ur
f aces
b on
Ġf ast
ur g
Ġemphas izing
Ġman ip
Ġgiv ing
Ġwe ather
et ary
Ġth ird
Ġinter action
Ġfeel ing
Ġsm art
Ġren ew
Ġt ack
Ġcraf ting
Ġd ream
Ġan ticip
ur ch
as ons
Ġfe aturing
Ġg ive
ro om
el i
Ġb rought
ord er
Ġconst raints
Ġacad emic
Ġp an
ĠR ef
Ġcell s
Ġs ac
Ġexcell ent
Ġsu ff
Ġbehav iors
rep rene
Ġb all
Ġaspir ing
Ġgo ing
Ġent er
od es
ĠD ec
Ġsch ol
el lect
ĠĠĠĠ ĠĠĠĠ
e ign
Ġm icro
Ġch eck
P I
ard ing
Ġest ate
Ġco ol
read y
Ġevalu ating
Ġvis ion
Ġeffec tiveness
Ġtrans l
o on
Ġcorre ct
Ġop tion
Ġpro te
Ġrem ark
Ġm il
Ġtrans c
ĠEst ablish
rit eria
Ġass ets
al y
Ġp iv
Ġatt ribut
ch ain
Ġmeet ing
Ġkeep ing
U nderstanding
ĠL eg
Ġexch ange
ĠC are
ĠPro v
Ġn ational
Ġph en
Ġparam ount
Ġadd s
d es
Ġcaus ed
Ġpos itions
Ġgener ate
an y
ness es
Ġfeel ings
Ġbelief s
ci ent
Ġmove ments
ĠS uccess
Ġlever aging
app y
Ġbo asts
Ġdeliver y
L et
Ġev ol
Ġmach ine
ĠC al
ĠGo ogle
ir es
Ġne goti
Ġmonth s
Ġthought ful
Ġqual ities
Ġmet rics
Ġl ink
Ġaccur acy
urb an
Ġanx iety
h and
ag s
Ġat m
Ġm ission
Ġexp ans
Ġtra ditions
Ġtrans fer
Ġver y
Ġmess ages
ĠC ustom
Ġseem ed
am iliar
Ġcons ult
Ġeas ily
Ċ ĠĠĠ
ĠOr gan
Ġd ivid
Ġt ell
f riendly
Ġ {
oc urr
Ġimp ressive
Ġh ous
Ġsub sequ
a i
Ġcre ates
Ġconstruc tion
Ġmob ile
ĠCon n
Ġdid n
ĠU S
Ġdiv ing
ĠSpec ifically
Ġimprove ments
-------- ----
Ġemb race
Ġpro duce
Ġmem or
Ġl abor
Ġc ogn
Ġec osystem
Ġg ender
Ġdemonstr ating
Ġd rug
Ġpositi vely
Ġre ason
Ġcitiz ens
ĠEv alu
Ġlik ely
ib ly
Ġv ent
Ġalgorith ms
Ġf ans
ĠF l
atic ally
wh el
Ġpro ve
Ġal ready
ĠCh o
Ġfact or
ĠOn ce
Ġcompati bility
Ġsh ed
Ġprom pt
ual ity
Ġcaus e
Ġrun ning
ri ption
Ġunc ertain
Ġinter vention
cep tion
Ġdise ase
Ġre venue
ra tic
ĠQ u
Ġremark able
W ith
ĠEncoura ging
Ġcolle ge
Ġshif t
Ġhe ard
Ġwee k
Ġn ight
ough t
Ġaccount ability
erc ial
ie f
Ġlong er
Ġincorpor ate
os ph
it age
Ġsh ar
Ġes c
ĠIn c
ipp ing
Ġmess age
Ġe p
om an
Ġl ate
Ġplay ed
l ity
Ġpati ence
Ġf all
Ġcompe tit
Ġdev ice
Ġsp ent
c les
Ġb ol
Ġstud ying
Ġconven tional
Ġinter ven
Ġrele ase
Ġch ec
ve y
ĠP r
Ġmaxim ize
Ġl ux
ound s
Ġatt end
Ġsymb ol
Ġapproxim ately
usiv ity
Ġf ive
Ġheav ily
ĠM eanwhile
ub s
Ġde g
ĠC O
Ġrec ently
uc t
il s
Ġinc ome
Ġliv ed
Ġinflu encing
Ġm ys
Ġf ire
Ġread ing
ne ys
Ġd ou
Ġnor ms
in ent
Ġs we
Ġs oph
Ġdesign ing
Ġcor res
Ġfrequ ently
k y
Ġinst ances
er ved
Ġatt emp
ĠTechn iques
or row
Ġbr ings
Ġbl og
Ġlist ening
Ġw itness
fic ial
Im agine
Ġtr ying
Ġvo ice
Ġso on
Ġopen ing
k et
Ġwhen ever
ĠComm on
Ġh om
Ġcap ture
ra f
Ġtechn ique
Ġemploy ed
Ġpro b
Ġthough ts
Ġl ens
Ġb ust
Ġbr id
Ġad equ
Ġequ ipped
Ġs n
Ġpop ulations
Ġanaly tics
Ġtrans ition
Ġcent er
Ġteach ing
pp er
m ary
ĠO b
ĠG l
Ġful f
Ġw ide
Ġfac ilities
ograph ic
con n
Ġvary ing
re ed
Ġad ver
ub lish
ri ef
Ġstra ight
Ġsoph istic
p ons
Ġgo es
Ġintrigu ing
} \
is on
orm al
Ġmem ories
Ġphen omen
Ġre ly
Ġcont rast
ĠAc cess
a ur
p ower
ite ment
oin ts
iz ations
Ġcul inary
o ff
ĠPl ay
Ġillustr ate
ĠS ol
ic y
Ġsuccess fully
Ġ urban
ul l
Ġgener al
Ġparticip ation
. '
Ġestablish ing
Ġcontain ing
Ġbod ies
umb led
Ġfollow ed
ĠEn s
Ġin put
Ġinsp ire
Ġcur ious
or k
Ġman aged
Ġconsider ed
Ġenti ties
Ġwa iting
Ġoptim ize
Ġcar ry
ĠH appy
Ġph il
Ġb an
Ġbel ong
Ġco op
Ġper ce
Ġloyal ty
W e
Ġreduc es
Ġfl avors
Ġconnec ting
Ġres olution
d le
Ġobst acles
Ġminim al
Ġeng aged
ach es
ch ed
Ġf ine
ĠIntern ational
ol l
Ġconflic ts
Ġun ity
Ġreput ation
ĠH ere
Ġprotoc ols
Ġres pective
fer ence
Ġexc itement
tic ism
Ġperform ances
Ġtr acking
Ġbrand s
l ined
in ks
Ġim ages
Ġdel icate
ook ed
Ġmet al
Ġsympt oms
l ig
Ġframe works
Ġsugges ts
Ġf irm
Ġus es
Ġrespons ibilities
ec tions
Ġhe aling
Ġappear ance
Ġprep ared
Ġst ages
Ġconnec ted
Ġd il
Ġoper ational
b u
ĠEm b
Ġhold s
ĠE th
ĠN ational
r or
Ġlo ans
ellect ual
on ents
Ġmem ory
Ġprom ising
Ġpr icing
w ing
Ġlay ers
ĠAm ong
ĠM ax
Ġag encies
ĠCh allen
Ġent reprene
Ġmo ving
ĠF e
Ġhim self
ire ct
Ġj oy
Ġtreat ments
Ġconfig ur
Ġsch ools
Ġaff ected
Ġover whel
Ġob jects
o k
Ġref lecting
Ġrapid ly
i tical
Ġp ic
Ġexerc ises
es us
ĠU se
Ġc riteria
Ġst unning
ov ers
Ġt aste
Ġmus ical
ĠV is
l im
Ġacknowled ging
a ves
Ġdiscover y
Ġnur turing
Ġpiv otal
Ġincre d
Ġexper ts
ĠExpl oring
Ġlay er
um s
ape u
Ġun p
Ġper haps
Ġpers ist
ĠN or
Ġvisit ors
Ġr h
Ġincl usive
Ġcred ibility
Ġthe ory
ey ond
Ġelectr ic
ĠP e
Ġexec ution
ans hip
Ġg ar
Ġgover ning
Ġrel ax
Ġout d
ch ing
m et
n a
Ġlif esty
Ġnu ances
end ers
Ġequ ation
Ġbl ood
in c
Ġimmedi ate
Ġexper t
at t
ĠPrac tical
Ġint en
ĠEx p
Ġwor d
ĠApplic ations
ra tive
Ġpr ices
, '
Ġno ticed
Ġdevelop ed
Ġorganiz ational
Ġh alf
Ġoper ation
Ġend e
Ġconflic t
Ġl ibr
Ġnear by
Ġdep art
Ġprac tition
Ġo vers
Ġdeterm ination
Ġcultiv ate
er ies
ri x
Ġvehic le
b ook
Ġhab its
Ġhy d
Ġdistin c
Ġqu ite
ver age
Ġch er
Ġsign s
Ġsupp ly
Ġtemper ature
Ġdeterm ining
Ġfacilit ating
es is
Ġb onds
Ġbust ling
Ġw id
f low
Ġc row
Ġprevent ing
Ġass ign
Ġw ild
ĠL ever
Ġmys elf
Ġprot ecting
Ġpar ents
Ġtra de
Ġcol l
ĠJ esus
Ġmemor able
wor king
Ġmar g
ilit ary
t t
Ġ ic
Ġf ix
as p
Ġrout ine
Ġcl oud
us ed
Ġreg ions
b les
Ġwh ose
Ġvis ibility
i ers
Ġany one
ver y
is ions
Ġop in
ult ure
Ġcan cer
Ġfocus es
Ġch ances
Ġm ort
am s
ie ties
Ġst ore
Ġev olution
Ġadop ting
ĠAss ess
Ġac cept
Ġshow s
Ġevalu ate
Ġact ual
Ġinvest ors
Ġlist en
Ġemerg ency
an a
ĠP ublic
ĠG e
Ġanim als
Ġele ment
ĠAf ric
Ġst umbled
ĠL ook
Ġsc r
Ġex empl
Ġexp enses
Ġfil es
ĠConsider ations
Ġinter esting
R e
ri al
Ġerr ors
Ġher itage
ul ts
Ġtr ig
_ {
Ġan cient
Ġref lection
Ġfu el
Ġhol istic
Ġst ands
Ġwh ite
Ġutil ize
ad ing
ĠImplement ing
r id
Ġam ple
Ġdep end
Ġes tim
re et
Ġgra d
Ġt ut
Ġrecommend ations
ef its
Ġhor iz
conn ected
I f
i ation
ĠS ur
Ġcultiv ating
Ġundersc ores
own ed
Ġl ost
Ġcomm ercial
eli hood
Ġregular ly
Ġs ong
Ġs ou
um es
Ġconven ience
c k
ĠA b
Ġthan ks
Ġappe aling
Ġinsp ired
Ġam ount
less ly
Ġinter view
ĠU nder
Ġcomb ined
ĠH ar
Ġind eed
Ġgener ation
Ġsit es
Ġdist ribut
Ġac tively
Ġel im
Ġexpl ored
Ġseamless ly
ers onal
Ġrele v
m anship
Ġexpl icit
Ġeas ier
Ġfl avor
osph ere
Ġprac ticing
ĠW ell
Ġr aw
Ġch arm
ĠHist orical
ĠSt ates
od ies
Ġun n
Ġsus p
ĠD em
Ġclass ic
Ġappl ied
in f
Ġadvers ity
Ġinterven tions
' ,
Ġworks h
ens ity
Ġrec overy
Ġengine ering
ol es
ĠPro per
Ġchem ical
ĠP art
Ġcogn itive
oc king
apeu tic
Ġar ise
r ant
Ġh air
Ġcomp ar
Ġv ig
Ġh osp
ĠN et
ig ital
ro duce
ord inary
Ex ample
ĠPro cess
Ġsubsequ ent
Ġcompetit ors
at ur
Ġdec re
Ġsub s
5 0
et erm
Des pite
t or
le y
Ġw el
Ġm el
Ġemerg ed
ĠF uture
Ġemploy ing
Ġcollabor ative
ĠA v
Ġexpand ing
Ġwe ar
Ġpo ly
ĠCon f
ash ion
ff ee
Ġpopular ity
Ġm ist
Ġscen e
ag ue
Ġadv ice
Ġstr ict
} }
Ġf ile
Ġse x
Ġwhere as
Ġdis hes
Ġtrans actions
Ġheav y
ĠB ack
Ġfig ures
ag ers
Ġun for
Ġrein for
Ġext ensive
Ġal ter
le an
Ġen forcement
os oph
Ġhe ar
cep tions
Ġcrypt ocurr
Ġaccess ible
Ġextra ordinary
Ġm aster
ĠO ut
Ġbel oved
Ġdel ight
Ġpro ceed
Ġmanufactur ers
ĠS af
ĠB ar
Ġclin ical
Ġc our
Ġincl usivity
Ġcommun ic
Ġemb ark
ĠS ince
Ġaccur ately
Ġvehic les
om pl
Ġartic le
i ant
ou ts
ĠEncoura ge
Ġins ight
Ġch ance
ĠApp ro
Ġciv il
oun ting
Ġr ise
iv en
Ġsa w
Ġcommit ted
Ġaff ect
Ġevalu ation
Ġinj uries
ĠF act
as ion
Ġh yp
ut ing
Ġconc ent
ĠF inally
Ġpurch asing
ed eral
b it
ur d
ĠG u
Ġaesthe tics
ti sing
Ġprepar ation
P ro
ĠW ar
Ġget ting
Ġexplain ed
Ġth r
Ġann oun
Ġcandid ates
Ġbl end
ĠV al
Ġser ved
rou p
Ġallow ed
Ġfe es
Wh at
Ġwond er
un ately
fer ences
Ġacc ompl
d own
Ġb atter
Ġpractition ers
Ġharm on
Ġl ing
Ġpass age
ĠSt ate
Ġinj ury
Ġbo ost
Ġother wise
Ġbre aking
Ġmaxim um
Ġhel d
Ġs ix
ĠJ am
Ġatm osphere
Ġsur v
know n
un te
Ġoptim ization
Ġcaus es
ĠIn v
Ġalign ment
Ġloc ations
( \
m on
ra d
Ġdef ine
A pp
Ġshowc asing
Ġd ental
Ġh ers
Ġwor ry
Ġsur prise
Through out
Ġp ublish
lec ted
Ġadequ ate
ĠRel ations
Ġintegr al
Ġact ually
Ġrece ived
b al
Ġis ol
Ġar en
Ġs ector
Ġrelev ance
Ġparticip ating
ning s
Ġentertain ment
ight ly
Ġremind er
ĠM in
Ġinter connected
Ġl aun
Ġcover age
ĠC ap
ĠUn iversity
lam m
Ġz ero
Ġin tim
Ġstr ing
A R
Ġint ellectual
ĠL it
ĠDisc uss
Ġp et
ach ing
Ġvers ion
ĠTechn ology
Ġschol ars
Ġl ic
Ġcomp lement
s olving
Ġlat est
Ġre place
Ġcommun icate
Ġacc ounts
Ġrem ote
Ġrep orts
Ġr ule
ĠS ign
ar a
Ġwant ed
Ġgl ance
Ġfre ed
ĠLear ning
Ġgra pp
Ġdat ab
v ille
Ġp le
Ġstri ve
Ġpromot es
Ġblock chain
Ġavail ability
Ġt it
Ġref ine
Ġcaptiv ating
Ġcent ered
Ġfund s
Ġch e
and om
ke y
Ġlook ed
Ġg as
ĠPrac tices
Ġreach ing
Ġgam ing
Ġs our
Ġf arm
ot es
Ġcor ner
Ġther apeutic
Ġ1 8
Ġun s
Ġexpl o
Ġdim ensions
ĠM et
Ġp u
Ġindepend ent
Ġmathema tical
Ġtra dition
ĠMan y
Ġshif ts
Ġh op
tif ication
Ġvari ables
Ġdesign ers
ĠS ee
Ġtas k
Ġdur ability
ĠUtil izing
Ġrep orting
ĠBen efits
Ġthri ve
Ġm al
in u
ĠA ut
Ġread y
Ġsub ject
Ġwrit ten
Ġmitig ate
Ġd ark
Ġstate ment
ĠT ogether
Ġreview s
Ġw on
Ġwe alth
Ġshap es
p oints
Ġfor eign
Ġtransform ative
Ġpo or
Ġsound s
c o
Ġim pl
Ġpl ant
Ġtarget ing
ent ed
Ġexcess ive
ĠApp lying
ĠIm pro
ĠCommun ity
Ġauthentic ity
U n
E m
ĠOn line
Ġinflu ences
Ġsch em
Ġinvest ments
Ġstrength en
â Ĥ
Ġtarget ed
ĠN on
Ġl on
Ġex ists
Ġinstit ution
Ġdil ig
) )
Ġinnov ations
ĠChallen ges
Ġsever e
Ġcompreh ension
ĠN avigating
/ /
Ġdiscuss ed
Ġdel ves
Ġpath s
== ==
an ation
Ġch ain
Ġpro p
ĠEmb racing
Ġun its
Ġgl ass
Ġthought fully
as m
ir ms
ĠInd ia
Ġtext ure
ud es
ag ues
Ġintroduc ed
Ġre lying
Ġseason ed
Ġhers elf
Ġlik elihood
Ġinvestig ation
ĠAmeric a
Ġwa it
Ġle ave
Ġmast ering
Ġlever age
A nd
Â ²
Ġincre ases
Ġcharacter ized
Ġstrugg le
Ġversati le
ĠServ ices
Ġbra in
Ġtransform ing
Ġtop ic
Ġsc reen
Ġneighb or
y l
Ġdist ance
Ġd u
Ġtim ely
h ouse
Ġconn ect
ant ly
Ġsle ep
Ġmin utes
ron ic
er a
ĠRec ogn
d it
Ġmedic ine
Ġwee ks
s on
Ġimm ense
Ġm ilitary
ol ding
od ing
ĠC oun
pro f
ĠC ity
Ġtr uth
Ġinvolve ment
Ġdoc uments
Ġcater ing
Ġno tice
Ġliter ature
over n
l ining
Ġemo tion
ti al
Ġboo ks
Ġa id
ot ing
Ġcont ract
Ġdis h
Ġfig ure
ti fic
ĠD ep
ĠMe as
Ġfin ance
ĠRes pons
Ġevery day
Ġco hes
Ġent ails
Ġevent ually
Ġweak nesses
an n
Ġext ended
Ġparticip ate
p ers
Ġb ir
Ġsepar ate
Ġrev olution
N A
Ġve get
Ġviol ence
ĠTh om
Ġpursu ing
Ġres idents
Ġdis app
ograph ics
Ġpress ing
app ing
Ġd ating
ĠS outh
Ġme als
Ġag reed
Ġext re
ours es
g g
f ree
Ġp and
Ġthe ore
Ġperson nel
w w
Ġpro active
Ġess ence
ĠEn h
ĠSystem s
Ġre wards
ĠMod ern
Ġabs or
Ġhand le
Ġas king
Ġsqu are
et ers
Ġp un
ĠS w
Ġprec ise
Ġp air
Ġman ual
ograph ical
Ġmotiv ation
Ġemp owers
Ġgra nd
Ġpsych ological
Ġprom ises
o e
Ġd og
Ġmonit or
ĠC B
st ruc
Ġfor th
Ġmus icians
f ac
Ġtang ible
ĠL ife
Ġro ad
Ġprevious ly
Ġcateg ories
ap y
Ġassess ment
an ges
ecess ary
Ġder ived
unc tion
r t
ĠS ub
Ġob tain
Ġunc over
Ġphil osoph
v is
Ġimmedi ately
ĠIdentif ying
Ġsol ving
Ġmess aging
il ed
d is
Ġh it
Ġcent ury
Ġadher ence
Ġ( $
ell o
Ġprec ision
ib l
rel ated
Ġworksh ops
Ġsp ot
Ġscenar io
Ġpers ever
Ġde ath
o tive
r ust
ot or
Ġacc omp
ĠS EO
at ers
Ġexpress ions
Ġremain ing
Ġclean ing
Ġview s
ĠTra vel
on t
Ġw ent
Ġcomprom ising
ĠAr ts
Ġaud io
Ġsav ings
Ġs elling
ĠP rom
os ition
ĠMon it
Ġbel ow
C A
Ġown ership
Ġpush ing
Ġvig il
Ġco ffee
Ġe lect
Ġc atch
ro vers
iv ely
Ġle ast
ti re
ĠE ffective
Ġpolic ym
iv eness
um an
let es
Ġw ood
le g
Ġe ase
ĠR uss
Ġinn er
Ġcont rac
Ġstri king
o ys
Ġsub tle
Ġth ing
Ġapplic able
Ġlim its
P S
ĠP ot
Ġreson ate
ĠL aw
ĠCont rol
N ext
ig ration
Ġadjust ments
ĠU p
ĠEurop ean
Ġproduc ing
i ate
ar ian
Ġc os
Ġcompos ition
f ol
VI D
Ġexperi encing
Ġhapp ened
Ġcoop eration
a ul
ĠBal ancing
Ġl iqu
Ġorgan ic
Ġgener ating
Ġtr end
Ġemphas izes
Ġaesthe tic
Ġp ray
Ġinspir ing
Ġele g
ven ues
Ġlo an
Ġmed ium
Ġsupp or
Ġtheore tical
Ġl ighting
Ġprepar ing
ĠDevelop ing
Ġext ends
er ie
Ġ1 2
Ġfin ally
Ġmem ber
ish es
ĠL im
Ġloc ated
Ġacqu is
Ġpar ty
Ġf aster
ĠStud ents
Ġro ots
Ġprof ici
Ġs udden
Ġd ry
oc h
Ġpros pects
Ġcorpor ate
Ġintern et
o ly
Ġout put
Ġ19 9
Ġgovern ance
ir us
Ġam ounts
um n
Ġstrugg les
w ater
Ġcar bon
Ġreflec ts
y d
ĠSec ond
fac eted
Ġbackground s
Ġtravel ers
Ġreput able
Ġs ave
Ġmin or
ĠD i
Ġb ed
Ġform ation
ĠN ever
ors hip
Ġpol l
Ġones elf
Ġtut orial
Ġt iss
Ġemer ge
iv es
ĠRegular ly
Ġinc ident
ted ly
Ġbelie ve
Ġrepresent ing
Ġinter act
Ġpl ants
Ġarrange ments
ĠB re
oun tain
e ath
h ere
Ġp itch
ĠK now
Ġprof it
Ġsupp l
Ġh es
ill ed
ind er
Ġrel iability
Ġform at
Ġansw er
ĠAss oci
Ġcomplex ities
Ġentreprene urs
ĠY et
wor d
Ġsci enti
Ġt ension
ues ts
Ġsec uring
ĠSec urity
Ġt ip
Ġskill ed
Ġconduc t
P A
ĠR et
Ġperce ived
Ġlifesty le
Ġsuggest ed
s uch
Ġg em
e k
Ġf ront
omes tic
Ġsupp orts
onom ic
Ġsophistic ated
Ġren owned
Ġversati lity
Ġpl aces
ĠF r
Ġwork ers
Ġform ula
Ġup coming
lec tions
: //
Ġd ang
u is
ge vity
ĠD on
ĠD igital
Ġprof iles
Ġs ought
Ġp ick
Ġbenef icial
Ġarg ue
Ġpay ment
ig en
t aking
o ving
ĠP roduc
math b
Ġact ors
or al
M S
Ġachieve ments
S c
Ġne u
Ġag g
Ġpersonal ized
Ġcollabor ations
es tim
Ġt aught
Ġal though
Ġac ts
id ity
Ġs izes
Ġvis ually
ount ers
Ġtri p
y cl
Ġint roduce
Ġemploy ee
ĠSu pp
Ġspec ies
ĠC ri
Ġgener ated
Ġavoid ing
Ġdis orders
Ġf an
Ġf ant
pl om
pec tion
Ġhelp ed
Ġform al
Ġl augh
Ġbl ack
Ġcomfort able
Ġt ips
o pping
Ġsc al
Ġsac ri
Ġf em
Ġsu itable
ĠFor m
Ġstand ing
Ġinterest ed
Ġa f
Ġb ott
Ġatt ending
Ġg ot
ail ing
ind ing
Ġa verage
as y
Ġv ill
Ġres ol
Ġr ati
Ġend uring
Ġhost ing
Ġmort g
er b
Ġf ab
Ġvol unte
Ġcoun s
ĠTim e
Ġde ploy
Ġro t
ĠCon vers
Ġflex ible
Ġconvers ion
Ġm agn
Ġent ry
Ġseem s
} $
Ġsuppor tive
1 2
Ġic onic
Ġdis rup
ĠH IV
Ġex tr
Ġdec ades
ĠE qu
Ġnot es
Ġf ashion
f ound
Ġre asons
Ġf itness
il ing
Ġbl ue
onom y
Ġcol lect
ear s
Ġp or
Ġben eath
Ġhist or
on ding
t a
Ġex pected
Ġv ict
Ġcre ations
Ġstream line
ĠB as
an ging
Ġhard ware
Ġint ended
os ed
es tiv
Ġwork ed
Ġcoach es
Ġhous ing
ĠFact ors
Ġw ine
ri e
Ġpop ulation
Ġlon gevity
Ġn od
ĠL astly
Ġass ist
Ġlangu ages
Ġmill ion
O S
on ial
Ġdiv ine
Ġform ing
ĠMus ic
Ġs ent
ĠM ul
Ġarchitect ure
Ġprep are
Ġfreed om
Ġmach ines
Ġstatis tics
ĠTim my
Ġqu anti
Ġprom inent
Ġmo ist
Ġo x
ci pl
Ġthri ving
ĠJ our
ĠCom par
Ġsur pris
Ġreturn s
ĠIdentif y
Ġlux ury
V II
ĠF ollow
k en
qu is
ri ven
Ġfor get
Ġencounter ed
g ments
Ġmo lec
Ġdescrib ed
Ġt ech
Ġdel icious
Ġgr ace
Ġmulti faceted
Ġrecip e
Ġg aps
Ġh omes
ĠB o
Ġse lect
Ġdise ases
ĠL ead
ol ic
ĠB et
Ġoff ice
Ġ Î
Ġt ests
Ġadop tion
ĠCO VID
Ġadver tising
vant ages
ĠWor k
Ġprom p
Ġm ov
Ġo d
Ġv ic
ĠEn ter
Ġat tract
Ġover come
A fter
ĠN e
ĠC ur
ĠP at
ĠM icro
Ġreve als
Ġp al
Ġsu it
Ġg uests
ĠPerform ance
Ġser ious
ĠSt ay
Ġcare ers
Ġmind s
Ġharm ony
pec ting
ĠLever aging
Ġidentif ied
Ġs ell
Ġwill ing
Ġcoach ing
uth or
ĠE l
Ġus ually
Ġpass ed
Ġview ers
in ter
Ġr are
iti vity
u ff
Ġalloc ation
Ġc ook
Ġde ad
Ġswe et
ar ter
ĠS um
ĠPl us
ĠP ost
ant ed
Ġleg is
Ġb and
Ġleg acy
ĠExam ple
ĠO pportun
Ġdeb ates
Ġuncertain ty
ĠAd ap
Ġinters ection
Ġcons cious
Ġm ir
urr ing
Ġcon vey
ru ption
Ġeduc ators
ĠIm agine
p age
Ġjour neys
ar king
wor th
Ġsuper ior
p read
t able
aun ting
Ġclaim s
Ġjour nal
Ġdirec tion
ist ry
Ġmo tion
Ġunn ecessary
Ġcl arity
Ġam pl
in ity
est ed
Ġpand emic
G uid
Ġdiscipl ines
Ġenc ounters
Ġdom ain
Ġvulner able
Ġvari ations
ĠR o
ĠP ark
Ġst ead
Ġre actions
Ġhuman ity
Ġframe work
pon ding
Ġharmon ious
Ġas k
p oint
Ġcent ers
Ġre ally
Ġag ents
ĠCon text
Ġprompt ly
h ab
Ġform er
Ġtack le
Ġret ail
ĠProf ession
ĠD ra
ĠEn viron
Ġfund ing
Ġnecessit ates
Ġc ourses
Ġapproach ed
Ġvis iting
Ġdi am
ak er
Ġatt ach
A T
er ves
ĠD if
Ġerr or
ĠIn iti
Ġs tim
ĠR ob
Ġcomb at
Ġsur faces
Ġequ ity
Ġb it
Ġpu zz
Ġn ormal
ĠWe b
th eless
Ġal lev
Ġcomput ing
E S
est ry
Ġsec tions
Ġintegr ated
Ġb ond
uct u
ĠProg ram
s p
ri ed
Ġtw ist
Ġtransform ed
ĠG iven
Ġequ itable
Ġf irms
Ġadapt ation
n ov
Ġno thing
Ġaccomp an
Ġph one
Ġpe ers
Ġhum ans
Ġentire ly
Ġprem ium
Ġm ark
Ġsequ ence
ĠEar th
Ġt ast
ĠI T
Ġexpans ion
Ġvide os
ĠPri v
Ġr andom
Ġdis put
Ġconstant ly
av a
Ġbl ocks
Ġgovern ments
Ġ âĪ
Ġath letes
Ġpersever ance
) ;
ro ad
Ġdef in
Ġshowc ases
ides pread
n ab
Ġcall s
o king
ĠB est
i xt
it am
Ġb ill
Ġs ke
ĠA ct
Ġpropos ed
Ġdest ination
Ġs em
Ġfl uid
Ġg ent
Ġs ides
Ġp age
ĠSu pport
Ġtravel ing
Ġprec ious
Ġroot ed
Ġrestr ictions
Ġgener ally
Ġec o
b l
Ġgood s
ap an
Ġapp s
ĠIm plications
Ġemploy ment
ar ad
Ġdocument ation
Ġgr asp
Ġattribut es
ĠNor th
t ra
Ġag ency
Ġaccompl ish
ĠRe view
Ġmind fulness
Ġenjoy ing
Ġpolicym akers
Ġf er
Ġg ard
A l
Ġman if
ĠMed ia
Ġd ram
Ġcomb ination
ĠT ypes
Ġconf id
Ġexhib it
et a
Ġch a
Ġunder st
Ġme al
Ġhol ding
Ġdisc ourse
ent ral
Ġrecogn ized
Ġw idespread
Ġint u
Ġbuy ers
ĠG roup
Ġcom plic
Ġsc re
Ġme ets
Ġmarg inal
B eyond
Ġsum mary
re te
Ġidenti ties
Ġt urning
an ting
Ġdef ined
Ġprim e
Ġrece iving
Ġempower ing
Ġold er
Ġh az
as ive
Ġatt acks
Ġcon v
Ġn ation
ĠE ven
Ġge ographical
Ġmil est
Ġpl ot
ash ing
Ġag o
Ġarti ficial
Ġvol ume
Ġeconom y
Ġin equ
Ġamong st
. âĢĿ
Ġcrafts manship
in o
Ġp ul
in ning
Ġnew found
Ġremain ed
' .
Ġcon cl
Ġinc idents
urr ent
Ġmag ical
s hip
Ġrecip es
q rt
Ġ201 8
Ġnet working
Ġtemper atures
Ġfollow s
Ġath le
ĠA re
Ġcont rovers
Ġvers us
Ġb orrow
Ġrh yth
) $
Ġdo ors
Ġann ual
Ġaccess ories
p et
ĠC ultural
st one
Ġpic ture
ang le
ro oms
Ġwh e
Ġint eg
Ġfl our
Ġany thing
Ġheight ened
Ġrec re
ĠTw o
A C
Ġelev ate
Ġprom ise
Ġelectr onic
ĠEng lish
ĠT ip
Ġro ll
Ġsun ny
Ġhighlight ed
es tern
Ġv en
Ġra ised
Ġcomp ens
Ġbal anced
ĠAdd ressing
Ġclass es
Ġmeticul ous
Ġneighbor hood
Ċ ĠĠĠĠ
Ġfl uctu
tt ps
Ġch ronic
Ġocc urs
oc ation
Ġharm ful
Ġmod ifications
Ġauthor ities
Ġinter active
Ġindic ators
E R
Ġgather ing
Ġobs erv
ĠJam ie
Ġnew ly
Ġprof ile
Ġpres erve
Ġbal ancing
Ġanim al
Ġtour ism
ed s
Ġext end
Ġoverl ooked
en ities
Ġassess ments
Ġf ru
Ġte x
Ġafford able
Ġende avors
Ġ â
Ġcommon ly
Ġpros pective
ĠG row
Ġop t
ĠM o
arad erie
Ġharness ing
Ġacc el
ĠNever theless
par ts
ent y
Ġadvent ures
z y
Ġsched ules
g ers
Ġth ous
Ġaw a
Ġagree ments
Ġmill ions
Ġpred ic
A c
Ġinstruc tions
wor ds
Ġoptim izing
Ġvic tim
Ġyield s
H ello
oc ol
ĠF ound
Ġcri tically
Ġcam araderie
Ġde al
Ġphot ograph
Ġrepl ied
u nder
Ġconfid ently
a ver
er ate
Ġspe aking
Ġfail ure
on ing
Ġsil ver
ĠC lear
Ġcris is
ĠJ apan
Ġed ge
Ġexplicit ly
Ġperfect ly
Ġimmers ive
c ip
t op
Ġvo ices
ĠA ir
u tive
dis cipl
ro ph
Ġeff ect
Ġ1 5
Ġpro l
ĠIn ves
Ġro of
Ġsafegu arding
1 6
Ġreg im
Ġc ards
Ġre ward
ĠEm ploy
Ġexc ited
Ġs ectors
ĠA ust
ĠLeg al
Ġstate ments
er ative
ĠG overn
Ġhes it
Ġmar vel
ang ed
ĠI I
Ġill um
ĠCommun ication
ĠSaf ety
Ġgain ing
ap h
Ġrelax ation
C ons
Ġg ently
Ġpurch ase
ag on
Ġtarget s
ĠOp en
ĠE d
Ġconstruc tive
ĠIn f
ĠMan ufact
Ġvac c
Ġdra wn
ĠY ork
Ġexc er
em atic
Ġguid ing
Ġadher ing
Ġ ice
ĠE ast
1 5
Ġm arked
Ġconduc ting
Ġp ages
Ġtal ents
og a
Ġcounter parts
d ate
Ġd omestic
Ġvulner ability
p iec
et te
Ġth read
ĠD ist
Ġtra um
part y
Ġinstall ation
) ^
en n
Ġpay ments
Ġrout ines
S S
Ġlo ad
ob al
ire c
Ġocc up
Ġlink ed
O f
Ġt rou
Ġpred ict
Ġshif ting
bo ard
Ġline ar
ĠOpportun ities
ĠSt ep
Ġexcl usive
Ġdetail ed
c ons
oura ge
ĠCl ass
i i
Ġtra its
Ġequ ally
Ġem issions
Ġconstit utes
Ġskin care
es p
Ġgiv es
bre aking
ĠL o
Ġguarant ees
Ġcorres ponding
ĠL ily
itch en
ĠE very
Ġcop y
Ġdef ense
Ġ3 0
ĠF ost
Ġpresent ation
i ology
Ġt un
le vel
Ġreduc tion
ĠSch ool
sc ale
1 8
Ġd ance
Ġnot ing
Ġcolle agues
Ġpassion ate
a id
if orm
Ġincred ible
ĠPot ential
Ġ [
ĠCol le
Ġdisc rim
Ġra ises
Ġ ign
Ġorgan ized
pir it
r iting
v ent
Ġro ck
Ġchar ge
ĠExper ience
ict ures
ĠC ost
Ġcur ve
Ġvar iety
Ġmat rix
Ġste el
Ġsl ightly
ec onomic
Ġter rit
Ġrest aur
Ġrec on
Ġc uis
Ġexpl ores
Ġmatch es
Ġb rief
Ġph ase
E D
Ġsc ale
Ġgra titude
Ġt ree
igh ter
Ġgen res
Ġvers ions
Ġpre vention
Ġemphas is
Ġshowc ase
ĠChristian ity
ĠEurop e
tif y
ĠIn formation
t ors
us ions
Ġcur ric
Ġtap estry
Ġhealth ier
ĠEm power
Ġcompet ing
ĠExam ination
st ream
row n
Ġauthor ity
Ġbol st
Ġmy ster
Ġmus cle
Ġdi plom
Ġupd ated
Ġnu anced
Ġregul ation
Ġob ject
Ġopin ions
Ġout lined
ĠC or
ĠSt and
Ġpain ting
Ġman agers
ĠSt e
Ġbr ight
b ox
Ġreach ed
Ġbo ard
ti le
Ġprov ider
Ġtrans itions
Ġprote in
ĠCh ina
Th ere
Ġenthusi asm
Ġrecomm ended
Ġemphas ize
Ġacad em
ĠU pon
discipl inary
p ens
Ġacquis ition
Ġr ace
un ch
Ġw aters
Ġt iny
Ġautom otive
Ġposition ing
og en
Ġprin cip
Ġclear ly
ibl ical
ĠCont inu
ĠServ ice
r ings
Ġadminist ration
Ġf ruit
Ġper m
rol l
Ġ201 7
Ġdeg ree
ĠO f
a zing
Ġdiffer enti
Guid eline
Ġsu fficient
Ġdat as
o tic
Ġim per
Ġer a
Ġref ining
Ġun t
ĠInd ust
Ġmathema tics
Ġcover ed
Ġdispar ate
Ġmeet ings
Ġgent le
re es
ou b
Ġwal k
ĠH ome
ub e
ĠChristi ans
Ġthorough ly
Ġgrad ually
u ed
M L
Ġcontain s
Ġs in
ps on
ĠPl atform
Ġrel ative
Ġincl usion
Ġcl ub
Ġun us
Ġcl ar
Ġinv iting
Ġautom ated
ec urity
Ġre tention
ĠHist ory
A S
I S
ting u
Ġar ray
Ġstri ke
Ġc oin
Ġa p
Ġintroduc ing
y le
Ġb ul
Ġpar alle
Ġdef ensive
Ġoverwhel ming
ĠL ocal
Ġstruct ural
Ġindic ates
Ġn ames
Ġappear s
Ġsched ul
ĠCB D
Ġ Ã
Ġf at
ĠG ra
Ġcher ished
ĠBe h
Ġwond ered
ĠStud ies
Ġunl ock
Ġoutd oor
Ġm otor
Ġn ations
Ġexpress ed
Ġtre as
ĠSet ting
em ed
Ġexcer pt
ep th
Ġinterpret ation
ĠF amiliar
m m
ĠB rand
Ġ201 9
lo ad
ĠP ay
ĠD oc
Ġreve aling
ĠVis ual
Ġv eter
ĠCre ating
Ġchec ks
Ġdet ection
Ġp ictures
Ġpart ner
h a
ĠEx c
iz z
Ġs at
Ġout come
Ġdom ains
le ts
Ġde ar
Ġscienti sts
Ġor al
t w
Ġam enities
P s
Ġp ra
ĠB el
rip tions
ĠInd ian
Ġdou ble
Ġyou th
Ġadvoc acy
Ġspe ech
ain t
Ġfirst hand
Ġcry st
Ġfab ric
Ġteach ers
Ġc ities
Ġsoc io
Ġturn s
Ġcontrac ts
Â °
ĠTh en
E n
r ate
Ġc as
Ġmed itation
ĠT om
ĠT er
ĠN F
Ġob lig
ĠFin ancial
ĠSc ience
c os
ĠPar ticip
Ġgene tic
Ġprofici ency
Ġocc asion
Ġprior ities
Ġthous ands
ĠIn nov
Ġindust rial
ars h
ĠF oot
Ġt ensions
Ġc ash
Ġto m
Ġtra ding
Ġcent uries
Ġg ear
Ġoper ate
ĠH uman
Ġd aunting
d riven
o tion
ĠM ake
P R
Ġmaxim izing
Ġapp oint
Ġp ose
Ġf ish
Ġphenomen on
Ġform ed
Ġ201 6
Ġtest ament
f ield
Ġb ank
so ft
Ġsens itivity
Ġsp ending
Ġnutri tion
Ġpray er
Ġcons ists
Ġk ids
Ġexcell ence
Ġb us
ĠPrac tice
Ġinterp ersonal
Ġaspir ations
Ġs ession
Ġform ats
Ġ202 1
Ġsug ar
Ġpl aced
ĠCom b
ĠColle ge
Ġres id
Ġqu iet
Ġmag ic
for ward
Ġsub jects
Ġtre ating
eg in
Ġser ver
Ġsign als
Ġa venues
b ra
ĠS pirit
ru pt
Ġra ising
m ers
ĠBl ack
ra ft
Ġad ults
Ġbr an
Ġexist ence
Ġgain s
ĠUtil ize
t es
Ġset t
Ġf ederal
ĠT est
ĠM ethod
Th ese
Ġalign ed
Ġgen re
Ġint ense
Ġimplement ed
. )
b ing
Ġa st
Ġshar es
Ġdem ographics
ĠEn ergy
Ġsp ort
Ġobs erved
ot ed
Ġinf lamm
Ġcomb ines
ĠG erm
ress ed
ĠStrateg y
Ġpursu it
ĠS elf
ors e
anc ies
ĠInd eed
Ġw oman
Ġm outh
Ġper cent
Ġind ul
Ġag ric
oot ing
ĠConvers ely
ĠG reen
Ġknow s
Ġwork flow
Ġcustom ized
atch es
Ġd in
ac erb
ĠM ore
Ġdemoc ratic
Ġpa id
1 1
H ere
ĠF ace
Ġsw itch
Ġs and
Ġprog ression
Ġrel ief
Ġd one
Ġco ast
Ġenc ry
i ances
Ġd ining
Ġcraf ted
S h
Ġr end
Ġsh own
Ġcomb inations
Ġex acerb
ĠG ame
Ġcollabor ate
Ġdeb ate
Ġwatch ing
Ġvar iable
um ph
Ġv ector
Ġwr ong
um ing
Ġdis tingu
in ates
B A
f ast
Ġm and
Ġcom plications
ĠAnaly zing
PI s
ĠLit tle
Ġsol ar
Ġel ig
Ġend less
Ġm ood
Ġinclud ed
Ġhosp it
ĠP ort
Ġpass ing
ĠComp an
Ġinterview s
ĠT yp
pl ed
Ġdeep en
Ġstring ent
ĠC raf
Ġprev al
ĠBack ground
le ments
Ġparam eters
Ġcomp aring
Ġinc enti
Ġhapp ens
Ġtim eless
Ġimportant ly
Ġperson ality
Ġfriend ly
Ġcorrect ly
ra p
Ġf ol
st ep
Ġsymb ols
Ġfacilit ates
Ġsur ve
Ġunus ual
Ġacc um
Ġweb page
Ġafford ability
Ġcrim inal
Ġdistinc tive
Ġle aves
Ġper pet
Ġsc ores
Ġfood s
ĠTe am
king s
Ġschem es
ur m
Ġadop t
Ġe ch
Ġsign al
us ing
ger y
ul i
ing er
Ġc aught
= \
Ġs am
Ġsec ret
Ġtrust ed
el low
Ġown ers
Ġpartners hip
Ġobjec tive
g n
ad a
ol itical
Ġcre am
Ġpos ed
ump tions
Ġofficial s
A r
Ġnod ded
ur is
Ġsoc ieties
Ġartic les
at in
Ġinv ent
Ġfru its
Ġd ro
ĠPh ys
Ġbring ing
C ol
th rough
le ft
ot ypes
tit udes
ĠW ill
Ġdes ire
Ġme ant
r ig
Ġr ain
ĠE ss
Ġdispar ities
Ġaw are
u ce
ti ble
Ġwe igh
ĠL ike
ĠO per
Ġscen es
por ts
Ġunderst ood
Ġge omet
ed ding
Ġcons ervation
ĠThrough out
c ultural
Ġwh is
ĠM at
Ġinter face
Ġdet er
R M
ĠAl tern
Ġimm une
ĠAppro ach
Ġwid ely
Ġaf tern
D A
Ġs tic
Ġind icate
Ġcer tific
ĠExpl oration
E ffective
ĠC ul
Ġfin ancing
Ġear th
ĠBe fore
Ġch at
Ġun iform
Ġcelebr ating
ĠPri or
br id
Ġal b
Ġst em
ater al
ĠRed dit
ĠM em
Ġadv ances
Ġphot ography
c oin
m ost
w s
Ġcy cle
Ġloss es
ĠCollabor ation
ĠThom pson
ph ones
Ġsol ve
\_ {
Ġstraight forward
Ġte eth
ĠUn like
g i
get table
Ġadap ting
ĠIns tit
Ġconfigur ations
Ġr ac
Ġdis m
Ġmechan ical
ran ch
Ġaddress es
Ġmeticul ously
com mer
commer ce
Ġadv ancing
Ġcom ing
Ġadvoc ating
Ġtail or
Ġpen al
Ġch amp
Ġle an
Ġtra ject
Ġfac es
par alle
Ġidentif ication
ĠH ol
Ġfe els
ĠProfession al
Ġwa ves
P h
v ision
ul ting
Ġder iv
6 0
Ġpro w
Ġfac ets
Ġgather ed
Ġbrid ge
ĠM c
Ġpost s
Ġassess ing
Ġ #
Ġup gra
Ġmob ility
Ġtex ts
Ġbreath taking
C O
un t
Ġthem e
Ġport fol
Ġst ret
Ġcomm and
-------- --
Ġord inary
Ġless on
Ġencompass es
Ġdream s
Ġcalc ulate
ĠEng ine
fort unately
Ġspiritual ity
Ġk itchen
Ġ19 8
ĠEar ly
Ġpresent ing
Ġprow ess
Y ou
Ġass umptions
Ġse gment
Ġj u
it ting
Ġsp ark
Wh y
ĠAut om
l or
Ġmiss ing
Ġcl o
E M
ĠA ud
ĠR equ
ĠInves tig
ĠAd op
Ġtri als
Ġobs erve
Ġaccept ance
Ġmind set
ĠSign ific
ch ar
Ġres ili
Ġtal e
ti sh
Ġs ample
ĠJ ack
an tic
as k
Ġaccommod ations
Ġp ool
et ing
Ġst one
Ġcy cles
3 0
ĠOr ig
Ġdemand ing
ĠManufact uring
Ġc in
1 4
Ġautom ation
Ġingred ient
Ġtri umph
Ġsugges ting
Ġopp onents
Ġno ise
Ġfrequ ency
os is
Ġconduc ive
w ood
or g
ĠI P
Ġgra du
ĠCompan ies
ĠAt t
Ġcour t
Ġg ems
Ġ >
Ġd ate
Ġprot ective
Ġprefer red
paralle led
i j
est led
ĠQ uality
ĠCent er
Ġar med
Ġcontrol s
k er
Ġtra in
Ġfulf ill
C C
Ġsp arked
res ent
Ġconduc ted
Ġsearch ing
Ġevol ve
tire ment
Ġ1 00
ĠDes c
Ġres ist
Ġemb odies
Ġb at
if orn
Ġfix ed
ĠB ri
Ġcha os
Ġp ed
ro c
asc ular
Ġj oint
Ġmarginal ized
I D
Ġcri ticism
ĠMul ti
Ġun paralleled
Ġto w
Ġjoin ing
Ġecosystem s
Ġpar ent
Ġre vel
ĠAr ti
Ġeng ines
Ġstrugg ling
ĠGrow th
ĠD irect
ip e
Ġinflu ential
Ġground breaking
Ġcelebr ate
Ġcan nab
Ġpass ions
Ġuse ful
ĠOp tim
ĠTra ining
et es
a ult
az on
s qrt
) \
Ġst op
Ġac cep
ĠAn g
Ġutil ization
Ġsw ift
Ġstrength ening
plic ity
## ##
Ġbatter y
Ġn ative
aw ays
rac y
Ġfew er
Ġper ception
Ġcol lecting
Ġse a
ov en
Ġl isting
Ġ1 4
Ġproduc ed
ĠFirst ly
Ġst ere
ĠW ind
Ġdep ends
Ġt emporary
ĠD o
ĠV ar
rol og
ĠCont ent
el ong
ĠAfric an
Ġsp anning
ĠI de
iti m
Ġcre ators
Ġorgan izing
ĠEm ily
Ġtre es
Ġper ceptions
ĠDe ep
Ġesc al
Ġqu an
Ġp ets
ĠM aterial
ĠAv oid
Ġbir th
om ial
ĠChar acter
Ġ rom
Ġfor g
Ġshap ed
ĠPol icy
ti ous
Ġexper im
Ġcuis ine
Ġeff ic
Ġalign s
F urthermore
Ġthe ories
Ġobs erving
Ġwarm th
ev olving
a e
Ġ5 0
Ġcre atures
ut ed
Ġmoist ure
ĠTra ditional
uris d
O ur
ĠR ather
ren ch
Ġspec ified
Ġcover ing
Ġinstru ments
Ġaftern oon
Ġlead er
Ġph r
Ġmay be
Ġdis pos
Ġloc ally
y ear
Ġac id
Ġmarket ers
Ġindic ating
. ).
Ġdiscipl ine
Ġreveal ed
Ġske p
Ġsub mit
m ic
Ġst ock
Ġexpress ing
ur ious
ĠEns uring
ĠProt ection
ĠC ross
ĠS er
Ġtrans mission
br ace
n ic
Ġl inks
Ġcomp ris
ĠD et
---------------- ------------
Ġfil ter
Ġnecessit ating
Ġk n
Ġt ight
ĠL ess
Ġdiscover ies
ĠSol utions
Ġmethod ologies
Ġdest inations
ĠGl obal
p aced
enti st
Ġcomprom ise
Ġunfor gettable
p re
Ġr ent
ex ts
Ġmast ery
Ġcustom ization
Ġh ob
Ġg ets
Ġs pl
aw areness
Ġfound ational
om y
ĠW ord
im ming
ther n
Ġatt or
ĠPre par
Ġdeterm ined
Ġmechan ics
f ers
c oh
ep ing
Ġdiscover ing
ĠMar ia
am b
ential ly
ĠEstablish ing
ud ing
Ġlim iting
A M
f l
Ġmeas uring
Ġnar row
ĠAnaly ze
ĠCal iforn
ĠD ay
Ġint ros
Ġorig ins
Ġhy per
Ġprob ability
Ġs enti
Ġab use
ef ined
Ġp owers
Ġsc ore
Ġrep air
Ġdec or
ĠInv est
igen ous
ĠFace book
ĠM ich
Th at
Ġrec ruit
Ġteach ings
Ġn one
Ġb ow
ĠK ing
Ġextre me
Ġdef ining
Ġunf amiliar
Ġsh opping
Ġvulner abilities
P C
Ġequ ations
Ġhab it
Ġs ti
Ġb old
Ġreg ist
Ġtoo th
av en
y cle
Ġpros per
ĠFoot ball
l ers
ce an
Ġinc ons
mar ks
Ġevol ved
ĠMicro soft
ag ram
ĠAssoci ation
Ġset up
Ġfil ms
ac tively
ri er
Ġling u
is ely
ension al
Ġeffic acy
Ġw alls
Ġrec ording
Ġansw ers
ating s
ĠSignific ance
H e
Ġw ider
ĠUnder stand
Ġrequ est
oub tedly
ĠT ake
ri ad
Ġf estiv
Ġst ood
Ġse lected
Ġdef inition
Ġcateg ory
ĠSuccess ful
P U
Ġview ing
Ġpack ages
Ġhouse hold
ress ions
ĠEns ure
1 7
Ġbut ter
az z
if ts
Ġdelight ful
Ġst able
Ġstar s
Ġmist akes
Ġch urch
rou d
Ġrel atively
Ġaut onomy
ĠPres ident
Ġtast es
r ators
om fort
Ġg ap
ĠEm phas
Ġthe ology
in ese
ĠM ia
Ġsec re
ir able
ĠT reat
Ġsum mer
m od
ĠB it
ĠF ort
Ġdi etary
Ġachie ved
Ġb aking
Ġexc el
Ġdeb t
ĠF ood
Ġattemp ts
Ġun con
atch ing
ĠAr med
tif ied
a ution
Ġto ys
Ġcompens ation
Ġlab el
ĠW ater
ĠIntegr ation
Ġscr ut
ĠAl ways
Ġreinfor cing
Ġinequ ality
Ġde als
Ġre form
Ġat titudes
ĠM al
Ġhoriz ons
ĠO ther
Ġre ver
Ġtrans it
Ġtiss ue
om in
Ġac ting
Ġattemp ting
ĠD iv
Ġcalc ulations
Ġcryptocurr encies
ĠR ead
Ġfac ts
Ġcou pled
in ts
ĠDe b
ĠF il
Ġse gments
Ġfam ous
Ġmo ves
str act
Ġvol umes
Ġsex ual
el es
Ġst re
os es
h ttps
Ġth ick
Ġworld s
Ġmy riad
Ġp ure
Ġcol d
C l
um in
Ġreal izing
Ġengine ers
Ġallev iate
iz able
c ast
Ġr ing
Ġcont exts
Ġra ise
Ġeager ly
Ġp it
ĠS ym
Ex pl
Ġw ise
Ġconf usion
Ġmitig ating
Ġdis pl
Ġclass room
Ġund oubtedly
Ġdepart ments
er ated
am ing
Ġstrength ens
Ġunder m
Ġover view
Ġrec all
Ġarri ved
i us
Ġset backs
Ġcar s
Ġcele b
ĠInc re
W ell
d isc
atur ally
Ġno tion
Ġanaly tical
int age
Ġeven ing
Ġnear ly
Ġprote ins
ĠSt ar
Ġbl ending
Ġencompass ing
ĠPriv acy
Ġfe et
ĠCh ild
Ġsk y
ult y
Ġlibr ary
Ġcomplic ated
Ġrec ycl
Ġw ire
eth eless
Ġmanip ulation
Ġdiscrim ination
Ġincons ist
Ġmix ed
Ġh arsh
ard less
Ġbrow sing
Ġmet als
Ġmor al
Ġfair ness
ĠP ur
Ġteach er
Ad ditionally
n ering
ĠP op
Ġdisc omfort
P l
Ġh inder
Ġsub sc
Ġprioriti zing
ĠCustom er
Ġre tain
Ġcar ries
Ġelectr ical
I s
m in
Ġfoot pr
Ġe gg
ĠCaliforn ia
Ġbi ases
C T
Ġind is
Ġtyp ical
Ġinterp re
Ġsuff ering
ĠMed ic
Ġimpl ies
Ġpar k
Ġtravel s
Ġlisten ers
Ġveget ables
Ġt ire
Ġv end
Ġreal istic
ĠSo ft
h am
Ġt ick
Ġcontribut ed
vers e
ltim ate
u ge
Ġre ass
p uts
Ġ1 6
ĠDe v
Ġsay ing
ĠSu per
ĠS pecial
Ġrequ ests
Ġrefer ence
f alls
Ġsc ope
Ġbu ying
ĠW est
Ġiniti ative
Ġsatisf ying
2 5
d epth
Ġrepresent ed
Ġc odes
Ġaff ili
Ġspecial izing
Ġsurround ings
Ġstri ving
Ġ20 20
Ġdatab ases
pens able
Ġp roud
ĠUs ers
Ġattr active
s pec
ĠW estern
Ġass et
ĠSe lection
m ade
on ym
Ġc ast
ic ks
Ġart work
Ġspec t
form ing
Ġfail ures
Ġsol d
C D
Ġa ging
Ġjud gment
aver ing
Ġunder p
ĠJ ava
Ġsa fer
ment ation
ĠM id
Ġcam era
ĠAust ral
ĠS al
ĠC amp
Ġpe ak
Ġrenew ed
Ġbelong ing
us es
ĠE conom
Ġsol ace
Ġconven ient
Ġtranspar ent
Ġatt ack
c ure
Ġcl ubs
Ġcorres p
ĠTr ust
Ġwal king
Ġaccommod ate
ra w
Ġexempl ifies
Ġclo thing
s er
rac tions
an ks
ul um
ĠM ag
Ġ urg
Ġemb arking
Ġcoord ination
Ġreport ed
Ġguarant ee
Ġpersist ent
Ġj urisd
ĠSome times
Ġl osing
Ġcl ick
Ġvalu ed
Ġutil ized
Ġcomple tion
Ġcy ber
Ġinterpret ations
Ġpar ad
Ġutil ity
Ġinflamm ation
Ġm ac
ĠV er
Ġdeg rees
Ġunw avering
Ġfulf illing
* :
Ġm ountain
ĠP sych
Ġsc ript
Ġconf idential
W or
ĠT op
Ġfluctu ations
Ġdisc l
Ġorig in
Ġvent ure
Ġindis pensable
C omm
ĠCh inese
Ġupd ate
Ġv itam
ov al
Ġleg itim
Ġrem in
o tional
Ġhum ility
Ċ ĠĠ
Ġwrit ers
a uthor
Ġc oding
ick en
s in
Ġb iblical
Ġcontinu ity
Ġang le
Ġpublish ed
im p
Ġoff ensive
ĠAm azon
ĠC he
ĠG old
ĠF rench
ge bra
Ġinter play
a per
Ġlif elong
Ġmedic ations
Ġphenomen a
m ind
im al
Ġsched ule
f ront
ici an
Ġexperiment ation
Ġg au
ul ties
Ġdri vers
B T
Ġoff ic
Ġb acter
Ġtrans action
Ġagree ment
ĠCho osing
ĠRecogn izing
C S
Ġdisput es
Ġcrim e
Ġnavig ation
ut ter
Ġpos es
Ġlaugh ter
R ec
Ġr ound
c il
am ily
ĠTh ough
ĠWith in
Ġliter acy
Ġth erm
Ġdri ves
Ġoblig ations
ĠB r
elf are
Ġpartic les
Ġstream s
Ġep is
M y
Ġmis con
Ġmor ning
it ations
Ġa x
Ġrenew able
bu ilding
urd les
ĠCh urch
Ġcons ent
Ġconf ront
Ġdep ression
Ġconfigur ation
ĠPl anning
Ġhapp en
Ġadvers e
ĠPe ople
Ġlic ens
em pt
rol ling
Ġsus cep
Ġtalent ed
Ġbegin ning
ocol ate
ĠP aul
ĠEnviron mental
Ġglob ally
Ġrefer red
Ġview points
Ġartist ry
n ight
Ġg ir
ĠUs er
Ġmilest ones
it ter
ĠComp reh
ĠPol itical
T im
Ġdom in
T r
Ġrele ases
Ġz ones
Ġstatis tical
ĠS an
ĠC ry
ĠTh er
Ġop ens
Ġbeg ins
Ġhear ts
Ġmortg age
over ing
Ġunf old
Ġcard i
al ign
Ġdri ven
ĠSk ills
ĠMed ical
pos ition
al g
ĠM or
Ġsim plicity
ĠCom ple
Ġkind ness
ĠRe v
Ġcomp ounds
Ġ201 5
ĠT our
ĠF und
Ġconc rete
ier arch
Ġpr ide
Ġarchitect ural
ĠSt ory
ĠB ased
Ġbu g
Ġc aution
Ġb ot
st e
bers ecurity
ĠEmpower ment
Ġchar ges
A P
Ġh urdles
um ber
Ġpursu its
Ġy oga
i am
Ġacc ident
Ġinflu enced
Ġlay out
Ġtem pl
ph one
st ate
Ġint roduction
ĠEm brace
F rom
ĠOb jec
Ġ2 5
Ġacqu iring
Ġf alls
ĠS il
pris es
Ġsacri fic
Ġe ating
Ġlibr aries
Ġn uc
Ġstruc k
Ġvac ation
Ġh iring
Ġdo or
Ġnegoti ations
Ġro l
ĠAr ch
ĠSh are
Ġst ones
v als
ĠL ong
Ġequ ality
r ants
Ġcont empl
Ġmo ther
v y
ĠJohn son
Ġattend ees
Ġar ising
Ġresp onding
Ġloc als
emb ly
Ġwar rant
g ue
al ian
Ġinflu enc
ĠPl an
Ġpack age
Ġcomp are
Ġdiagnos tic
Ġobserv ations
Ġsee ing
not ch
R em
Ġp in
Ġl ooks
Ġqu arter
Ġequ als
Ġappreci ating
Ġpromo tional
Ġtal es
Ġfeature d
t ely
in ery
ĠR est
Ġsong s
ĠT itle
Ġproper ly
Ġautom atically
me tic
d ers
Ġte lev
Ġfavor able
Ġhaz ards
Ġtraum a
Ġa rom
ĠF ocus
ys es
Ġbr ush
er ts
Ġn eck
Ġ$ (
ĠMay a
Ġsh ad
F i
Ġbelie vers
Ġsp ots
Ġconf ident
Ġn aturally
Ġst ored
ĠD av
ĠApp le
xim ity
ab etes
ĠR ich
c d
Ġt estim
ĠM ental
Ġbuilding s
Ġc e
Ġf ranch
Ġprov en
Ġpro por
Ġdim in
Ġcommunic ations
Ġcat ers
Ġpur s
Ġc ourage
Ġ$ $
Ġcontrol led
O ver
Ġd ual
Ġgre w
Ġdou b
el come
ĠM a
Ġown er
yth on
Ġannoun ce
b ed
l a
ven tional
uth entic
Ġ :
Ġrun s
Ġhol id
ĠCent ral
th rop
Ġt um
rom e
Ġto ld
mathb b
Ġencry ption
Ġb orders
Ġguid ed
Ġarg uments
k ers
Ġacc idents
Ġtri al
Ġpay ing
ar n
Ġv el
ĠH ouse
---------------- ----
Ġpurch ases
ĠDif fer
u ous
} ,
Ġad here
Ġequ ival
Ġdur ation
Ġcohes ive
coh ol
Ġsacrific ing
if f
ĠAd m
Ġfunctional ities
m edi
Ġth row
Ġab stract
Ġref resh
Ġdi et
Ġmotiv ations
ul ent
Ġfollow ers
Ġeth ics
ĠN eed
Ġup h
Ġsm iled
1 3
ĠS ou
ut er
Ġit em
Ġgu est
Ġ( "
d im
Ġr ush
E T
ĠM ark
we ight
ĠJ ames
Ġw elfare
ential s
ĠCho ose
Ġ ur
ist an
ĠT V
Ġenc aps
ar c
Ġcomb ine
ĠDiscuss ion
ĠDef ining
Ġchec king
Ġconf irm
Ġchild hood
Ġadjust ing
Ġmonth ly
Ġsurv ival
Ġneu ro
entral ized
ne tic
Ġtext ures
Ġtransl ate
Ġcryptocurr ency
Ġliqu id
Ġindepend ence
Ġbelie ved
ĠH and
rim e
em y
Ġc ues
Ġunivers ities
c an
Ġcustom s
al se
Ġconf ron
Ġins u
Ġ201 4
Ġaff ects
Ġstream ing
Ġreward ing
ed ia
ap ing
ide o
author ized
m akers
Ġj ump
Ġelectr on
Ġsun light
Ġwas h
Ġnum er
Ġimag ery
ĠPrior iti
ul s
Ġinter ior
ĠCre ate
Ġphilosoph y
Ġmanif est
Ġinvent ory
Ġremind ed
ĠBet ween
u k
Ġbox es
Ġremin isc
Ġexch anges
Cons ider
Ġco zy
Ġcertain ly
um ps
ĠÃ Ĺ
ĠB ra
ĠB ud
Ġcirc le
Ġcomple tely
Ġfe as
aim ed
Ġwin ning
Ġeleg ance
A m
Ġtr action
u ing
et ry
Ġsequ ences
ĠE ff
Ġso il
ob ile
erg ies
Ġnecess arily
Ġdesc riptions
Ġim aging
Ġob taining
Ġ19 7
Ġst ores
Ġtherap ies
Ġattr actions
Ġcontrol ling
ĠEvalu ate
Ġtit les
Ġsuc ceed
Ġintegr ate
Ġcom ment
Ġpe er
Ġminim um
Ġindepend ently
ĠPlatform s
Ġrend ering
Ġpres ervation
Ġphys ically
Ġden otes
Ġconcent r
2 00
Ġmod eling
Ġst ated
Ġr ough
Ġdialog ues
Ġl y
Ġshow ing
Ġfl o
Ġobs ervation
Ġste pping
: *
Ġp od
Ġpro actively
Ġimm un
Ġcomple ting
Ġbeauti fully
Ġs lic
wards hip
iel ding
Ġcandid ate
Ġple as
Ġsign ifies
Ġacc ounting
Ġwr ite
p ace
al ities
Ġrem ove
Ġt all
app ed
Ġunivers al
Ġser vers
Ġemb ed
S D
Ġrele ased
Ġpurs ue
Ġadvoc ate
Ġang les
Ġtri ed
Ġcris es
Ġelectric ity
Ġcomplement ary
Ġpress ures
d o
Ġcon g
Ġfrequ ent
Ġsmooth ly
Ġmanufactur er
Ġgrapp ling
Ġrel iance
ĠS oci
Ġed iting
Ġintros pection
Ġgu ess
Ġsaf ely
Ġenjoy able
Ġs aving
Ġne ut
Ġplan et
Ġwond ers
Ġinter faces
Ġsupport ed
ĠFe atures
Ġind ex
over ty
Ġreson ates
Ch apter
ĠD ri
Ġmar ks
Ġdiffic ulties
Ġfem ale
ĠIt alian
Ġvol ati
d y
Ġkeep s
Ġcal m
Ġpromo tion
ĠAfric a
Ġdism iss
ĠTo ols
Ġcurr ently
Ġpropos ition
ĠCompreh ensive
Ġrel ies
Ġauthentic ation
Ġsubs tit
h ear
} ^
Ġ2 4
Ġsubst ances
Ġhelp ful
Ġdel ving
Ġprec isely
Ġf ishing
Ġcol umn
ĠWh o
Ġent ering
Ġto ler
ell s
ĠCons ult
ĠProv iding
ĠM aking
) =
Ġbre ast
ti qu
Ġlegis lation
c ol
z ed
Ġdiffer ently
re c
Ġr ub
tic ians
ord s
ĠAdv anced
Ġenrich ing
Ġprofit ability
Ġfl at
Ġshar p
c al
Ġanal yses
Ġprincip le
ĠH ot
Ġhum or
Ġfra g
ĠRuss ia
S e
Ġglob e
Ġquanti ties
ĠD ive
Ġcannab is
I T
ĠIntegr ating
R eg
ep t
Ġ1 3
Ġprol ong
con t
Ġphot os
Ġh un
id ers
Ġv oc
ill a
Ġrepresent ations
Ġsyn th
Ġenjoy ment
Ġundersc ore
ra vel
Ġstere otypes
M eanwhile
rust ration
Ġaccompan ied
ti tive
Ġf iction
Ġpl acing
ĠV ol
Ġdispl ays
Ġre tirement
ap ers
ĠR en
Ġsocio economic
ĠBri tish
Ġhapp iness
ĠNon etheless
g on
ĠN ext
Ġfunction ing
Ġwind ow
Ġfra ud
quis ite
Ġsh all
S A
m ates
Ġauth ors
Ġcrow d
Ġbol ster
Ġrati o
Ġto y
ĠH T
Ġs anc
Ġapp ar
Ġcri tics
Ġv intage
Ġpl astic
Ġpsych ology
ĠL uc
n omial
ĠCollabor ative
Ġmov ie
c el
re w
ati al
ex p
Ġcollec ted
D uring
olog ists
ĠPro ject
mind ed
ĠUn fortunately
Ġlingu istic
or em
ĠE lectr
Ġfill ing
Ġvigil ant
ĠIndust ry
Ġprosper ity
Ġe ight
Ġun authorized
Ġpl ug
Ġsubst ance
ĠMain tain
Ġworkflow s
ĠO ld
Ġpol ice
Ġteam work
ĠLess ons
ĠWh y
Ġground ed
Q L
ra b
Ġy es
oin ted
it ure
Ġse eds
Ġalb um
Ġsystem ic
Ġfl oor
ĠS un
or a
Ġdisc rep
ĠAl low
Ġpack aging
Ġadv is
ĠP al
` ,
Ġm ap
ab il
ph a
D e
ĠSh aring
o ti
Ġhist ories
ĠTr ends
Ġprin t
irt ual
Ġad orn
Ġman ager
Ġunder go
Ġed ges
Ġplace ment
ĠEv olution
Ġpromp ting
Ġdatas ets
Ġc asting
Ġjob s
Ġcarry ing
Ġcouns eling
Ġal most
ĠB i
ip her
Ġimp acting
R ef
i at
ese en
Ġab und
am a
os it
pl iance
Ġrespons ibly
Ġabs ol
Ġcas ual
Ġex ceed
Ġres idential
Ġaction able
Ġunivers e
Ġu ltimate
ust er
Ġbas ket
Ġexec uting
Ġrout e
Ġincenti ves
or ge
Ġam azing
In ter
om b
Ġadminist rative
Ġslow ly
Ġvict ory
ion e
ĠHealth care
ĠCompar ison
Ġpenal ties
Ġinsu fficient
Ġconsider able
Ġcollec tions
Ġhy gi
Ġacknow ledge
Ġwild life
ĠVal ue
Ġtour ists
Ġsp end
Ġachieve ment
ĠPol i
Ġsur gery
piec e
Ġschedul ing
Ġcomp act
' d
ree k
ĠS ales
Ġfamiliar ity
Ġrem oving
} (
Ġbe ar
ĠN eg
Ġdesign ated
Ġemploy ers
Ġconstruc ting
Ġcalc ulated
Ġnecessit ate
Ġintu itive
C re
er ce
Ġenter prises
Ġh ierarch
ĠMonit oring
Ġv ess
udden ly
Ġdatab ase
ww w
Ġp ond
ĠU k
Ġattr acting
( )
n ger
rac tion
ĠExam ining
Ġord ers
O I
Ġmed ication
Ġhum ble
ĠCol or
ĠAdm inist
Ġv irus
Ġ4 0
Ġmach inery
Ġyou nger
ĠIn ters
Ġhot el
ĠF ac
disc overy
ĠCh ange
Ġexpand ed
ĠM ost
Ġvis its
ĠEth ical
l ands
Ġf rustration
Ġpro of
Ġstrateg ically
Ġopen ness
Un it
Ġech o
Ġpre ced
Ġclos ed
ĠProv ide
ĠC urrent
Ġcons ulting
Ġal gebra
Ġsafegu ard
Ġg un
Ġunw anted
S ec
p i
Ġh ur
ĠS ustain
Ġmeaning fully
Ġmechan ism
itig ation
Ġcontinu ously
Ġsustain ed
Ġsugges tions
Ġdecre ased
m en
Ġd oll
id ation
Ġpreval ent
Ġwe ap
Ġass ume
Ġfulfill ment
i en
Ġinstruc tion
Ġreal ize
Ġmid dle
ĠW al
or ph
Ġsc atter
Ġdist ress
ĊĠĠĠĠ ĠĠĠ
Ġd w
Ġrecruit ment
Ġinf ection
Ġsmoo ther
er as
Ġannoun ced
n am
b an
y gen
ĠD eterm
ĠRed uc
Ġ .
Ġdem ographic
re ach
Ġsecond ary
Ġrestr ic
Ġperpet u
Ġt ies
Ġt itle
ĠCon struc
the tic
Ġbi as
Ġu pl
ĠAn other
ĠOn ly
Ġisol ation
Ġtelev ision
Ġencoura ged
Ġliter ary
Ġcat aly
ĠBit coin
Ġcom ments
Ġmoment um
ess or
Ġfor ec
Ġrem oval
angu age
Ġsour cing
Ġembed ded
Ġt ough
Ġwin ter
Ġch ains
e u
l in
Ġst rain
ab y
Ġwould n
s um
Ġdis order
Ġmod es
Ġstre ets
Ġex h
Ġopp osing
il ly
ĠH R
Ġexp ensive
Ġinvestig ate
Ġs en
Ġro oms
Ġshow ed
Ġconven tions
ro id
ĠAc tiv
Ġgather ings
Ġunfor eseen
Ï Ģ
Ġth in
at able
ĠL a
ĠReg ardless
Ġdiss em
ĠMain taining
Ġem ails
Ġdraw backs
ĠInst agram
Ġreturn ed
Ġmil k
Ġmus cles
Ġw edding
ffici ency
M an
Ġf usion
Ġg ast
ul ates
Ġfeed ing
Ġinstitution al
ve ment
Ġcap turing
ced ented
Ġsum mar
Ġhon est
ĠPhys ical
Ġm es
Ġv ivid
Ġcop ing
Ġad j
Ġimmers e
Ġdrug s
Ġwork place
ĠEm erg
Ġcy cl
) /
ĠM ath
Ġrev ol
Ġb ath
ĠGen eral
ĠMonit or
Ġor ient
Ġdes ires
unc tional
r est
Ġp overty
Ġb ad
Ġgr id
Ġalloc ate
Ġmolec ular
Ġst er
ric t
m ark
Ġb urn
oun ted
ĠRes ources
Ġmyster ious
av ior
Ġprov ing
an ish
ri age
ĠM echan
Ġtra il
Ġ1 7
Ġpl enty
ĠL ist
Ġed it
ĠCl oud
Ġneg atively
am ps
lic k
ĠAd just
Ġmis under
Ġbott om
ov ascular
ric k
Ġtransc ends
Ġsh op
tig ious
ĠExpl anation
Ġremind ing
Ġproced ure
ch ron
Ġupd ating
==== ====
ĠFollow ing
at o
Ġst reet
, âĢĿ
Ġill ness
Ġincred ibly
Ġunp re
Ġsuppl ies
Ġceleb ration
m arket
Ġun iqu
Ġunpre cedented
d ens
o il
Ġcon ferences
Ġmulti pl
Ġillustr ating
Ġrelig ion
Ġ202 3
Ġpot ent
Ġbi ology
ĠConn ection
ĠJ ew
ate ful
Ġris ing
Ġpoll ution
ĠCul tiv
ĠC lean
Ġemotion ally
Ġban ks
Ġl ights
ex ic
Ġemb od
Con t
Ġresearch ing
is ure
ĠG reat
Ġeffort lessly
g ence
ĠH y
ĠO l
aw ay
Ġgra b
Ġacqu ired
Ġtell s
Ġvigil ance
Ġp ec
ĠT al
ĠT ur
Ġen ch
Ġph arm
Ġdist ances
Ġdesc ription
el p
Ġsudden ly
ĠSecond ly
Wor ld
Ġch ose
Ġinter tw
ĠAl so
ĠIs ra
Ġdefin itions
Ġdet ect
Ġpoly nomial
Ġvictim s
Ġd entist
Ġsee ks
Ġw ish
d a
th s
Ġpres tigious
Ġfriends hip
Ġch ef
Ġcorre c
Ġunivers ity
Ġadminist rators
re f
Ġp ip
Ġr ental
ĠM ast
ĠObjec tives
dim ensional
Ġn estled
ĠSch ed
ĠT arget
Ġbo ast
Ġre b
ear ing
Ġmarket place
ĠUn ion
Ġspe akers
Ġportfol io
ĠInters ection
Ġw all
Ġbr ill
Ġdisrup tions
I N
ti que
Ġstrugg led
Ġste ep
J ust
Ġreplace ment
` .
in ely
ĠB ay
Ġsur ge
Ġappropri ately
Ġsimpl ify
Ġdistribut ed
Ġcharm ing
Ġdisplay ed
Ġaim ing
Ġpit falls
8 0
Ġint ensity
ĠR ights
Ġworth y
Ġe lections
Ġkey words
Ġcomput ers
ĠH arm
Ġdec ide
Ġestablish ment
ri um
ĠLead ership
Ġad s
Ġsoc cer
Ġp ow
ĠG re
Ġplan ned
rop ri
Ġintim ate
Ġgau ge
Ġw ave
ter ior
Ġ1 1
Ġdescrib e
Ġgraph ics
ĠM ind
ixt ure
u gh
Ġc overs
Ġrout es
Ġthr illing
re ast
Ġex quisite
Ġcy bersecurity
Ġemp ir
Ġtal king
oss ible
C E
Ġse as
at oes
uc ture
Ġcompet encies
Ġhistor ic
Ġt urb
Ġtake aways
Ġfear s
duc t
ĠSum mary
Ġres pecting
( -
Ġp airs
Ġhon ing
ĠEnh anced
Ġreg ister
Ġdec l
Ġprev ents
Ġtax es
ĠPr in
Ġexp on
Ġaddress ed
ĠLe ague
k in
Ġrepe ated
Ġregist ration
ĠStr ength
" )
l og
it ude
ir al
Ġrepresent atives
or ter
Ġal t
Ġwilling ness
Ġmen u
Ġprov ed
en tion
ress ure
Ġoverwhel med
Ġcon ve
oo th
Ġra pport
Ġcompos itions
Ġe ld
Ġte a
ric ket
ĠComp onents
Ġneighb ors
prof it
ĠI ss
u ary
Ġdis ag
ak ed
Ġexpos ed
ĠCoun ty
Ġev id
Rem ember
Ġg lean
ĠD irec
Ġperform ers
en tical
ĠN ote
jec ted
Ġver ify
k a
on a
Ġe lection
Ġre j
ad o
un k
ĠM ary
Ġpo ised
Ċ ĠĠĠĠĠĠĠĠ
ĠCons um
Ġcateg or
Ġpro ximity
Ġal cohol
Ġstr ange
ĠM ove
ĠBl ue
Ġreminisc ent
Ġassoci ations
Ġec ological
Ġclar ify
âĢ ĵ
ĠPart ners
Ġsp ons
Ġcontinu ing
Ġstructure d
Ġchan ged
Ġequ ips
Ġcomple ted
ĠPh ot
ĠCraf ts
it arian
enti ty
Ġh ing
Ġsupp lement
ĠOrgan izations
y a
Ġt empor
Ġdes irable
Ġenjoy ed
Ġcris p
Ġcompassion ate
Ġre plic
ĠL og
" ,
S O
Ġf le
ĠR is
Ġev oke
Ġsour ced
ow ed
Ġste wardship
Ġjoin ed
ro gen
Ġr ational
Ġit er
Ġbre aks
Ġprov ision
Ġlet ters
Ġpercent age
it ative
ĠF unction
ĠJ ake
ĠD ynam
Ġtr acks
Ġthere fore
red ict
Ġstar ts
Ġmar ine
ĠQ ues
Ġcompati ble
Ġb ag
Ġhyp o
Ġu pper
Ġst ain
ĠA uthentic
am ic
ĠR oman
e al
ĠS l
ĠC our
Ġun known
Ġne ither
Ġcompan ions
Ġfil ters
Ġanticip ate
Ġmet ab
Ġmeasure ments
ĠEvalu ating
Ġhygi ene
il ib
Ġadop ted
Ġtim ing
ĠOff ering
Ġc auti
Ġext ending
ĠInd ividual
ĠOff er
Ġopin ion
ĠNet work
id ating
ĠE xt
ost alg
Ġid entical
Ġear n
Ġhoriz on
D F
ac le
Ġaccomplish ments
if ting
Ġpor tion
Ġdiagnos is
ĠRelations hips
ĠP an
op olitical
Ġwor ship
Ġev ident
Ġdiv ide
ĠC ulture
Ġexpl or
Ġpres c
Ġear ning
Ġ201 3
ĠAc ad
Ġlab els
ar es
Ġch ocolate
Ġdilig ent
ĠC am
lec tive
Ġsm ile
Ġmaintain s
B ased
ic king
Ġsecre ts
Ġthe ater
st ery
Ġl ists
ĠSt art
other apy
Ġremind ers
Ġcou ple
Ġcollec tively
an qu
Ġbre ad
Ġresol ve
} )
Ġcont am
Ġreflec tive
Ġfor ever
Ġmod e
Ġprofession ally
ĠFost ering
Ġf ell
ĠF ire
Ġpre gn
ĠCh eck
Ġelim inating
on n
Ġrepe at
Ġdemoc racy
or ic
Ġcirc les
Ġpictures que
r in
Ġclass ical
Ġsolid arity
as er
Ġdi abetes
Ġbill ion
R L
ĠImpro ved
ĠS yn
Ġab reast
Ġconnec tivity
Ġeth nic
ĠPer iod
ĠM ac
ĠV ideo
ĠJapan ese
er ning
ĠR iver
Ġsym met
Ġdiv ision
ĠAnaly tics
Ġint ake
Ġinf in
Ġsens ory
ox id
Ġmass ive
Ġdin ner
ti er
Ġhapp y
- \
Ġr ide
ĠG ood
Ġresili ent
o om
ĠE nd
Ġoper ators
Ġgr ass
Ġcompreh end
Ġtrig ger
Ġqu eries
Ġperson ally
Ġsolid ifying
ĠS ing
Ġfin ished
Ġbi ological
ĠC red
Ġanticip ation
Ġenter prise
Ġg est
Ġr ic
Ġse ven
unc tions
Ġlux urious
Ġs ad
ric es
Ġopen ed
ĠDoc ument
Ġl ap
x ic
it ual
Ġfound ations
App lying
A A
p ired
ĠL ight
Ġfin ish
Ġgard en
Ġrac ial
I P
a ze
i ological
Ġrad io
Ġbreath ing
Ġd ensity
Ġguid es
Ġran ges
ilib rium
ĠP ati
ĠB rid
Ġle ague
ish ment
Ġbur den
ĠCan ada
Ġchemical s
Sc ript
Ġtack ling
W elcome
Ġ Â
Ġche ese
Ġinteg er
st ones
In t
Ġprefer ence
4 0
Ġcam eras
ĠL ink
Ġsur g
Ġrhyth m
Ġuph olding
ang ers
Ġdri ver
a el
Ġm igration
d rop
ge oning
tr igu
Ġprot agon
Ġsal t
Ġpath ways
Ġsou l
Ġlaun ch
F e
Ġinten tional
ĠJour nal
Ġ ...
Ġcor ruption
Ġr ural
ĠS en
ĠCons ist
Ġlaw y
Ġvalid ation
Ġhosp ital
A cc
Ġdep ic
Ġâ ī
B C
Ġl ush
ĠM exic
Ġun com
ĠG al
Ġag ent
N avigating
ens us
os c
Ġexp ed
Ġperform ed
Ġbur geoning
Ġesc ape
om ic
esting ly
Ġelse where
ud ed
Ġvis ible
Ġalign ing
it z
Ġphys ics
Ġdest ruc
Ġinten tions
Ġhop ing
Ġappoint ments
Ġempir ical
ell a
Ġdevelop er
Ġpec uli
Ġ }
Ġmet aph
Ġspeed s
Ġd ile
Ġh ence
Ġadd iction
Ġcryst al
Ġl ie
Ġoil s
Ġmir r
ĠG r
ĠK ore
u el
Ġb ite
Ġp ave
a j
Ġf iber
ar i
Ġdown time
ĠTr ump
S im
Ġme at
Ġwind ows
ĠProg rams
Ġdivid ed
Ġm ild
spec ific
ĠIn cl
Ġadap tive
P er
ĠD an
ĠMan aging
Ġevid enced
iti ous
Ġestablish ments
ĠMr s
Ġc up
art ment
ĠComp any
Ġun like
Ġhigh est
Ġcool ing
A D
Ġa ug
Ġm ig
Ġl iability
Ġs now
Ġfl aw
Ġend s
ĠSm all
ĠV irtual
ĠBen ny
Ġpeculi ar
Ġf alse
ĠSh ow
Ġmus e
ĠCri tical
ĠFamiliar ize
Ġb att
Ġappe ared
Ġrad iation
b or
Ġg ifts
Ġse asons
ĠSoft ware
ĠS y
ĠF amily
ĠComp uter
Ġ iron
ot yp
Ġfac ility
Ġlet ter
Ġcontin ually
Ġmin i
Ġscal ability
Ġuncon ventional
N S
ol f
Ġqu est
Ġf ather
Ġnutri ents
ĠN ar
Ġben ch
ĠBe ing
Ġf ib
and er
ĠN ig
ĠProduc t
er als
ĠC er
Ġle isure
Ġimp osed
Ġar m
Ġdisc erning
Ġsurg ical
c y
Ġd rop
ir ation
tr um
ĠJ an
Ġpuzz le
R P
anc er
Ġgold en
I nd
Ġc ab
Ġb alls
Ġst ems
Ġeconom ies
Ġqual ified
Ġimp ar
ail ed
Ġconc ise
T P
Ġdeploy ment
r ange
Ġf urn
os h
-------------------------------- ----
Ġmeasure ment
, \
M E
Ġy ellow
Ġwal ked
Ġf r
ed ing
Ġhe ights
Ġmain stream
Ġco e
i ating
Ġm aps
ĠAdap t
Ġaut o
ĠTw itter
Ġdead lines
Ġmanage able
ĠIncre ased
Ġf ram
Ġest e
ati gue
Ġequ ip
Ġde gra
Ġar bit
Ġass er
Ġphotograph s
p ass
Ġr itual
Ġsp oke
Ġfall ing
Ġtraject ory
Ġterm in
Ġment ors
Ġp ace
Ġb ags
Ġmod ify
Ġdisc ern
Ġpain t
Ġchann el
Ġpeace ful
Ġconver t
Ġv ectors
onym ous
Ġrespons ive
Ġfasc inated
off s
ra ine
Ġ( -
Ġdog s
Ġvill age
ĠPoli tics
' m
Ġch icken
Ġcollabor ating
ĠEm p
Ġz one
Ġsn ipp
Ġc oc
it er
Ġb uck
ever al
ĠComp e
Ġelim inate
Ġox ygen
S arah
ach e
op er
Ġhe ated
Ġcommit ting
Ġsurround ed
Ġinvestig ations
A I
Ġcommun al
und ane
Ġcul m
Ġg all
Ġab and
ĠIns urance
ĠOp tions
Ġprolong ed
) (
Ġmind ful
m atic
ĠP rep
Ġass ured
ĠStr ucture
Ġexplain ing
Ġcon ference
ĠAd vantages
Ġsa uce
Ġimmers ion
Ġcouns el
g in
an o
Ġm undane
Ġst orm
pl oys
Ġel usive
cd ot
Ġequ ilibrium
Ġhapp ening
Ġamb igu
Ġdec entralized
Ġmath ematic
Ġcurric ulum
Ċ Ġ
ĠPres ent
Ġwhe el
ĠS qu
ĠD ue
Ġdes k
worth y
U ltimately
Ġamb itious
Ġdilig ently
t un
Ġrel ate
Ġcorpor ations
g ent
Ġopp osition
Ġsil ence
Ġport ray
Ġcommit ments
Ġlif esp
ĠB ro
op y
Ġhe aring
Ġshed ding
Ġpresent ations
Ġear rings
Ġter rain
Ġdam aged
Ġf inger
Ġre per
ĠAc tive
Ġc ounts
an es
Ġcomput ational
Ġnam ely
Ġab road
ĠPh il
Ġadvance ment
Ġfac ial
Ġsupport ers
Ġcred entials
ĠPh armaceutical
Ġsecure ly
ĠPlay ers
O s
k i
Ġexperi ential
Ġrom antic
_ _
Ġh our
Ġst oring
Ġcolor ful
Ġelig ibility
ay ing
ĠW omen
-------------------------------- ------------
ĠSee k
th eta
ĠB eyond
rip ts
Ġinstru mental
r ons
ĠT ex
Ġhome own
Ġdispos al
Ġric her
ĠAmeric ans
Ġt ables
Ġo cean
ec utive
ut en
form ance
r ary
ol ism
Ġinv ites
Ġappro val
Ġlog istics
Ġw ra
ĠE r
Ġinf lation
tif ying
ĠGu ide
ĠTher apy
Ġvel oc
j ud
Ġb oun
Ġd ust
ĠWh ite
ĠSp ace
}{ \
Ġconcent ration
ĠNF L
ate ver
Ġor th
bles h
ĠAdop ting
Ġr ival
ad vantages
ĠP roduction
Ġstream lining
ĠCl in
Ġmer ch
Ġappar ent
Ġdisag ree
trigu ed
Ġem pt
Ġp aving
Ġb one
pec tively
Ġsp atial
Ġnuc lear
Ġt one
Ġm oved
Ġinst ant
Ġod d
Ġhospit ality
ĠTh ink
ĠN ature
ĠN atural
Ġent ries
ĠM er
Ġsimpl ifies
Ġovers ight
Ġcohes ion
mathb f
Ġeste emed
Ġp ump
Ġconsum ing
wh ich
Ġdur able
Ġcapital ize
Ġmanip ulate
Ġdivid ing
E C
Ġh orm
Ġsc oring
Ġ\ (
Ġfamiliar ize
Ġpan els
Ġad ult
Ġt ends
Ġt ender
Ġhous es
Ġfootpr int
Ġr iver
ĠF ree
Ġfant astic
it ely
Ġarg ument
ĠFort unately
Ġatt empt
Ġpoli ticians
Ġeleg ant
un ic
Ġrecre ational
at he
pl ing
ĠCl ub
Ġran kings
Ġb le
Ġconsum e
ĠRe le
ĠBeh ind
Ġl ose
end ant
Ġappreci ated
Ġtransform ations
ĠEvalu ation
Ġcommunic ating
ic a
ch ange
Ġind irect
Ġwork force
ĠAccess ibility
Ġo w
Ġrati os
th a
ĠB ig
jec tive
Ġmon etary
Ġdirec tions
ĠAltern atively
Ġtr anqu
Ġear ned
Ġgreat ly
inf ty
Ġg ift
ĠL anguage
Ġemerg encies
re ct
Ġun e
Tr ans
A N
ĠJ ane
Ġstead y
exp ression
b and
ĠU K
Ġconstit u
e ff
l iness
r ical
ĠI D
Ġtr ick
Ġagg ressive
g al
Ġaff airs
f ect
Ġnegoti ation
Ġtrans mit
Ġdis aster
Ġhy brid
Ġcontrast ing
S tr
in i
Ġconstit ute
ros ion
onial s
1 00
ĠM ach
Ġind igenous
stand ings
cl ass
rac ed
Ġsever ity
Ġopen ly
ĠPol ic
Ġcoast al
Ġinter disciplinary
Ġevalu ations
ĠWind ows
Ġoccur red
Ġoffic ers
Ġdiscrep ancies
u it
ution al
Ġshed s
ĠU N
Ġver tical
c raf
ĠL ove
Ġexp end
Ġsatisf ied
ĠSe lecting
Ġoper ates
Ġstand out
Ġlog ic
Ġres pectively
Ġanticip ated
ĠC orpor
oid s
Ġu l
Ġan c
Ġem ploys
B u
Ġv an
Ġret urning
Ġbas is
Ġment orship
ag o
Ġrefer ences
ĠDem oc
Ġd ict
rib e
em ost
ke eping
Ġmod ules
Ġsens ors
Ġquestion ing
ĠJour ney
E ng
Ġcor ners
Ġaccommod ation
Ġfant asy
Ġrestaur ants
ĠS T
Ġsh ot
Ġsam ples
re al
Ġb ird
Ġqu art
---------------- --------
Ġun related
over eign
b ooks
ĠP ass
Ġlar gest
ĠMeas ures
id a
Ġbolst ering
ĠEconom ic
Ġcardi ovascular
Ġf atigue
ul atory
ign ed
F A
U S
Ġag ility
ĠId entity
Ġn ostalg
Ġmix ing
ĠAssess ment
Ġ6 0
ĠTreat ment
B ack
Ġc uts
ĠA D
pp ers
Ġs ight
Ġre action
id able
Ġout line
ĠRef lection
is ons
Ġelectron ics
âĪ Ĵ
Ġinterpre ting
Ġg ro
ĠM el
Ġwell ness
pro v
C s
in er
Ġrich ness
Ġtend encies
Ġn erv
and ing
ĠStr ong
Ġpriv ile
Ġt ags
Ġal leg
Ġke ys
The y
Ġnutri tional
Ġw ines
Ġm iles
Ġcont ribution
Ġbr ighter
ĠCry pt
er en
Ġin hib
ou ting
Ġdig es
Ġper man
Ġsepar ation
Ġconscious ness
ĠKnow ledge
os ure
ĠContinu ous
ar ks
Ġtra ils
Ġsophistic ation
Ġench anting
Ġh ip
Ġtrig gers
Ġderiv ative
Ġholid ay
ĠAdminist ration
ast ers
Ġill ust
Ġunp redict
ĠInnov ation
Ġs tig
ur able
Ġal le
S u
Ġman ually
ac ious
Ġpl ain
Ġimpro ves
Ġarrange ment
Ġtransc end
Ġinten tion
Ġtri ps
ĠEv ent
Ġr atings
Ġte le
ĠIs lam
Ġcapture d
Ġrevel ation
Ġmisunder standings
em ade
Ġrest ore
Ġcrypt o
Ġgu it
Ġinn oc
Ġende avor
Ġpl ate
Ġsuc c
Ġpar ks
Ġsuppl iers
the tical
Ġequival ent
ĠS ally
Ġpers u
Ġprof its
Ġapplic ants
Ġdisapp oint
ĠJ ewelry
ĠAc tion
ĠFound ation
Ġscrut iny
A ss
R I
Ġshe er
Ġanti b
Ġanti oxid
Ġimag ination
Ġresul ted
Ġsac red
Ġf old
Ġcan c
Ġvar ied
Ġbuild s
Ġextre m
Ġin hab
Ġran ks
eterm ined
ĠG reek
Ġdam ages
Ġrein force
Ġbat tle
ĠDav id
D ata
om a
Ġsh ipping
ĠProm oting
ĠSm ith
Ġm ounting
ĠP ic
Ġprot ected
Ġwis ely
for d
Ġbase ball
Ġl enders
Ġoverl ook
Ġobtain ed
em ption
ĠC D
ĠCont emporary
S L
ang er
Ġmin erals
Ġhot els
Ġhe ating
Ġacqu ire
Ġarri val
Ġd ates
ĠCon cepts
Ġautom atic
Ġflow ers
bo ards
Ġdist urb
Ġgra vity
Ġter ror
Ġcrim es
Ġt apping
Ġk id
Ġtw ice
ĠMay be
ĠGovern ment
as is
Ġv iable
ĠD NA
Ġ202 2
ĠPrepar ation
Ġr ice
Ġlist ened
ĠP os
Ġcur ated
Ġpass eng
Ġflow s
Ġg ave
ak istan
ĠEqu ipment
Ġres olving
ĠO bs
ond on
Ġwhere in
und red
ĠRec ently
Ġprogress ive
Ġpro ves
ric tion
Ġfac ulty
ĠIsra el
Ġform idable
} ^{
Ġd iver
ol a
ĠF ederal
Ġbehavior al
ĠExper iences
ĠAssess ing
Ġrecon c
ĠEss entially
Ġin duc
Ġst ation
ĠT ri
em ble
ĠR ad
ĠRep resent
Ġgenu inely
Ġmiss ed
um en
ens ively
ĠAs ian
ĠEng land
Ġswift ly
g y
ĠCoun cil
ĠC ard
pec tions
Ġrespect ful
p ret
ay lor
Ġass embly
Ġneighb oring
ĠA ug
Ġsign ature
ĠDep artment
Ġquanti ty
ĠA PI
Ġsurpris ing
Ġlegis l
ĠOf ten
Ġw oven
ĠF rame
Ġtire lessly
ĠI ll
Ġsp ices
Ġexperiment ing
a ith
d em
Ġsign aling
ĠPers pective
ĠIss ues
ĠOrgan ization
Ġbasket ball
ver ages
ĠM aster
ĠAcc ount
ed y
ĠB ible
Ġover head
Ġconver ting
ĠRuss ian
ĠDra wing
Ġvend ors
Î ¸
Ġtim elines
ĠAn n
ĠInt ellig
Ref lecting
Ġh all
Ġbre aches
f e
i king
Ġfriends hips
Ġwarm ly
Ġsle ek
Ġrol ling
ed ed
Ġexpl anation
in formation
Ġa str
ĠFl or
T ube
Ġr ul
Ġless er
Ġlar g
ĠPl ace
Ġspe ak
ĠFr anc
Ġathle tic
Ġcertific ations
H C
Ġb ands
Ġbe at
Ġbe ings
ĠD ou
Ġinter medi
Ġd ie
Ġas ide
alu able
ĠSm art
ĠPlay er
ur ers
ĠA p
Ġcl oth
ĠGerm an
Ġac ids
Ġgr an
Ġtreat s
Ġd ys
Ġimp ressions
ĠEst ate
Ġtoler ance
Ġc ro
ĠS earch
Ġrel ent
com p
con f
ĠMedic ine
ro g
Ġbe ans
ill ance
Ġfin ances
a it
b ase
m outh
ain ing
Ġsal e
ĠSpec ific
Ġscre ens
Ġcontrovers ial
ĠM art
Ġsh ots
Ġparalle ls
g ar
Ġthe ft
ac ent
ĠA rab
Ġarri ve
Ġc ru
ĠF eed
cons cious
Ġbus y
Ġrecycl ing
ĠW riting
Ġemb arked
ĠIns ights
2 2
r ated
v ation
ĠV ers
place ment
Ġassign ments
Ġrestaur ant
Ġaug ment
? âĢĿ
Ġt ied
Ġa qu
op ic
rac king
Ġlarg ely
Ġsh el
ĠEm otional
ĠComm ission
Ġappear ances
osp her
Ġcons isting
Ġpass ive
ĠIs land
ĠMod el
Ġtreas ures
Ġhypo thetical
Ġb iod
Ġh one
Ġun less
Ġconstruc t
Ġmortg ages
imp se
ĠL ine
Ġph ases
Ġtac tical
and a
Ġsp ring
Ġbran ches
Ġeld er
v as
Ġinstall ed
p es
u ity
w riting
ĠP ack
Ġfeas ible
ĠS uddenly
ĠH ear
Ġdec iding
ĠPerform ing
Â ®
ĠD own
Ġintroduc es
Ġir rit
Ġpromo tions
B l
Ġp ays
Ġh ards
ĠC all
ik es
Ġmov ies
R es
Ġreason ing
Ġdistingu ish
ĠInstit ute
Ġrel ation
on ies
usiv ely
Ġagric ultural
Ġp ione
Ġfor ums
ĠR ock
Ġcons ol
Ġdang erous
Ġsurve ys
Ġt ag
Ġsh ock
res hold
Ġpol ar
Ġdev ast
Ġdu ties
b ling
ri f
ĠIn g
Ġlife time
Ġinstall ations
prof ile
Ġfr ustr
k ins
Ġm ale
ch anging
ĠL ondon
Ġfl ash
Ġmul tim
ĠSched ule
M od
f irst
Ġw eren
) }
es tic
Ġper mit
Ġrele asing
Ġimpact ful
ĠSp anish
Ġput ting
Ġmolec ules
Ġtempl ates
Ġessential ly
Ġcall ing
Ġadapt able
O T
ch ool
Ġtra ined
Ġemphas ized
Ġmatch ing
Ġagric ulture
Ġimp ossible
Ġsuccess es
Ġpart nering
ĠExpl ore
hab ilit
Ġh ind
Ġre taining
tain s
Ġbas ics
Ġexec ute
Ġgrapp le
b egin
Ġqu ir
Ġminim izes
s m
Ġdel iber
Ġsmart phones
Ġf ier
Ġt ours
Ġimm igration
isc al
Ġenrich es
ĠClear ly
Ġegg s
U pon
Ġop ting
Ġfunda ment
Ġinter acting
tit ative
Ġge opolitical
Ġseas onal
Ġh oney
Ġper t
Ġstandard ized
umin um
ur ities
ell ed
Ġinst ability
Ġmar riage
Ġod ds
Ġdiplom acy
ĠUk raine
Ġl ib
ul us
ĠH ead
ĠAs ia
Ġencourage ment
ĠAdv oc
Ġin ev
Ġh ues
Ġexplo it
ĠSoci ety
M r
Ġfor est
ĠT ax
ĠS ci
ĠP et
Ġel uc
Ġing en
ĠDiffer ent
b ur
Ġex terior
ĠA ff
ĠP ython
Ġtiss ues
v an
Ġst ays
Ġfor ced
ast ed
Ġschol ar
Ġwel coming
Ġconcl usions
ĠC ode
Ġfl ood
ĠMain tenance
Ġh undred
Ġrel atable
ĠStand ard
Ġs igh
Ġl iber
mm as
S p
Ġs ending
Ġadorn ed
Ġabsol ute
g l
Ġsw imming
Ġreview ing
Ġgraph ic
e ffective
Ġgu ard
Ġanal og
Ġcor rosion
Ġwitness ed
ĠGe orge
Ġfor emost
Ġinter val
Ġprin ting
Ġcook ies
Ġconfidential ity
Ġorient ation
ber g
ĠCon c
ĠSh ould
ĠTyp e
ĠMid dle
craf ted
Ġhead s
Ġhom emade
an nel
ĠL ar
Ġsc ul
Ġset tle
v able
w rit
us c
Ġtrans fers
Ġfl u
Ġcri tic
Ġcontain er
Ġhon esty
ĠRespons e
b i
ĠBe ach
Ġinvestig ating
Ġsenti ment
ugh t
b ies
f unctional
ĠA ge
os ity
Ġrep airs
ĠGen er
Ġcorresp ond
Ġnumer ical
Ġdifficult y
Ġdistribut e
ĠFr ance
ĠC ong
ĠC ath
ĠL G
ĠL ab
Ġbro ken
Ġbreak through
2 4
ti bility
Ġl a
Ġbo ards
ĠYou Tube
Ġelev ating
Ġtransition ing
Ġcour ts
ĠCour t
Ġs on
ĠH oly
Ġar c
Ġparalle l
Ġper mission
P E
c asts
Ġs end
ĠE lements
ĠR ight
Ġsu ited
ĠU r
ĠIt aly
ĠAm id
Ġhost s
Ġphr ases
s ource
Ġpred efined
Ġrad ical
ĠMeas uring
2 3
Ġw ants
Ġh aven
ĠT re
Ġwe aring
M s
Ġv ocal
ĠP akistan
on ent
Ġin puts
ĠExam ine
Ġclean er
Ġfail ed
ĠComple x
Ġinter vals
Ġback drop
Ġperiod ic
Ġann ually
2 1
Ġt ab
ot ers
Ġout lining
Ġsyn chron
Ġpan el
Ġf ur
ĠSt ream
aus es
ĠWith out
ĠEast ern
Ġrep roduc
Ġapproach ing
Ġspe aks
H ey
Ġadm in
Ġintrigu ed
Ġir re
Ġextr action
Ġar ms
ĠâĢ ĺ
Ġmy stery
Ġgl impse
ĠDirec tions
Ġtw ists
te e
Ġst ro
ri an
Ġcons ensus
Ġ201 0
Ġnecess ity
Ġtem p
Ġfu els
W S
n s
ĠG rand
ik ely
Ġexpans ive
Ġhing es
Ġne ural
Ġexec utive
Ġbur dens
Ġdecre ase
Ġproceed ings
Ġmathematic ians
a utions
Ġr ab
Ġbu zz
ĠUn l
Ġdig it
ane ous
Ġaccount able
Ġrefresh ing
ec tious
ĠB ec
ĠE U
ĠAg ain
Ġfarm ers
Ġc af
Ġdis rupt
Ġdesign er
Ġdist ant
R T
ĠThe ory
Ġmag netic
Ġdram atic
Ġempt y
D r
Ġb orn
ĠM ad
ost ing
Ġrest oration
Ġvent ures
inf lamm
ĠLim ited
ĠJew ish
Ġqu e
Ġalgorith m
Des ign
Ġtherm al
urr ently
ĠSp e
9 0
Ġm ining
ĠU RL
Ġelev ated
B en
Ġfu eling
Ġf ight
Ġl itigation
form ed
her ence
ĠComb ining
H A
D S
M A
Ġb ases
Ġ201 2
Ġexec uted
ĠAdap ting
Ġchamp ion
o ors
ul f
eg a
Ġref uge
ĠLe vel
Ġmedium s
ĠExc ited
Ġpre t
Ġtour ist
Ġtestim onials
ap le
ĠCom pliance
y e
ĠM s
Ġcustom izable
Ġaud it
ĠApp ly
Ġpen et
+ \
L S
ra ys
Ġro w
Ġdef enses
Ġ\ *
Ġfoot age
Sec ond
Ġa ward
Ġemb ody
Ġmen tions
ĠRep ublic
Ġexhib its
l asting
Ġl ending
em ing
Ġins pections
Ġliv ely
Ġgr ants
ĠComm it
em ical
ran k
tis m
M on
R S
Ã ¡
il a
et ting
ĠB ob
N o
ic tional
Ġcon ting
ĠB ank
Ġback up
Ġt or
alle y
Ġexcited ly
Ġmor ale
ĠAustral ia
ĠPrin ciples
Ġc ricket
Ġin ches
Ġent ered
Ġpat rons
Ġneut ral
N C
V III
f all
Ġl ad
Ġdel ay
ram mar
Ġcer tification
ĠBas ic
Ġm ixture
Ġv ine
Ġcons erv
ĠEx erc
um ble
ĠConf lic
Ġre ap
ĠSt yle
Ġbir ds
Ġbot tle
k ens
fort able
Ġj ar
Ġcl ock
Ġsyn thetic
Ġp iqu
ĠA z
ĠL ay
Ġgener ates
ĠSk in
ĠP ath
Ġde le
Ġstud io
Ġhon or
Ġdescrib es
ĠL u
ven tive
ĠProper ty
R A
r ise
Ġg ri
Ġsh ine
Ġpublic ly
Ġret rie
ĠInst all
Ġattach ed
Ġven ues
ĠDesc ription
ĠHarm ony
Ġenhance ment
Ġreflec ted
ĠTex as
Ġveloc ity
Ġg low
ĠY es
Ġexcl usively
Ġattor neys
l ist
ur ally
Ġr ings
ag og
Ġbe ach
ĠN ur
Ġqu ad
Ġher oes
Ġn odes
Ġvar ieties
Ġsit ting
Ġinfluenc ers
Ġreal ities
Ġannounce ment
re qu
ĠL ED
ĠDel ving
Ġenti ty
m as
Ġth reshold
Ġbrand ing
ĠTe ams
ĠThom as
C om
Ġleg end
Ġunderstand s
ee ing
Ġret reat
Ġdiv is
ĠH ave
Ġout standing
Ġchem istry
Ġly rics
on ut
ro t
Ġtr ace
Ġaccess ing
ĠDef ine
ĠTrans port
ĠCal c
Ġrefine ment
Ġven ue
Ġstain less
ĠH am
ĠG D
Ġinvest ed
im m
ri a
Ġcomm ands
Ġposs ibility
Ġobs cure
Ġgreen house
ĠSee ing
Ġindul ge
Ġh ub
ĠC y
Ġinstall ing
Ġspread ing
Ġawa it
Ġexperim ents
Ġconfron ted
ĠAdd ress
our ing
Ġwood en
ĠC iv
Ġsh ooting
Ġsc aling
Ġbenef iting
Ġdegra d
ĠP en
Ġro ster
ĠEm er
Ġtri angle
Ġabsor ption
Ġl aid
um bers
Ġrec t
Ġaccep ting
Ġparad ig
blesh ooting
ur ation
Ġgrow n
Ġback ed
ĠPart y
n o
Ġpar king
Ġsc rolling
Ġisol ated
Ġs overeign
Ġprov isions
Ġ\ \
Ġaccep ted
Ġalt ogether
ĠH all
Ġrec urring
Ġcontain ers
Ġaband on
Ġcont ents
Ġj azz
Ġmaintain ed
Ġfind s
Ġ201 1
Ġdim ension
Ġtransl ates
ĠPolic ies
l ace
m at
z ym
Ġinf ectious
com m
ĠQues tions
ĠH aving
ĠL oc
Ġelect ro
or tion
ers on
ĠP osition
Ġdeb ris
Ġmo tif
ĠEnh ancing
ĠPrioriti ze
Ġsummar ize
M e
Ġst ark
Ġsp in
ĠCol lection
ĠCare er
oc key
Ġdisplay ing
Ġdepart ment
ĠRequ ire
ĠG ames
ĠTrans par
Ġsusp icious
Ġtit led
Ġdegrad ation
ec ycle
S he
Ġun able
Ġglean ed
Ġo wing
Ġl unch
Ġcomp ound
ĠJ ud
ĠJ ob
Ġconcern ed
Ġgene tics
Ġpow der
Ġm old
Ġn our
Ġan ch
Ġvisual ization
Ġreinfor ces
Ġvolunte ers
ĠFost er
ĠArti st
Ġfor um
ĠE fficiency
Ġinc oming
Ġabs ence
Ġgam ers
rolog ical
A lex
M ar
ĠS us
Ġbut ton
ĠAn ti
Ġgr ant
Ġocc urring
Ġsecond s
O r
} $.
it ted
Ġproduc tive
Ġmet ers
Ġrest oring
Ġcentral ized
L C
Ġis land
ĠW ashing
Ġins pection
Ġfre ely
ĠProcess es
Ġterrit ories
in come
Ġd ress
Ġl ot
Ġen light
ay ment
Ġdi agn
Ġclos ing
Ġcurr ency
or gan
Ġre act
Ġinstru ment
Ġvolunte er
Ġtom orrow
Ġhob by
Ġlegitim ate
) $,
Ġref ined
Ġvis ited
ĠTechn ologies
Ġcou ples
ĠDem onstr
t age
Ġfin ite
ĠRec ap
ĠSc ript
Ġabsor b
ĠGerm any
r ite
Ġb onding
Ġmotiv ated
ĠPop ular
Ġl uck
ĠI ran
Ġimpro per
Ġpass es
Ġg ut
ĠS ports
olog ist
Ġcar b
Ġhyp oth
Ġelect oral
Ġbacter ia
ĠK en
Ġlight weight
âĤ ģ
R C
Ġdis abilities
Ġcamp us
Ġ8 0
Ġentreprene ur
Re al
Ġdile mmas
F T
in cl
Ġav id
ĠHigh er
Ġtouch es
Ġreason able
ĠMet rics
in ars
Ġro se
ĠEn t
Ġchar ging
hear tedly
P T
S ince
ĠC over
Ġa ges
Ġo l
Ġb inary
ĠB ase
ĠL ow
Ġden oted
ĠIntellig ence
inflamm atory
Ġb aby
Ġgeomet ric
Ġexperim ental
us ers
An aly
Ġcorner stone
Ġr ipp
Ġv oters
ous es
ach el
Ġfinancial ly
Ġrev is
ĠOff ice
Ġstead fast
Ġfranch ise
ĠIng red
Ġf riction
ĠA PIs
pers on
Ġbolst ers
Ġpiqu ed
Ġ king
ar r
Ġh ole
Ġass um
ble m
Ġcurric ula
ĠCultiv ating
t une
om al
id ate
Ġrec over
ĠPrep are
B S
ent h
Ġst ack
Ġres pected
tr ans
Ġwr est
Ġillustr ates
Ġassign ed
t own
Ġbrief ly
ĠCharacter istics
p lying
un it
Ġapp les
ĠO thers
Ġindividual ly
Ġproduc ers
Ġweek ly
qu ad
Ġver ification
Ġgame play
Ġpredic tive
ĠD ise
Ġdec line
Ġsurve illance
ropri ate
ĠCred it
Ġsnipp et
Ġu m
ĠS a
Ġv oting
Ġcre atively
ness ing
Ġco al
Ġfin ishes
Ġvisual s
ĠMich ael
ac c
ag en
ĠL in
ĠL ocation
ĠL atin
lect able
Ġwal ks
Ġadvoc ates
Ġb ills
ot a
Ġsh orter
Ġmat rices
Ġdetail ing
Ġr am
Ġanaly sts
Ġsimilar ities
Ġocc urr
Ġcoord inate
Ġdomin ant
Fe eling
g ering
Ġrespons iveness
Ġwhole heartedly
Ġbatter ies
Ġexplo itation
ĠT aylor
ĠM ass
Ġgra de
Ġdra ft
Ġinconsist encies
ĠJava Script
ar ious
Ġto xic
as ions
ĠSe lect
st or
Ġinvest or
Ġtri v
prov oking
ch eck
Ġinv aluable
ash es
Ġsacri f
Ġchef s
Ġt ear
an al
ĠW i
Ġcal end
Ġenthusi ast
Ġepis ode
P ress
f rom
Ġf ly
ĠO wn
Ġdist ributions
Ġrespond ed
op es
ĠD I
ere um
ĠL ake
Ġdis ability
Ġback l
Ġbrid ges
Ġall ure
Ġcompar ison
ĠKnow n
ĠRead ing
Ġbug s
Ġprotagon ist
ĠEmer ging
a ired
ĠI II
Ġdist ractions
-------------------------------- --------------------------------
P re
y ard
Ġ ille
Ġent ail
Ġassoci ation
Ġlifesp an
} .
or rect
Ġus ual
we et
Ġknowledge able
Ġdoc tr
ĠRet rie
it a
Ġh al
Ġout reach
Ġbi om
Ġproud ly
ĠWashing ton
Ġstream lined
Ġforg iveness
ce ived
ĠS ound
Ġsupp ose
Ġst ance
Ġser ene
Ġpersist ence
R E
Ġdef e
Ġphot o
epend ent
Ġillustr ated
Ġinters ect
Ġvess els
ic ed
ur ches
ĠG rad
round ed
Ġneed ing
Ġlist ed
Ġemerg ence
ran ging
Ġgar lic
ĠMethod s
Ġf ighting
Ġinn ate
Ġmembers hip
ĠEv ents
ĠOptim ization
ĠAn na
ĠLever age
al ed
ĠP C
Ġint ently
Ġmar bles
Ġwar ning
z ation
ou ds
ĠC ond
our cing
rol led
Ġpoin ted
Ġ200 8
Ġatm ospher
Ġmagn ific
ĠM S
Ġbroad en
ĠPer haps
Ġstart ers
ĠDec ision
Ġmultim edia
ĠJ en
jec tions
ig ure
Ġbo y
ĠSim ply
val ue
^{ -
at al
am el
Ġas c
ist ine
ep h
ĠO pt
Ġcomput e
Ġdoc tor
Ġadmin ister
ĠF ind
Ġill nesses
ĠPre m
Ġrevolution ized
Ġsent ence
Ġurg ent
Ġma j
Ġbig ger
Em b
Ġcopy right
Ġhospit als
Ġwhis per
Cre ating
Ġnostalg ia
n ament
ĠC RM
ĠY oun
Ġappl iances
Ġrepl acing
ixt ures
Ġthread s
Ġst o
Ġpost ing
Ġadapt ations
ĠW ood
Ġro ws
Ġciv ic
ĠL iving
Ġprot ections
Ġactiv ism
Ġskep ticism
Ġvitam ins
s en
Ġb io
th ew
ch ie
Ġim bal
Ġar ises
ravel ing
C o
ĠC irc
ĠEduc ational
ĠProduc ts
Ġcontrovers y
Ġunt apped
ĠT em
ĠC ris
ĠM use
Ġpossess es
Ġprem ature
Ġpass word
ll a
Ġsimpl er
athe tic
O p
r ance
ro ots
Ġbu ff
ount able
Ġdown load
Ġuncom fortable
n et
Ġs ed
ant um
Ġritual s
Ġstig ma
b orn
Ġl ip
Ġext ension
Ġlif ecycle
ĠImplement ation
Ġschem e
Ġterrit ory
ĠAug ust
ĠAnd roid
Ġelig ible
ĠDynam ics
7 5
M D
u ation
Ġd ash
ĠBl ock
Ġestim ates
Ġentrepreneurs hip
Ġdiam ond
Ġexacerb ate
r als
Ġimp air
Ġpar tial
ĠV ict
Ġrot ation
Ġdiam onds
Ġhob bies
Ġpro pri
ĠB egin
ĠM ix
Ġdeliver ed
Ġcompos ed
Ġdr ink
Ġjurisd ictions
Ġear nings
Ġspecial ists
C omp
ĠB ody
ang el
Ġ19 6
Ġf ro
Ġim plic
Ġpl ag
Ġexpl an
ĠV alley
Ġwatch ed
e tic
Ġde lectable
Ġelder ly
n es
Ġres c
ĠEng agement
t ax
Ġspec trum
Ġcontain ed
ĠEth ereum
ĠM ess
ĠH ence
Ġreach es
Ġcompeti tiveness
Ġnur sing
Ġattor ney
Ġpert inent
ĠCre ative
ĠLuc y
gra de
Ġunl ikely
Ġgir l
Ġrelent less
ĠS n
ĠP eter
est e
ploy ment
Ġdef ault
Ġincorpor ates
Ġqual ifications
Ġencounter ing
Ġlength s
Ġsuscep tibility
habilit ation
Ġdiffer ing
Ġloc k
Ġdiv isions
ĠPre vention
ĠH osp
roduc ing
ĠBu ild
Ġcorre l
ĠN utri
Ġadm iration
Ġpred ictions
ĠRelations hip
Ġscul pt
D el
Ġre cept
im s
ĠB ook
Ġansw ering
Ġ9 0
Ġperce ive
Ġbran ch
ref lection
Ġf its
ĠT esting
til ity
Ġlicens ing
Ġg al
tic als
Ġpr istine
Ġsuff er
h t
ĠB rown
Ġun ion
Ġro ads
Ġfer tile
h ow
ar io
Ġemb raced
Ġtherap ists
âĤ Ĥ
v ious
Ġsigh ed
b ar
Ġm im
Ġprom in
ĠV ir
Ġcap ac
Ġteam mates
Ġweap ons
ĠLG BT
c ar
ĠInvest ment
Ġsen ior
% .
Ġp ear
ĠS eries
ĠSt reet
Ġend orse
Ġeconom ics
Ġattach ment
T ra
o ice
Ġt ones
ĠC ore
ad ata
ĠE V
erv ice
Ġenhance ments
} $,
Ġt ub
Ġst ations
Ġnot ed
Ġreal ms
Ġplan e
in ants
ro te
ĠB ill
Ġus ability
Ġcare g
Ġorgan ize
Ġfit ting
ĠMaterial s
ĠStory telling
ers e
Ġint ens
Ġover night
Ġsk et
pro of
Ġred emption
ĠAdv ent
down s
Ġag ed
Ġwel come
Ġalter ed
Ġacadem ia
Ġmagnific ent
Ġp ig
ĠC ount
ot ten
ĠQ ue
Ġwatch es
ĠLear ned
Ġbrid ging
izz a
ĠCamp aign
i ants
ĠT ech
Ġdev oid
Ġhyd ration
4 5
b order
ĠCh anges
Ġco ex
Ġnon profit
Ġlaun ched
ĠRequire ments
ĠTechn ical
Ġpros pect
Ġinstruc tors
ĠLit er
Ġfarm ing
Ġperman ent
Ġguit ar
' (
am ed
Ġimp ression
Ġdr inks
H D
Ġm as
ok en
ig ma
Ġproduc tions
Ġlo ops
Ġmat urity
Ġinteg ers
Ġvacc ine
Ġfundament als
Ġbl ank
$$ \
Ġcin ema
w ell
ang les
Ġlo ading
Ġmyster ies
Ġchamp ions
Ġad hes
Ġdes p
ph ony
Ġeven ly
Ġlo ving
Ġthe orem
Ġf oss
ĠP ain
Ġlifesty les
Ġscatter ed
st yle
Ġinter ference
Ġinv ite
Ġconf ir
Ġspecific ations
Ġpo etry
Ġspe aker
Ġmel odies
7 0
f unction
Ġt rib
ĠP o
ĠM obile
Ġoff ense
ĠAn ticip
Ġjour n
Ġcoord inating
Ġgast ron
o ves
Ġp ix
el d
Ġfin ishing
Ġhand y
ĠSec ure
Ġsymbol ism
Col labor
I M
L A
b one
n ormal
ĠD ental
Ġup front
b ound
Ġtas ked
Ġsav vy
Ġcer tified
Ġblog s
ĠBeh avior
Ġhomeown ers
I A
Ġf ats
ĠW atch
Ġenab led
Ġwh atever
ĠM il
osp el
Ġestim ate
Ġrevol ves
ĠLink ed
Ġsc ales
piec es
ĠOrig ins
S m
h ad
Ġb order
ĠF lex
Ġco pper
Ġintertw ined
Ġp apers
ĠH im
Ġmod ule
ax is
ĠSc ot
Ġopp os
Ġviol ations
Ġfol k
im ate
Ġchar ged
Ġbr ace
Ġutil izes
Ġbrow n
Ġpublish ing
Ġg ate
uc ks
ĠC ooking
Ġhad n
Ġmal icious
% ,
s ub
Ġa wards
id el
Ġn om
Ġte eming
Ġbrill iant
G en
Ġwor n
ry ing
Ġarr anged
h ost
Ġc aring
nd rome
Ġm ail
el ia
ĠA uthor
Ġro c
ĠEx pect
Ġnutri ent
Ġgre eted
Ġprec autions
Ġsecure d
st on
ĠTh ree
per formance
res ented
Ġinhab it
u um
w ich
Ġp il
Ġf iscal
ĠE s
Ġsign ing
ĠUn ique
Ġshe et
Ġwrit er
Ġattribut ed
Ġgrace fully
Ġampl ify
Ġinfin ite
Ġw et
Ġl inking
ĠT ext
Ġapart ment
ĠFlor ida
9 9
P D
or age
ĠB er
ĠJ oe
Ġdel ved
Ġsur vey
Ġke en
Ġpublic ations
ĠSym b
Ġdestruc tion
g a
Ġm ic
ĠE S
ob e
ĠSim ultaneously
Ġbar rier
Ġcalc ulation
Ġclin icians
Expl oring
ĠUnl ocking
C ase
O C
in et
Ġle mon
Ġmeas ured
Ġcost ly
ĠWor ks
Ġjud icious
an throp
Ġst atic
Ġch am
ĠU V
Ġsim ulations
Ġstrict ly
ĠTer ms
Ġadj acent
el ly
Ġwith d
Ġal uminum
ĠSam my
) ]
ĠT or
Ġun ch
he alth
Ġprocess ed
arm ing
Ġfl ags
Ġcurr encies
ĠRo ad
Ġappoint ment
i as
ĠF inal
Ġout lets
Ġcop ies
Ġcoun ting
ĠPur pose
Ġtermin ology
r us
Ġv iral
Ġfe e
Ġag end
ĠGuid eline
ĠM ountain
ĠWe bs
wh at
Ġden ying
Ġcer em
ĠLo ans
C ustom
k ind
ec ution
os ion
ĠTe ach
Ad d
Ġp as
Ġen zym
ĠB ow
Ġres ort
av ed
Ġunder t
Ġbl ind
ĠAl ign
ins ic
Ġcollect ors
H S
Ġd ign
ĠSc en
augh ter
Ġten ure
Ġscre ening
ĠActiv ities
Ġj us
ĠThe ology
worth iness
ĠChild ren
Ġpregn ancy
Ġal ive
Ġenvironment ally
Ġlaun ching
Ġdang ers
ĠHot el
Ġcont est
Ġmiscon ceptions
F ollow
ur ric
ĠS M
ris k
Ġcle ver
Ġlog ical
ĠNeed s
t ops
u ro
ĠS ens
ĠF resh
Ġequ ipping
Ġmulti plying
Ġmut ually
Ġcelebr ated
ĠBre ak
5 00
is tical
st ers
ion al
ĠG ard
ne eded
water ing
Ġn orm
ĠM is
ĠL andsc
ail able
Ġsc ar
Ġcirc ular
Ġexch anged
u an
Ġe lic
Ġst uff
ĠJ ustice
Ġsqu ad
Ġcoin s
ti an
et tes
ĠCon cept
Ġclass rooms
ĠIntern et
C M
Ġext ent
Ġincorpor ated
ĠDep ending
Ġto kens
Ġown ed
Ġend ed
sc reen
Ġf ut
Ġprior ity
ĠRec ent
ĠNew s
Ġbrow ser
Ġoutd ated
ĠVar ious
Ġf if
Ġtreas ure
Ġmultipl ication
D ef
el t
Ġtre ated
ĠGo als
ĠSupp ose
Ġneighborhood s
esp oke
ĠArch itect
Ġcompeti tions
reg ation
Ġpropor tion
is her
ĠF estiv
Ġdeep ening
Ġexplan ations
Ġle ct
Ġrem oved
du ate
Ġconvers ions
L ear
Ġh us
uc ked
Ġactiv ation
Ġstart up
ĠRev olution
Ġtra ders
ĠPro s
rep resented
Ġmaster piece
Ġtruth s
a uc
c re
h an
Ġman eu
Ġdra f
ĠCar l
ĠHear t
ĠAmid st
es ter
Ġb ars
Ġal oud
Ġread ily
Ġboost ing
Ġdis asters
Ġdiplom atic
d ef
Ġinf ant
ĠOver coming
Ġrecip ients
ĠSustain able
n ame
Ġl ands
ul as
Acc ording
Ġb on
Ġall iances
com ed
ĠSe a
Ġcompar isons
m issions
Ġt ur
iz ers
Ġke pt
Ġharmonious ly
S EO
u ated
ad ium
ĠM en
Ġdis ruption
Ġste pped
ock et
Ġcondition ing
] ,
ĠS it
Ġ20 00
Ġalle ged
Ġfac et
Ġsimilar ly
ĠLear n
Re ferences
ha ust
Ġhorizon tal
ĠSt ore
Ġpol ished
Ġinf used
Ġread er
Ġdam aging
Ġland marks
Ġpun ct
Ġvolati lity
Ġdevast ating
r ane
it ors
ra ising
Ġwire less
ĠLinked In
F ast
os a
ast roph
Ġstr angers
ie val
Ġins till
Ġsal ary
Ġhistor ically
ĠBo ard
Ġcompris ing
v est
Ġl atter
ĠL ou
edi at
ĠRef lect
Ġvitam in
Ġrab bit
* (
z en
er ating
Ġany where
app ro
itiz ation
ĠCo ord
Ġimmers ing
Ġcompar able
o ons
ad d
ĠP rim
Ġma pping
Ġher bs
Ġmen us
Ġborrow ers
Ġhabit ats
Ġanc est
Ġt urm
or ically
im izing
Ġexp ense
Ġcolle ges
Ġcell ular
Ġju ice
Ġmotif s
ĠA S
ign ant
ia h
Ġmus ician
Ġpropos al
ation ally
Ġinc orrect
Ġcharacter istic
ĠStrateg ic
Ġsti r
ĠDI Y
M ax
Ġs an
Ġs od
Ġd ess
ĠC T
ain ts
Ġcompan ion
ĠSh ort
ĠNot ably
ĠFin ance
Ġdesp air
Ġf ancy
Ġh am
ow ing
Ġas ym
ĠL ive
Ġinv ited
als o
ĠSt atis
Ġconf ines
ĠAt l
Ġderiv atives
ĠEmerg ency
Ġprom ised
ĠAd ditional
Ġgl uten
Ġread iness
Ġban king
Ġprop ag
Ġc art
Ġd ough
ut ch
ĠUn ivers
Ġchar ts
Ġkey word
Ġviol ent
ĠD og
ĠV e
Ġcompet ence
Ġcr ack
o ad
Ġ Ï
Ġe labor
ad ian
od on
Ġsp an
ĠRes ource
Ġdoc tors
ĠRec omm
ĠSur round
ĠHar nessing
Ġjournal ists
ĠLGBT Q
ra is
Ġres h
Ġunder estim
Ġorgan isms
Ġconve ying
Ġb ike
Ġst abil
Ġex otic
ph i
Ġher o
Ġexp ose
Ġmilest one
Tim e
Ġcauti ous
Ġl aser
Ġ2 1
Ġte en
ĠBal ance
ĠAppro aches
Ġdang er
Ġover coming
Ġvict ories
ĠCiv il
en a
Ġfor cing
ĠComp are
Ġcycl ing
Ġconver gence
Ġgem stones
Ġconcentr ations
3 5
Ã Ń
ĠS and
Ġmy th
armaceu ticals
Ġlic ense
o kes
ul ative
Ġdis advantages
L E
ut ting
ĠH D
Ġfl ight
ĠIm m
Ġshould er
be it
Ġfail s
Ġbatt les
h yd
i rop
x y
Ġd uty
Ġfor ests
ĠO il
rac es
Ġdescrib ing
ĠOper ations
Ġa er
ar ms
ul in
ĠT ele
Ġins ects
Ġrep osit
Ġsurv iv
Ġunderm ine
a wn
Ġdi ag
Ġperm its
b ec
Ġre ar
ĠP ress
Ġresp ir
Ġemploy er
ĠProgram ming
Ġs oo
et ric
Ġred und
ĠMat ters
Ġlabel ed
Ġreper to
ĠMuse um
Ġcol onial
Ġir res
ĠWord Press
Ġram ifications
Ġm issions
ill er
ĠH ard
Ġpre jud
Ġinv asive
Ġinst antly
Ġaccel eration
Ġcolumn s
ĠPos itive
ĠM arch
Ġdi ets
Ġexcep tion
Ġwhe els
ĠTest ament
Ġunpredict able
P ersonal
Ġb espoke
Ġv ying
ĠCh ic
Ġsell ers
Ġintu ition
Ġcompris es
Ġen for
Ġcont rad
ĠIn trigued
Ġreal ization
Ġcompet e
ĠDel iver
Ġsusp ension
Ġretail ers
Ġmouth watering
Ġpharm ac
Ġc ooked
Ġwh om
ĠP ac
Ġcustom ize
Ġgra ins
Ġatt enti
Ġmer its
Ġpleas ure
d x
th at
ĠF ield
Ġapp reh
Ġmul til
Ġstic k
Ġingen uity
o T
ir l
ĠD en
tain ment
Ġposs ession
ĠSee king
ĠInvestig ate
ĠMan ager
Ġinj ured
ĠInter est
Ġalter ations
Ġrevolution ize
Ġtraject ories
ĠAud ience
Ġrough ly
ol ar
ĠC S
rou s
ber t
Ġdiffer ential
onal d
Ġrece ives
Ġwel comed
Second ly
al pha
ab ul
em atically
ot ely
Ġgl uc
Ġshe ets
ĠRetrie ved
al a
ĠH idden
Ġins urm
Ġsol o
Ġphys iological
= "
y an
ĠI r
Ġpre con
oo f
Ġwitness ing
f eed
Ġt rop
Ġturn over
Ġnews let
Ġworry ing
Ġinsurm ountable
$ )
S ome
Ġre verse
ĠC up
Ġparticip ant
reg ular
Ġfoss il
ig ue
Ġen vision
ĠM other
ĠO S
Ġiniti ating
ug ging
Ġsty lish
ĠTour ism
) $.
D isc
ĠM iss
ik i
Ġdisapp ointed
Ġshad ows
ĠConstruc tion
Ġpr one
ĠL ens
ne x
Ġpoin ting
Ġempower ed
Ġadver tise
Ġwonder ful
ĠMa jor
mat rix
at omy
rou ps
Ġcl ouds
Ġdes erves
Ġpack ed
Ġtun es
Ġveter ans
Ġtriumph s
L T
P ar
Ġsh ops
ĠF our
ribut e
Ġintellig ent
Ġexcl aimed
Ġcrow ded
Ġsurpris es
Ġrhyth ms
Ġalgebra ic
Ġculm inating
Ġper taining
Ġgrow s
Ġmus c
Ġprev ailing
Ġbal ances
Ġwid th
Ġsweet ness
Ġgeomet ry
R et
Ġl in
Ġqu ery
Ġk ick
Ġimper f
Ġfestiv als
id th
th es
Ġalter ing
Ġmand atory
ĠC ele
og ue
enti ous
Ġevery where
Ġend urance
ĠEm ma
Ġbiod iversity
L D
ĠJ er
M ay
h ire
Ġstr ides
Ġrecogn izes
I d
ic ating
Ġout f
Ġcle ans
ĠSp ain
ĠCo ast
Ġdign ity
Ġhand made
Ġbro ke
Ġcompreh ending
Ġland ing
Ġflour ish
Ġiter ations
Ġconserv ative
ing ers
Ġse at
ĠFil m
H P
am i
ili ation
Ġmirr ors
Ġdisappoint ment
Ġh em
ĠH or
Ġexam inations
Ġtw enty
ĠP ast
Ġtra ditionally
Ġrem otely
Ġconstruc ted
Ġlisting s
r ates
Ġdev otion
Ġmob il
Ġrub ber
| \
in als
ol ved
ist ant
Ġregul ate
Ġboo king
Ġunderp inning
p ressure
Ġs ati
Ġc ups
Ġb ub
Ġcomp ly
Ġag ile
Ġsocial ly
ĠLim itations
Ġmir ror
Ġdifferenti ate
Ġlean ed
Ġupgra des
Ġdoub t
ĠHT ML
s ers
Ġwork out
Ġsitu ated
Ġ/ /
Ġweigh ing
Ġsuscep tible
Ġint ent
Ġloc ate
ĠExper iment
Ġcat astroph
ĠProf essor
Ġunderp in
w in
ĠPersonal ized
Ġax is
f acts
Ġf raction
ic ter
Ġn ov
ir s
ĠM om
Ġcult urally
Ġcoc onut
Ġhundred s
} $$
Ġs onic
Ġn ights
ĠTra de
ĠEng age
Ġdivid es
Ġinterconnected ness
Ġpick ed
char ge
Ġhousehold s
ĠRis ks
s ized
Ġlog istical
Ġappl ies
Ġclient ele
ĠCap ital
Ġgrass roots
" :
Ġse af
Ġskills ets
Ġver ifying
Ġgreat est
Ġnur ture
Y es
Ġcon qu
ter y
Ġch urches
Ġfacilit ated
Ġadvers aries
ĠImpro vement
Ġtow ering
rolog y
Ġsteep ed
Bu ilding
b el
Ġaud its
Ġengage ments
Ġvolunte ering
Ġmarvel ed
Ġdimin ished
Ġpl us
ĠAd ver
Ġmerch and
{ (
ĠS ection
Ġposs ibly
the ast
Ġund en
Ġsmart phone
ĠVict or
or ient
Ġal beit
Ġunl ocking
Ġattend ance
Ġped agog
Ġrent als
ĠMove ment
Ġambigu ity
Ġdisagree ments
ou l
Ġr ipe
ĠD u
av y
Ġappro ved
Ġany more
gen erated
Ġperm issions
Ġoccasion ally
ĠTyp ically
ĠCath olic
ub ric
ĠChar l
Ġfestiv al
Ġabund ant
Ġy ielding
ĠL ux
Ġrel ates
Ġacc l
Ġskills et
Ġgr anted
ĠYoun g
h i
Ġoff ices
oh yd
ffici ents
Ġregim en
Ġaccum ulation
Ġfurn iture
Ġdis placement
Ġstr icter
Ġmin ute
Ġmet adata
Ġresid ual
eles tial
ĠD oes
Ġmod ifying
ĠRob ert
Ġsp acious
---------------- --
Ġimm ig
-------------------------------- --------
Ġresol utions
Ġuniqu eness
Ġcoord inates
Ġd amp
Ġsc ripts
Ġinf ections
Ġregul ating
Ġet ched
Ġconsult ation
Ġrecording s
z a
Ġ q
Ġ erg
ch e
Ġbound ary
Ġscholar ly
M arket
or ative
Ġf are
Ġh o
ĠP ray
un ity
ist as
Ġsub mission
ĠApp reci
Ġocc asions
hold ers
Ġspir its
Ġarg ued
ĠRecogn ize
Ġs ights
Ġb low
id ental
ĠP red
Ġtrans lation
rib ed
ĠWor king
Ġrefer rals
Q u
w ear
ĠA th
tific ations
sp eed
ĠClin ical
a is
h o
ĠH aw
Ġpl as
ĠL and
Ġpe pper
Ġvol tage
! )
ir th
Ġac umen
ap ed
all ed
lo ads
Ġpositi vity
ĠMus ical
Ġdoll ars
Ġh iking
tic le
row ing
ĠPers pectives
Ġ200 7
Ġport ra
Ġlegend ary
< /
Ġdisc onn
ĠDo ing
ĠNig eria
C ar
ĠF inding
Ġcan vas
Ġindividual ity
Ġintr igue
Ġclaim ed
Ġfamil ial
power ed
Ġreass ess
Ġpin point
an i
om orph
ĠC ancer
ĠG raph
por tion
Ġmem br
Ġfasc ination
Ġskep tical
b led
as tically
Ġcap s
tit e
Ġperf ection
ĠCommun ities
Ġling ering
ĠL ord
Ġestim ated
D E
Ġe at
Ġres erv
ort ed
ĠO ct
Ġno tions
Ġge ographic
Ġfirm ly
ĠJan uary
Ġcoex ist
abul ary
Ġf ron
Ġr iv
Ġr um
ĠM ort
Ġmer it
Ġdistinc tions
Ġtempor arily
este em
Ġoppos ite
m ond
Ġr ail
ĠA w
Ġnew er
Ġbro ther
Ġemer ges
Ġtable ts
ĠBas ics
it ality
Ġl uc
Ġn uts
op ing
Ġrec ru
Ġdev ise
Ġsatisf y
Ġneg lig
Ġ200 9
Ġdr ills
Ġhaz ard
Ġurg ency
Ġmes mer
Ġconstitu ents
" .
J ohn
U sing
in ator
ol i
Ġal ien
Ġext ensions
Ġview ed
Ġreson ated
Ġanx ious
Al though
Ġreperto ire
w ith
Ġgen es
Ġpass ages
Ġremember ed
Ġhesit ated
S am
igh th
Ġad oles
urn s
ĠReg ulatory
Ġpa ired
Ġwrest ling
Ġrespir atory
f are
u ven
w ar
ĠN ations
Ġchallen ged
Ġille gal
L e
v ar
Ġdef enders
Ġarti facts
Ġgr ateful
ĠSetting s
ĠNF T
Ġquarter back
Ġe igen
ĠJ os
ĠConflic t
Ġl od
Ġpro ph
pl aces
Ġ200 6
Ġdu o
Ġdatas et
Ġstret ching
^ (
b a
In s
Ġdist rict
Ġpair ing
ĠDist ribution
ogen ic
Ġdifferenti ation
Ġdissem ination
Ġs atur
Ġcons ecutive
Ġbo asting
ĠKeep ing
Ġconsult ations
ĠDou ble
m ega
y les
ring e
bo arding
omet ric
Ġtrou bleshooting
L P
Ġl enses
os er
ĠN BA
Ġbut t
Ġprogram mers
Ġnerv ous
Ġlegisl ative
ĠDise ase
Lear ning
2 8
c or
g u
Ġp ull
Ġre venues
Ġg aze
Ġpro hib
ir a
ĠT own
Ġsp ont
Ġass urance
Ġpromp ts
Ġhesit ate
Ġgir ls
B M
Ġb in
ric ing
Ġsystem atic
Ġadap ted
Ġfuel ed
ĠIngred ients
C P
Ġc ov
ith metic
âĢ ¢
Ġcontribut ors
isc o
Ġarchitect ures
ste in
ĠTransport ation
â Ħ
ĠS till
Ġper tains
ĠV en
Ġrig id
ĠTrans fer
Ġsafegu ards
j ection
ur a
Ġcomp ression
Ġass uming
Ġdel ays
ĠV eg
Ġreson ance
Ġdisput e
Ġ( \
Ġpl ates
Ġobs er
Ġf ictional
Ġb ass
ĠF ail
Ġstra nd
ĠCollabor ating
Ġlength y
Ġproceed ing
l ies
m n
Ĩ Ĵ
Ġc ub
ar row
Ġst ocks
Ġphys icians
Ġstress ors
Ġquan titative
ly wood
Ġr id
Ġman ner
ĠExpl ain
Ġbreak fast
ĠRep ut
Ġmist ake
ĠPat tern
2 7
og ene
ĠL i
Ġvar ies
Ġess ay
Ġform ations
Ġcollabor atively
Ġsymbol ic
Ġthr illed
Ġpuzz les
G iven
O b
Ġw ages
Ġn erve
ĠF air
Ġcomm ission
ĠNeg oti
ĠUr ban
i ations
al og
Ġp atches
ĠP DF
Ġsh oes
ĠInter estingly
Ġwar ran
Ġtouch points
Ġsynth esis
ĠAcad emy
Ġboun ce
idel ity
st ar
ĠS QL
Ġsub set
Ġsoft ly
Ġsl ope
Ġdigit ally
at tle
Ġm ur
ĠD ial
Ġdisc ounts
Ġbu nd
Ġlo ads
Ġcar ried
ĠCo ach
Ġathle te
Ġexacerb ating
Ġarom a
ĠConsum er
Ġgest ures
Ġb inding
em aking
Ġstr ings
Ġdet ecting
Ġgu ilt
Ġsearch es
Ġexempl ified
Ac cess
cure ment
Ã ł
Ġwh oles
Ġse ed
ĠH en
Ġexp osing
te x
ĠQ ual
Ġdr um
Ġgard ens
Ġd os
Ġh ors
ĠE p
ĠBud d
el ve
Ġind el
Ġthan k
Ġmin eral
ĠCl imate
Ġdiagnos ed
Ġh ubs
ĠS D
ĠD rug
Ġmin istry
Ġquick er
Ġcand ies
R O
it an
iz er
Ġsp arking
tiv irus
Ġcalc ulating
Ġmor ph
Ġstim ulate
Ġfrag ile
Ġst urd
iti s
Ġnot ably
urs es
ĠMast ering
\ )
p roduc
Ġun ited
Ġpre ventive
Ġhead lines
Ġadvent ur
Ġdirec ted
Ġaccompan ying
re me
Ġcl ues
ilit ating
ĠAc ross
Ġcr ush
Ġsuff ered
des igned
Ġpod casts
Ġcoe fficients
m al
u a
ut ely
Ġsh y
Ġpres ident
Ġver bal
ĠRes ilience
Ġdraw s
Ġphotograph ers
ĠDeterm ine
ĠF urther
ĠR ate
Ġvisit or
rane an
ur t
Ġg ases
Ġqu aint
Ġeffici encies
Ġread ings
Ġmer ging
ĠAg ency
ĠConn ections
Ġaccompl ished
Ġschedul ed
Ġinconsist ent
tiqu es
er ge
ĠO h
Ġoptim ized
ĠIns pir
Ġinher ently
Ġport able
ĠIniti al
ĠEngine ering
Ġster ling
u ana
Ġt ucked
ol ars
Ġch art
Ġcol ored
Ġgener ous
Ġvolati le
$ :
se ason
Ġwork er
Ġdivid ends
Ġpor tions
Ġstem ming
Sim ilar
stor ming
Follow ing
) -
t ures
y ou
H ist
c uss
Ġt we
Ġdram a
Ġprecon ceived
2 6
Ġse ating
Ġbo at
Ġcur ves
Ġcy l
Ġcorresp onds
Ġinev itable
Ġl ung
Ġcon j
ĠF arm
Ġyour s
Ġc elestial
Ġn ine
ate ur
Ġne at
Ġwe ights
Ġide ological
pos ing
Ġclass ification
Ġsing ing
Ġhead first
N D
Ġm erc
ĠC EO
ugg ed
Am eric
3 3
Ġb id
Ġh ockey
ĠW in
av i
ĠMach ine
Ġscholars hip
Ġcos metic
ĠRele vant
P N
Î ±
ro ck
Ġsub t
Ġgr anting
Ġline up
lo ading
Ġalleg ations
c a
Ã ¶
re aching
Ġre habilitation
ĠAcc ur
pon ents
Ġ7 0
Ġentertain ing
Ġimper ative
Ġregister ed
s hips
ĠS on
Ġall ies
Ġimpact ed
Ġlog s
Ġscrut in
S ub
it t
ĠCh amp
Ġoccasion al
Ġsto pped
ed ience
ec tiveness
Ġoff line
Ġsystem atically
Ġview er
Ġreflec tions
Ġgreen er
ĠCar ol
Ġlawy ers
P G
Th en
Ġsolid ify
Ġsqu ares
Ġdisci ples
urg ical
ĠC r
Ġsupp lements
Ex am
Ġrepe titive
Ġmark ers
Ġtranqu ility
ig s
ir ty
Ġex haust
em e
Ġsh ades
Ġclear er
Ġpay day
Ġstret ch
Int egr
G o
e as
s ite
ac tivity
ĠR OI
ĠW ild
Ġsu its
Ġscen ic
Ġdiss ect
ĠAb out
Ġelabor ate
T ake
ĠF ast
fact or
Ġconcer t
Ġgraph s
reet ings
ij uana
ĠB road
Ġsal vation
Ġbound less
Ġcryst als
Ġsett ling
n is
ĠT able
ib ration
ound ing
ĠSt orage
Ġcomprom ised
iny l
ĠEff ects
Ġmesmer izing
Ġg one
ous ing
io tic
Ġrad ius
ĠMod els
Ġrever ence
ĠMag ic
Ġmac ro
Ġepis odes
Ġsymmet ry
ĠS av
Ġmis information
Ġres orting
ĠF aith
Ġlo ose
Ġassoci ate
ili pp
Ġbuild up
ĠSil ver
Ġembod ied
Ġhus band
Ġindel ible
Ġin fer
ic ations
ans ion
Ġwor ried
Ġsc an
ob er
tis an
ĠPr ice
Ġprob abilities
Ġupgra de
Ġbreakthrough s
ĠExerc ise
Ġsovereign ty
ĠI S
ĠB lu
ant a
Ġappear ing
Ġdecor ative
Ġjurisd iction
z ero
Ġl ob
Ġr ating
ĠTh ank
ĠD ream
ĠN umber
Ġmitig ation
Ġir regular
Ġnegoti ating
Ġfabric ation
ĠPrepar ing
P M
} _
Ġimp lying
In c
Ġsmall est
Ġremind s
Ġopp onent
A h
E st
end ants
Ġhor ror
ĠArtist ry
L ife
T C
r ink
ĠF low
Ġrequire ment
Ġdirect or
Ġcirc ulation
Ġundersc oring
Ġarbit rary
Ġwithd raw
Ġu t
Ġst ating
Ġunder represented
Ġded uc
Ġimmun ity
Ġhun ting
Ġpropri etary
Ġluc rative
a fter
Ġt ro
re tion
Ġe lected
ĠB ur
ĠL ibr
Ġvent uring
Ġresili ency
T w
Ġl ighter
ĠR ub
Ġgener ic
ĠSer ver
r at
z il
et al
ĠT en
ĠP oints
Ġiniti ate
ĠPar is
r ating
Ġc ake
Ġw rote
Ġch est
Ġres iding
lic e
ĠJ o
Ġmulti ply
Ġleg acies
Ġvalid ity
Ġpasseng ers
ĠConc ern
ec ks
ke ep
Ġres emb
ĠF unctions
ĠG ather
Ġappe als
Ġpred etermined
ĠMus lim
Ġaccept able
Ġm ature
Ġengine er
Ġconflic ting
rup ted
Ġr u
ĠS eg
op erative
ĠF rank
Ġj e
Ġadd itions
Ġcivil izations
incl uding
w idth
ber ry
pos ed
atisf action
Ġvac uum
ĠCommon ly
ĠCele br
g ic
Ġp ill
it ures
ĠC ourse
ĠH yd
ĠG em
Ġreg en
Ġsign ed
Ġthreat ening
ĠMon t
Ġlabor atory
Ġbacter ial
Ġdeliber ate
M us
Ġcom for
Ġk il
less ness
Ġpost ure
Ġpo ols
Ġve gan
Ġfrequ encies
Ġ200 5
Ġsimpl ifying
Ġfra gment
Ġhyd rogen
Ġgrad ual
Ġturm oil
ĠChic ago
Ġf ate
ĠTh ird
Ġan omal
Ġsh ip
ĠPro blem
ĠAg ree
Ġmarg ins
Ġsubsc ription
om ans
Ġres erves
ĠO w
Ġshould n
Ġmort ality
ĠMexic o
ĠVe hic
ĠB ox
Ġdis pro
Ġacc used
ĠAl ong
Ġmake up
Ġpublic ation
Ġaff ection
Ġhost ed
math cal
Ġunp ack
rap her
Emb racing
B I
Ġb es
ra ined
ĠP oint
Ġres idence
ĠH el
ost er
Ġdec e
Ġvisual ize
ĠRep ort
ĠUp d
---------------------------- ---
ĠRich ard
o ked
ĠE ffor
Ġout puts
Ġregim es
S ure
c ence
Ġf av
Ġpr on
Ġtra des
ĠProt ecting
Ġtrou ble
Ġfram es
Ġsoo thing
y al
Ġf ingers
ot o
Ġmod est
Ġpower ed
ris on
ĠTo ol
Ġclos ure
Ġlay outs
Ġl acking
ĠA C
ĠL ic
tr ation
ĠJ im
Ġ$ {
Ġbre ach
ĠPic ture
Ġanaly zed
Ġtransform s
Ġshowc ased
Ġindic ative
Ġsuper ficial
Ġprepared ness
Ġcoll ateral
ĠEmp athy
i ams
Ġb are
ĠB rief
av al
Ġmod ification
Ġfost ered
Ġdep os
Ġposition ed
Ġweek end
H er
ĠG PU
Ġout er
Ġ2 8
ĠCon duct
ĠReg ulation
Ġwond ering
Ġneu rological
ept ember
Ġfib ers
r ations
am ous
ot ors
Ġab ound
Ġind oor
ĠSt ories
oin ting
Ġpartic le
Ġoptim ism
Ġdr inking
Ġdepart ure
6 5
b ow
or ious
Ġl iver
ĠTh inking
og rapher
ĠN ight
Ġrep roduction
Ġrepresent ative
Ġground work
ĠLeg acy
ĠCraf ting
ĠDirect or
Ġatmospher ic
ĠFestiv al
l ar
m u
un ct
Ġimp aired
Ġup hold
ĠDesign ing
Ġdark ness
ĠKore a
ri ends
Ġle agues
Ġexam ined
Ġsuper vision
na ments
Ġlic enses
ĠPriv ate
Ġd ense
ĠT ail
ĠS ug
ĠR un
ĠN ative
Ġpersonal ization
Ġext ensively
ĠReg ulations
inter est
ĠHarmony ville
I C
M P
Ġsepar ately
Ġdiam eter
ĠIniti ally
Ġcaf Ã©
b low
r um
am per
ĠP oly
ĠV iew
Ġcra ving
ĠSe ason
Ġinform ative
Ġmo thers
Ġtri o
ĠCre ation
Ġdomin ance
Ġinfluenc er
( "
P art
ed ay
Ġch rom
ass ment
Ġform ulas
tit ution
Ġmethod ology
Ġer as
ĠCre ativity
Ġvend or
Ġneck lace
f ire
Ã ¼
ĠD ivers
ĠV iol
Ġed ition
Ġexh ilar
Ġow ning
Ġexpend itures
ediat ric
G reetings
Ġres ume
ign ific
Ġspecial ize
ĠInd igenous
ĠPer fect
Ġadequ ately
Ġphilosoph ical
Ġjournal ism
Ġsand wich
S T
Ġf ract
Ġmod alities
ci um
Ġmaster pieces
itam in
Eng aging
l en
Ġcomp rise
ap se
Ġmet ric
ĠMulti ple
Ġfor es
ĠC PU
Ġun ified
ep tion
Ġsur pass
Ġrespond ers
ĠGe org
Ġdistribut ing
Ġintim acy
Ġshel ter
at re
ĠS up
Ġse lections
ĠPrac ticing
ĠDisc overing
Ġvalid ate
ĠAustral ian
Ġvoc abulary
Ġuniqu ely
ĠMart in
Ġaqu atic
ĠTranspar ency
t ech
Ġv istas
ad os
Ġsp ine
air y
Ġconsum ed
ĠMed iter
ĠChrist mas
Ġmanip ulating
Ġextr ac
Ġreform s
Ġsacrif ice
Ġfut ures
Ġl ur
em ployment
Ġqu antum
Ġspec ifying
Ġlet ting
Ġsty ling
ĠExp anding
Ġuncover ing
ĠStand ards
H igh
Ġal erts
Ġbe er
Ġsympt om
Ġprincip al
Ġat titude
Ġcre ature
Ġtra vers
Ġacc ol
Ġlo op
Ġdocument ing
Ġtown s
ĠDis play
Ġsem i
Ġfat ty
ĠSpirit uality
Ġphr ase
Su pp
' )
Ġf ixtures
ul ous
Ġor ange
Ġden omin
ogen esis
l ook
Ġh its
ac tic
ĠB ul
Ġj ewel
Ġoper ator
pr il
ĠSupp orting
ĠBrid ging
v alu
Ġt ape
Ġn it
ra ti
ĠC ook
Ġle af
ĠW ay
Ġmod erate
por ting
Ġlo ts
Ġbur st
emb ering
Ġescal ating
Ġmountain s
} }{
Ġp izza
ĠG ene
Ġstri kes
Ġobst ruc
Ġscr atch
umn i
Ġwash ing
ĠLandsc ape
Ġthe ological
Ġg iant
Ġco her
Ġhard er
Ġvacc ines
ĠOl iver
Ġre im
Ġar ithmetic
Ġadjust ment
ĠScript ure
Ġex cept
ĠC and
Ġreg ression
ĠCon duc
Ġbl ocking
Ġrig or
Ġadjust able
Ġtransc ending
v asive
Ġo ven
ĠR h
Ġdec ipher
ock ed
irc raft
Ġran king
epend ence
ĠIns pired
Ġment oring
Ġsubsequ ently
Ġcompetit or
Ġprofici ent
ĠVir gin
Est ablish
f und
ou red
ĠH ill
ĠL if
Ġel ite
Ġhol es
ĠDi agnos
ĠIniti atives
Ġfraud ulent
/ >
tic k
ast y
Ġkne e
Ġtransl ating
Ġphil anthrop
Ġscienti st
ĠThough ts
ĠPartners hips
L ess
U nder
e en
ĠG ar
ĠDevelop ers
ĠCur ious
Ġol ive
Ġcapac ities
Ġcomm erce
Ġpast a
Ġencaps ulates
T oday
ĠT ac
ĠA T
ag a
ĠD am
ĠW as
Ġab normal
Ġman ages
Ġtra ged
Ġglobal ization
ĠSim ple
Ġrecord ed
Ġfail ing
Ġtour nament
Ġpropos itions
Ġcombat ting
Ġinhabit ants
urric ular
. $
Y our
ou nder
Ġh ttps
od ynam
ĠU I
ĠCh ief
ĠEx change
ian o
ĠStud io
Ġintr insic
ĠApplic ation
ĠPsych ological
Ġecho ed
Ġmuse um
ĠGD PR
ar ound
ell er
lam b
Ġdistinc tion
ĠIde ally
Ġperpetu ating
Ġdiscern ment
ed ies
Ġun in
ĠSt ri
Ġcorre lation
Ġtick et
Ġindirect ly
l ong
Ġcom edy
ĠStud ent
Ġclean liness
Ġartic ulate
Ġliqu idity
ĠSou thern
Ġrej uven
ĠFunction ality
D is
ĠM ean
Ġcont end
ĠK ar
par tial
Ġgra des
Ġbuy er
Ġcaptiv ated
Ġpra ise
omin antly
Ġune ven
n ational
ĠS everal
ad get
Ġtw elve
Ġlif t
ĠProper ties
Ġillum inate
Ġoccurr ences
. *
l ia
r m
Ġac ute
Ġdis pers
Ġph armaceuticals
Ġsum m
ĠEv idence
Ġpreval ence
ac on
ip al
Ġhe al
ogn itive
Ġsou ls
Ġhit ting
Ġdeploy ing
Ġcomment ary
Ġdentist ry
Ġcontam ination
l n
Ġw and
Ġel astic
Ġsym phony
ĠRes ults
Ġ200 4
lim inary
Ġveter an
Ġcataly st
ĠIslam ic
feed ing
Ġg um
Ġen ding
pl an
Ġsh o
Ġsp inal
ys ical
Ġshif ted
Ġacquis itions
Ġgluc ose
ĠFail ure
ĠMediter ranean
N ew
Ġn an
Ġper me
Ġop tional
Ġdec ay
Ġbegin ners
Ġspread s
Ġprop elling
ĠAre a
Ġb ell
ol is
Ġbe ads
ĠD ating
ĠN avig
Ġdif f
Ġfact ory
Ġsens es
Ġhere in
ĠEnviron ment
Ġacadem ics
ĠMem bers
Ġjar gon
Ġimperf ections
c ase
g ans
il ateral
Ġimp ose
Ġsu pre
Ġcl ust
ĠStr uct
Ġsubs id
Ġprol if
Ġswitch ing
Ġsubmit ting
iat ric
ĠDemoc ratic
Americ an
Ġamb ition
Ġcaptiv ate
Ġrh et
Ġrecre ation
ĠCrypt ocurr
r as
t ail
u tives
Ġt ears
Ġsh ake
Ġsp oken
Ġro yal
Ġgl im
Ġprofessional ism
Ġsil ent
Ġden ote
Ġslow er
App lic
Ġsam pling
Ġhabit at
ĠAgain st
p ack
s ung
ĠM ike
Ġbre w
ĠInt roducing
Ch o
Ġreinfor ced
Ġbott les
ro y
Ġl overs
Ġg rip
Ġmod ular
ĠAc com
Ġsty l
Im plement
Ġsav ed
ĠDi am
r int
Ġcon ges
Ġan ger
ĠJ ac
Ġleg s
Ġregul ators
ĠCl oser
Ġdepic ting
d i
Ġent rance
Ġprot otyp
Ġbroad cast
ĠTrans ition
ĠEmphas is
ĠFeed back
Ġsturd y
a ments
Ġc able
ĠUn raveling
Ġmeas urable
Ġdepend encies
Ġc ats
Ġf ateful
am m
Ġapp le
Ġ2 2
Ġmed ieval
Ġdef ici
Ġbra ve
be at
H R
c ut
o ard
Ġp atch
pl atform
Ġne ur
Ġrep ayment
Ġachie vable
Ġpo ignant
Ġprotoc ol
ĠGrad ually
Ġseaf ood
ĠAdver tising
ess ed
ĠB illy
Ġpot atoes
Ġparam eter
Ġportfol ios
Ġadventur ous
T erm
Ġh ills
Ġg rammar
Ġteach es
ĠCont act
Ġcompet ent
gra duate
Ġantioxid ants
lamb da
O R
Ġn ob
ub a
Ġmod ified
Ġdet rim
ĠAm elia
Ġsens ations
Ġsyn tax
m ber
al ine
Ġst uck
Ġbudget s
Ġgar ner
Ġmagn itude
ĠCond itions
d eg
Ġc ord
Ġd x
Ġb acking
ĠT otal
ĠTh ose
Ġch air
ĠM atch
Ġsu ite
Ġenj oys
ĠQu an
ĠPrioriti zing
ĠTur key
Ġn ode
ĠU X
Ġsens or
Ġamb iance
Ġoutd oors
orient ed
* }
Ġst aple
ĠS eptember
ĠL ower
Ġper ipher
Ġ2 7
ĠCol l
ĠSp aces
Ġred ef
Im p
Ġder ive
Ġclin ics
Ġsent ences
y es
in ar
Ġs avor
Ġch ips
ĠL ib
io tics
Con n
Ġ5 00
Ġcontext ual
Ġborrow ing
Ġlegitim acy
oper ability
Ġdispro portion
ant al
ĠR am
ĠSp ring
Ġsynth es
Ġa venue
Ġb atch
ec tively
th inking
Ġunder water
ĠSo on
Ġdra in
ĠBe auty
ĠPers on
iment ary
ĠKing dom
N T
Ġb ure
Ġg iants
ĠAn y
af e
Ġartis ans
Ġwind s
Ġaccident ally
ĠCong ress
ĠConcern s
ĠL os
Ġhum idity
Ġinnov ate
Ġsav ory
Ġdisrup ting
Ġsegment ation
ĠAutom otive
Ġquir ky
/ (
id en
ĠT erm
Ġdec ade
ĠV R
Ġ4 5
Ġren ov
ĠIntegr ated
Ġtutorial s
Ġgradu ate
ĠEmphas izing
Ġjump ing
ĠBra zil
S QL
Ġen cl
Ġref rig
ĠY ear
Ġemp athetic
Ġrev ital
Ġdilig ence
Ġbench marks
Similar ly
ist ed
ep s
Ġstud ied
ĠPro ced
com ings
Ġfound ed
Ġide ologies
Ġpainting s
Ġfol ks
Ġpret ty
Ġbutt ons
t d
x ide
Ġen force
Ġsom eday
ĠPre c
ĠInter pret
Ġforg otten
Ġdetrim ental
Ġsk i
Ġpass words
Ġstream lines
Ġrecip ient
tis tic
F in
P ri
b ut
} =
Ġp aus
ed ic
Ġd ancing
ĠA pril
ĠF ile
Ġsp her
Ġover st
Ġgl ory
Ġmean ings
ax y
Ġclass ified
ĠSc al
umb ing
--- |
Ġclim bing
Ġtom atoes
ĠAtt end
Ġlicens ed
---------------------------- --
ĠMechan isms
ĠOct ober
b ody
e enth
Ġre ign
he el
Ġmed i
Ġmet all
Ġcred its
Ġsyn onymous
ĠCan adian
Ġdepend ence
Se lecting
Ġconting ency
s ec
il on
ig ious
te es
aw s
Ġhand les
Ġworking s
ĠSurround ing
F S
R ed
u its
z es
in ct
ĠG it
Ġfl air
ĠOn going
play er
Ġground s
Expl anation
A re
e ur
o a
v a
Ã ³
Ġb ou
Ġprior itiz
Ġhom age
r ator
Ġint ang
Ġsh ield
Ġbre ed
ug s
ĠConn ect
Ġimpl ant
ĠDiv ine
conf idence
Ġmerchand ise
H O
V is
e fficient
Ġm ine
Ġre ception
ĠN ame
Ġprin ts
pe ople
ĠCorpor ation
Ġimbal ances
Ġo ught
Ġcor n
-------------------------------- --
Ġheav en
Ġexch anging
ĠDan iel
ĠBec ause
ĠEffor ts
Ġt arn
ing ing
Ġw ield
Ġg od
ĠPar ts
Ġ200 3
Ġconcer ted
Ġincenti v
ĠElectr ic
Ġintermedi aries
R el
a que
Ġh ue
ra ins
ĠB ol
ch est
Ġins pect
Ġreduc tions
Ġtail oring
Ġpan ic
Ġsat ell
ĠWill iams
Ġsubsc rib
sen al
b row
es ity
em istry
ĠR oyal
Ġcont acts
Ġwork outs
ugg ling
Ġmention ing
sh ore
ĠStay ing
ĠAdvoc acy
Ġcareg ivers
Ġd ot
th ri
Ġk it
ĠAd ding
Ġsa ves
ĠTra il
int ended
ĠMar tha
Ġtun ed
en es
ĠF ull
ĠW all
ĠG et
Ġinv erse
tr acting
Ġsy ndrome
Ġprec ip
ĠConn ecting
ĠDist rict
Ġl ubric
op ard
ĠF er
Ġshort comings
rip tive
M C
Ġp umps
Ġcon ce
Ġim bu
ĠF ather
Ġcl utter
Ġdra g
Ġver tices
Ġbur ning
. $$
M O
T e
re ated
Ġl i
Ġg ly
per ature
Ġtr aced
Ġacc idental
ĠAn cient
Ġtrust worthy
Ġmis use
Ġqual itative
Ġbrow sers
Ġdepend ency
2 9
oc y
ati bility
Ġunder going
Ġacc red
Ġdef ending
Ġexceed ing
Ġcompanions hip
Ġhards hips
nex pected
t ory
ĠM L
ĠL abor
ep iec
Ġrep ur
ĠReg ional
Ġhyd ro
Ġreproduc tive
ĠPray er
Ġg rief
ĠTh orough
ĠCh ann
Ġjud icial
ĠReduc ed
ĠLin ux
h at
Ġd aughter
Ġres erved
op tim
Ġindividual ized
iss ance
Ġ3 5
Ġdri ed
Ġsw ay
ĠMet al
Ġconfirm ation
Ġreconc iliation
Ġmaj estic
S everal
o is
or b
Ġre ti
Ġl au
Ġwh it
ĠC ast
Ġen velop
ĠR apid
Ġinst inc
ĠInnov ative
Ġquart z
R esearch
i ro
s ize
Ġl oud
un a
ĠH um
Ġcomm od
ove mber
gen er
Ġexhib ited
Ġbelong s
D o
ĠS low
Ġen ticing
ĠM ir
Ġde emed
Ġshad ow
Ġhierarch y
I X
ĠS ter
Ġbet a
Ġsm oke
ins on
Ġneg lecting
Ġpa ves
Ġformat ting
Ġdepic ted
ĠExpect ations
c ore
ig g
Ġg adget
ĠA WS
ĠTechn ological
Ġprop el
Ġsuit ability
Ġstro ke
] (
Ġto ken
ver bal
Ġguid eline
Ġste am
Ġanim ation
Ġcoll agen
En ter
Ġcro ps
Ġdoctr ine
N G
ĠP R
ĠP rime
Ġse al
ĠCo op
Ġacknowled ged
Ġscal able
Ġsett led
fl ix
Ġs ister
Ġb acks
uc tion
Ġsh ines
ath ers
Ġinform ing
reat he
Ġmul tic
Ġcri tique
Ġimplement ations
Ġdram atically
Ġunderestim ate
at us
Ġin k
ĠH ub
Ġinter f
Ġsc anning
ĠFrame work
ĠGener ally
Ġsurviv ors
j i
Ġs tif
Ġbe aches
Ġins ulin
Ġconstit utional
Ġhop es
Ġbow l
Ġpond ered
Ġaccol ades
{ {
Ġr iding
Ġimp osing
ĠL ast
Ġins ignific
Ġass ists
ĠCon tract
Ġsustain ing
Ġmar ijuana
ĠTrans form
Ġthr ill
Ġbrain storming
Ġcontract ors
ĠAz ure
Ġcarb ohyd
Ġnewslet ters
M T
it ous
Ġv iability
um a
ĠIn ternal
Ġnew com
Ġalloc ating
ĠCul inary
Ġsti ff
Ġpersu asive
i tic
ĠP u
Ġcl ay
ĠN G
Ġout lines
Ġexec utives
Ġpropos als
Ġallev iating
Ġmetab olism
Ġresc ue
Ġb aked
et t
ĠT racking
Ġall ergies
Ġaff irm
Ġbegin nings
vent ing
Ġsett lement
Ġescal ate
Ġsanc t
Ġpreced ents
qu ir
Ġval ves
ĠJ une
ov iet
ocus ed
ord an
ĠIdentif ication
Ġcapital izing
ĠMeas ure
Ġox id
al k
Ġb less
Ġpro jections
ĠB rit
un ication
ĠR out
omm y
Ġdemoc rati
Ġfootpr ints
ĠMexic an
Ġpro curement
tr action
Ġbr ass
Ġsug ars
Ġperiod ically
Ġlab eling
Ġconges tion
3 2
P rom
m l
ti ff
Ġf ines
ĠD iversity
ĠH on
ĠL oss
.. .,
Ġexplo iting
Ġabund ance
Ġnov ice
C an
ĠI V
Ġch im
Ġch uck
Ġar ranging
Ġdirect ors
Ġrad i
Ġsil ic
al i
Ġp endant
Ġit iner
Ġres ur
Ġtra gic
Ġran k
Ġmor ality
Ġadvis ors
M oving
P P
U p
d efined
un ge
ĠD at
Ġbl ues
ĠZ eal
Ġcelebr ations
Ġcontempl ation
De velop
Ġfier ce
ĠCris is
v in
ĠE ver
Ġrec ap
Ġdef ects
Ġhand crafted
Ġsens ation
Ġdirect ory
Ġcomple ments
ĠNar rative
ĠChann els
D ec
M I
b ro
f elt
ti st
Ġh iding
fer encing
ĠO ffic
Ġbod ily
ĠBet ter
ĠIde al
Ġweap on
Ġp ouring
Ġd irt
Ġn urses
ĠS ize
fic ion
cent ric
Ġindul ging
ĠIndividual s
Ġab st
orpor ating
Ġcertific ates
f ish
im um
ĠC old
ĠH elp
Ġqual ify
Ġfair ly
Ġburn out
ĠEvent ually
ĠMort g
Ã ¨
Ġs ipping
Ġex it
ĠP T
ach ment
Ġpost er
Ġadm itted
ĠPh ilipp
Ġexpos es
Ġquestion ed
ĠExp ression
ĠProcess ing
Ġtick ets
Ġdiscl osure
Ġdict ate
Ġt ong
Ġd ens
ab ric
Ġbe verages
Ġmain ly
rac tic
Ġunderm ining
Ġlawy er
ĠPac ific
le ashing
iti vely
Ġcatch ing
Ġgem stone
Ġtempl ate
Ġfranch ises
Ġcatastroph ic
Ġf ocal
Ġm alf
ig an
uc es
Ġens emble
Ġintern ationally
Ġtherap ist
Ġresource fulness
Ġagg reg
quis ites
Ġrecon struc
em ia
anc ers
Ġi Ph
Ġintim idating
Ġglass es
Ġawa iting
ĠInvestig ation
Comm erce
ĠDri ve
Ġtriv ial
ĠLou is
it or
Ġtr icks
Ġcre ator
Ġam ateur
Ġpres idential
ym ph
ĠInf lu
ĠSustain ability
( (
Ġfor ef
ĠT ow
Ġv ote
ĠB all
ĠD ie
Ġpl ating
Ġins er
Ġbl ends
Ġutil ities
Ġpred ominantly
Ġpercent ages
Ġaffili ate
b n
le ep
em en
Ġal ert
ĠThe orem
Ġdeb ut
Ġauthor ized
Ġintroduc tory
Ġcitiz en
ĠRespons ibility
Ġum bre
in formed
Ġr acing
ĠM ah
ere quisites
Ġpers ons
Ġpost ed
Ġvirt ually
Ġnovel s
Ġsem inars
Ġslic es
Ġhur t
ĠAuthentic ity
Ġadvertise ments
\ *
st age
ec ked
Ġch irop
Ġform ulation
Con f
Ġund ue
Ġunf olding
Ġampl ifying
Ġuniform ity
ec e
ul ator
ĠTh reat
ĠD ark
Ġpr ud
ĠU l
Ġrel ating
Ġtim eline
Ġprac ticed
ĠConsist ency
ĠHosp ital
ĠBudd h
Ġinsignific ant
z er
Ġa ircraft
pp y
Ġan tivirus
Ġde leg
Ġconc urrently
ĠWe ek
Ġhon oring
Ġnews p
Ġacknowled ges
ĠSaf e
Ġplug ins
ĠLux ury
c irc
s ervice
Ġit eration
ĠR od
Ġsign ify
ric ts
ĠAd obe
ang ular
ĠMin ister
Ġdesk top
Ġendorse ments
ĠZeal and
d el
Ġt elling
Ġb reathe
ĠB an
ĠL ee
Ġwor se
ne w
Ġtrick y
Ġa ficion
Ġb rick
Ġle aks
ĠF ear
ell ar
ĠCh ain
Ġent rust
Ġill icit
Ġpossess ions
Ġamb ient
AR T
Ġdoll ar
M ain
Ġb ind
ĠM oon
Ġle ak
ash ed
ĠDevelop ments
Ġproblem atic
Ġclaim ing
E very
Ġw ound
ĠO cean
Ġall erg
Ġinf inity
Ġfl ag
Ġlong standing
ĠDis ney
ĠProg ress
Ġfruit ful
Ġhind ering
A ll
ĠC as
ĠP ricing
ĠU nexpected
Ġcomfort ably
ĠConf ig
Ġuns ure
iff s
Ġrevis it
Ġpas time
Ġanomal ies
Ġcoher ent
Ġs ne
or ce
le ading
Ġh orse
ĠA ri
Ġcont ra
Ġun intended
ĠL ad
ell ation
Ġpur ity
Ġord ering
ĠNet flix
ĠParticip ants
step s
Ġvess el
Ġembod ying
Ġrational e
P V
Ġc od
ĠT urn
ra ge
Ġen roll
ĠM u
Ġcont ests
ass ad
Ġchar itable
Ġer osion
ĠTrans formation
Ġsure ly
Ġveter inary
Ġrush ing
3 6
b ial
Ġh os
ra g
Ġcom ic
ĠS und
pl ant
Ġan t
og ens
ock er
ĠHigh l
ĠRepresent ation
Ġor gans
Ġsur f
te en
Ġmulti disciplinary
Ġment or
Inter estingly
ĠAccount ability
3 4
l ooking
Ġun av
atch ed
Ġmar king
eless ness
Ġcalc ulus
omet ers
ĠExp ress
ĠParticip ation
Ġresist ant
Ġspect ators
o ft
Ġc m
st all
Ġins ulation
Th us
Ġsitu ational
ĠProper ly
Ġexh aus
E A
F inal
ĠC at
Ġac idity
Ġchar ism
Ġstart ups
Ġacadem ically
âĦ ¢
Ġf lying
Ġ( '
ĠH a
Ġnot ation
Ġform ulations
Ġprot ests
.. ."
Ġfamiliar izing
ĠKore an
Ġhazard ous
m p
ĠD er
Ġse ize
one ti
ĠJ oin
Ġback ups
Ġactiv ists
Ġread ability
Ġsing ular
Ġcitizens hip
Ġtum or
======== ========
D M
N et
ra ul
and al
ĠF ore
end or
Ġfund raising
19 9
Ġstra ins
Ġtouch ing
cons uming
ĠExc el
Ġdro ps
Ġgradu ates
Ġrol led
Ġc ope
ĠT HC
ad ed
end ip
ĠN ovember
echn ology
he im
ĠV an
ĠWe ight
Ġped est
Ġexpon ential
rin th
ĠCompe titive
tun ing
thri tis
Ġt ightly
ĠC le
ĠIm age
gen eration
Ġinstruc tional
Ġrein forcement
Ġfem in
ĠLike wise
Ġconfron ting
Ġmuse ums
il ation
Ġbe es
enti lation
view s
Ġheart felt
Ġassist ant
Ġstim ulation
Ġthick ness
tiqu ette
ĠPeriod ically
Ġmini ature
Ġenfor cing
ĠPattern s
I O
ĠT y
ĠC ool
Ġbe aring
Ġexc urs
Ġautom ate
ĠSch olars
Ġrevolution ary
ĠCri tics
Ġpul led
Ġflaw s
ĠThank fully
F L
Ġthem atic
Ġrequ ested
Ġwitness es
ri tical
ĠR ome
Ġdes erve
olog ically
ĠCon ference
Ġbefore hand
Ġstor ied
Ġcer amic
Ġten ets
ĠEth ics
Pro per
Ġdefin itive
ĠLar ge
gener ational
ĠS au
ain ed
Ġle ather
per forming
Ġsc iences
Ġthan ked
ĠV iet
Ġno tification
Ġide als
Ġpat ent
Ġact or
Ġunc ons
Ġimag ined
Ġsenti ments
ĠAccom mod
Ġforef ront
D B
s k
it o
Ġw ins
Ġg rit
ail ability
ĠJ ones
Ġoff enses
pos ure
Ġstrong ly
ĠMarket s
Ġserious ly
Ġpredic ting
ĠWill iam
a S
g ame
} _{
ti tions
Ġc av
Ġf ractions
ag ger
Ġch ap
ĠF red
ĠD ar
ĠR an
Ġcol on
Ġrom ance
c atching
j a
ĠC riteria
ĠM ount
ĠSt one
Ġsm oking
Ġback bone
Ġrepl aced
Ġsurpris ed
Ġbuck le
Ġmim ic
ĠJos eph
) |
Ġm ism
ĠA bs
Ġcre w
Ġph ishing
Ġiniti ated
ĠSec ret
me as
Ġrenew al
Ġmel ody
oc c
ĠD est
Ġbo ys
Ġaccess ory
ĠHol lywood
rec tion
m other
id ated
ĠW rit
Ġfl ora
Ġgener ously
ĠAc tivity
Ġauthentic ally
Ġthreat ened
Ġsepar ated
ii i
ĠExcited ly
Ġmas ks
L ast
d oor
Ġm erg
Ġb icy
ans om
ĠL y
Ġqu otes
Ġoff set
Ġensure d
ĠYour self
Ġjoin ts
ĠRep orting
ĠSam sung
Ġic on
ĠEmphas ize
v ec
am ination
Ġdis p
Ġbl u
Ġdev oted
Ġfa ult
ĠGen eration
ĠAccess ories
Ġquad ratic
Ġexhilar ating
3 7
O U
it tle
ar ith
Ġe ater
Ġg ym
Ġr ib
ment ed
Ġal umni
ĠSt aff
old s
pro cess
Ġfour th
Ġpic king
ĠEnh ance
ĠStep s
ĠMat thew
Ġoverst ated
E L
\ \
i ac
Ġt ank
Ġc ock
Ġfor tun
Ġcont entious
ĠK PIs
Ġmet a
ren ched
ĠRecogn ition
ĠIncl usive
th esis
Ġr ivers
ĠT aking
Ġtim epiec
Ġtechn icians
Ġass umes
pr int
Ġartis anal
ĠEmploy ing
Ġthrow s
Ġliber ties
ĠBlock chain
ĠArchitect ure
Ġobser vers
re m
Ġimp ending
Ġsp here
tain able
Ġexpl os
Ġinf ants
Ġmag az
ĠRef lecting
Ġfilter ing
() `
Ġgri ev
A ut
Ġb its
Ġwh ims
ĠC ab
ĠB and
Ġsp ans
In tern
Ġconstruc ts
Ġrepe tition
Ġterror ism
requ ency
? !
M at
in n
Ġl av
Ġr ounds
Ġins til
Ġrel uct
Ġacc ents
ĠAd herence
Ġmo on
Ġvo ter
Ġcompar ative
ĠStatis tics
m ma
Ġb er
Ġst ops
ra int
Ġsh ade
ap or
Ġmus h
ĠRec ords
Ġvari ation
Ġdro pped
Ġexplor ers
w ind
qu es
ard ed
enti sts
ĠL aur
Ġinv en
Ġbel t
Ġfil ing
ĠCoun s
Ġspl it
ĠTop ics
arc ity
Ġflo ating
ĠFranc isco
a issance
Ġs ick
Ġpro pose
Ġr ides
ĠA chie
em an
Ġan throp
ĠM ent
ĠIn to
Ġ2 3
Ġiss ued
Ġrefer ral
ĠTim es
Ġvari ants
ĠEstablish ed
ĠExp ansion
v it
Ġp est
le q
el le
ĠS S
Ġbe ef
ĠB ang
line ar
Ġfl ip
Ġav iation
Ġdom inate
Pro f
ĠVal ues
Ġillum inating
Ġcab in
ĠAdvent ure
6 4
W ow
Ġs ailing
Ġb ak
Ġre vers
erg istic
Ġdynam ically
Ġcirc uit
Ġstakehold er
val ues
Ġbud ding
Ġlab y
ĠUs ed
Ġten nis
Ġment ally
Ġassign ment
ĠNet works
ĠSte el
Ġlur king
I F
Ġh ide
if iers
ĠD J
Ġtr uck
rac ks
ĠV ill
let al
gy pt
) +
ess ment
ĠB rain
iti me
Ġnegoti ate
Ġcrow ds
Ġmetab olic
ĠPati ent
Ġdisturb ances
ĠCover age
! âĢĿ
Ġbl oss
Ġexcl usivity
ycl ing
Ġconcl ude
Ġsanc tions
ĠEmerg ence
Ġpaus ed
E ach
f ty
p rom
Ġac ous
Ġad ren
Ġsh ining
ves ting
ross ed
Ġpersonal ities
Ġtrig gering
ĠAng eles
Ġoffic er
Ġslic e
ĊĠĠĠĠĠĠĠĠ ĠĠĠ
ĠRecomm end
V D
j s
p ond
Ġr ender
ĠC os
Ġen ig
Ġeng ra
Ġphilosoph ies
Ġbul k
ĠEss ential
Ġcoe fficient
Ġriv als
P L
v ol
Ġm ish
ĠS ure
ĠS oviet
Ġun ear
ĠSh op
Ġbelie ving
pr ing
Ġwind ing
ĠDec ember
Ġuncertain ties
Ġreplace ments
min ute
ĠDeliver y
D igital
e or
ic ide
ĠA h
ĠS olution
ĠM otor
Ġk its
Ġloc ks
Ġsl ight
Ġpurch ased
Ġmal ware
Ġroc ks
Ġsubt ly
Ġprolif eration
V s
ĠC C
end ment
Ġat tire
ĠIn j
ĠUn leashing
ĠAut o
Ġliqu ids
atin um
Ġmiscon duct
Ġirrit ation
Ġb ones
ol er
are l
Ġproduc es
Ġear s
Ġpain ts
Ġbud s
ĠUS B
Ġdw elling
Ġaugment ed
Ġp anc
Ġh ooks
om ology
ĠI oT
Ġstrength ened
Ġpath way
aun ch
Ġnovel ty
Ġsubstanti ally
ĠBrand s
Ġpione ering
Ġcov eted
d ata
Ġe ternal
Ġsh ell
Ġdisc retion
ĠCh at
ven ess
Ġdist ricts
Ġgra in
Ġcal cium
Ġvol unt
Ġregim ens
Ġdeter ior
Ġcauti ously
Ġbure auc
ĠViet nam
C al
al t
ĠE gypt
Ġad or
Ġsh ut
ĠD om
Ġse ats
Ġdisc rete
ĠJ ordan
Ġbit ter
Ġc it
Ġp el
Ġp ink
ĠC SS
Ġlocal ized
Ġorganiz ers
asc ul
Ġalloc ated
We b
Ġpray ers
roc ery
Ġbrill iance
Ġlaby rinth
% )
Ġfor titude
ĠW ine
ĠEx tract
Ġleg ally
Ġexerc ising
Ġwar fare
Ġaccommod ating
ĠTal ent
Ġgall eries
Ġpromin ently
C entral
b es
Ġs ends
Ġc ath
Ġw ife
ec raft
Ġv owed
ist le
ĠUn c
ĠSp eed
Ġillustr ations
Ġpredict able
Ġcon form
Ġlearn er
ĠSch ools
Tim my
ĠMind fulness
" ).
J am
n atural
Ġst amp
ĠR os
Ġcons ole
Ġinter d
ish ments
rac ies
ĠFor ce
Ġunn o
Ġrestric ted
C ultural
T ogether
h ouses
Ġs qrt
Ġh ate
ol en
ĠE lect
Ġsome where
ĠSh ared
ĠTr ue
de velop
ouch ed
Ġjud ge
Ġsex uality
Ġannounce ments
S ocial
r un
Ġl end
um er
Ġimp ly
Ġconcept ual
Ġadm ired
ĠCollabor ate
Ġsou p
ĠConf irm
ĠBre aking
Ġpod cast
Ġdismiss ed
Ġcalend ar
et ooth
Ġcomp elled
ĠH ousing
ĠO pp
ĠN AT
se y
ten ed
Ġinf ringe
Ġcoun cil
Ġrot ating
Ġtempor al
Ġprivile ge
Ġrecru iting
ĠConduc ting
f ly
w est
Ġc rop
Ġd io
et ch
ĠC rim
Ġun st
Ġsa uces
ĠAn im
ĠEm ail
Ġappe tite
Ġgood ness
Ġmajor ity
Ġinsight ful
Ġcook ie
ĠClass ic
Ġinstinc ts
Ġunno ticed
N s
h ou
Ġcl icking
Ġmar ble
ĠOr der
Ex p
Ġinj ection
Ġpresc ribed
Ġob edience
ĠRe venue
Ġunw ind
Ġconsult ants
Ġep id
Ġworksh op
ĠRespons ible
Ġspark ling
Ġentrepreneur ial
it ary
ĠE c
Ġfe at
Ġnavig ated
Ġprem ier
T A
k n
à ¤
Ġqu ote
jec ting
Ġoptim ally
ĠRec overy
Ġneg lect
onom ous
ĠProfession als
Ġparadig ms
Ġrecept ors
Add ressing
, $
4 8
Ġ {\
on ia
ĠP S
olog ic
Ġeng ages
Ġco ating
Ġpun ishment
ĠEnter tainment
ĠBud get
Ġtrop ical
Tw o
ĠW ars
ĠL ind
Ġdisc ount
ĠV ision
Ġgra pe
bre ak
Ġimag in
Ġple asing
Ġaudit ory
Ġm unic
Ġre us
Ġn ut
ĠS ite
ĠM inist
Ġup ward
ĠJ uly
xim ately
ĠTr ack
Ġcontempl ating
Ġimmig rants
c asting
g r
m ap
Ġres ide
ĠF re
Ġro s
Ġob esity
Ġdeterm ines
Ġcam ps
ffic acy
Ġgraph ical
ĠSub sequ
Ġlap top
Ġcloth es
Ġthreshold s
B D
d ie
i ably
le te
Ġr ugged
ĠA lice
us tion
ĠC oin
Ġv inyl
ĠUn til
ĠInd ex
Ġpossess ing
ĠHer itage
cent ered
Ġaccomplish ment
ĠRis k
Ġsynchron ization
optim al
w rite
Ġm ask
ĠF riends
ach ed
ĠG PS
Ġplay ful
Ġvis ions
Ġgener osity
Ġfil tration
Ġtre m
Ġscholars hips
Ġrare ly
Ġumbre lla
Ġblu ep
Ġp enc
Ġcont rary
ĠH ind
ne g
ĠSk y
Ġcollect or
Ġroof ing
Ġhonest ly
Ġassum ption
p ire
ĠT ik
ĠD ur
oo ts
St ar
Ġwal let
Ġ($ \
Ġdenomin ator
Ġun rest
ĠV itamin
Ġsum s
Ġlog in
Ġexist ed
ĠQu ick
Ġestim ating
Ġgard ening
ĠEmploy ee
Ġd rew
el iness
ĠD iet
Ġun ions
Ġcomm em
Ġ3 00
ĠRe ach
acks on
Ġexempl ify
Ġmoist ur
Ġborrow er
Ġign ore
Ġsold iers
ĠAw areness
ĠDial ogue
Ġd airy
ĠA st
Ġestablish es
Ġeth ically
Ġtang ent
oles ter
Ġfur ry
ĠSup reme
bn b
g roup
Ġa ffor
Ġc ow
Ġg ears
Ġv itality
Ġy e
ĠJ ul
Ġdown town
Ġshort age
ĠExper i
Ġconcent rate
ĠGold en
S ch
f ather
ĠC R
ĠP aper
ĠE ra
ber ries
lectr ic
ots p
Ġminor ity
ĠDesc ribe
comp assion
b ru
u ition
u itive
al one
Ġl ig
ul ence
ĠInd ependent
Ex c
Ġcompos ure
Ġdiss ecting
Ġpal ette
Ġconv in
ĠFamiliar ity
ĠRen aissance
Ġrej ection
Str ateg
Ġpear ls
ĠVirgin ia
L L
V al
i h
p acking
Ġas ks
ĠE asy
ĠD ub
Ġk ine
Ġins ider
Ġrel ied
oo ter
Ġval ve
rac tical
Ġphot ographer
ĠSw ed
ĠEvery one
Ġinnoc ent
Ġextrac urricular
) *
d frac
Ġg olf
for est
ĠB ern
Ġint ellect
ep ar
Ġev il
Ġge ography
ev alu
Ġnutri tious
Ġâ ĨĴ
ĠParticip ating
Ġ: =
ĠClean ing
en ity
Ġp ad
Ġw ounds
Ġpr ison
Ġper ks
Ġapplic ability
ĠApp ropriate
Ġtour naments
Ġconver ge
Ġarri ving
ibl ings
Ġwhis pers
Ġrhet oric
Ġli abilities
s chool
ĠP ear
Ġ2 6
ĠPro jects
Ġlo ves
Ġspecial izes
Ġpati ently
vant age
Ġvirt ues
ĠExper tise
Ġcin ematic
Ġcataly sts
Ġforec asting
Ġfle eting
achel or
? **
d irec
p ool
re y
ack ets
Ġspec ify
Ġinvestig ators
ĠCent ers
Ġlat ency
Ġep ic
Ġripp le
Ġjourn aling
raul ic
Ġgriev ances
A F
p a
im pro
ĠC ould
ter ing
em es
Ġsh ook
Ġinf l
ĠPl ans
Ġlaw su
br ush
Ġevent ual
Ġfavor ites
Ġtest ed
Ġ7 5
Ġsepar ating
Ġkind s
Ġexhib ition
Ġpan or
Ġfeas ibility
ĠConsist ent
an as
oc cer
Ġch ord
ĠB iblical
ĠR oof
Ġimp uls
Ġagg ression
Ġconv ictions
Ġdoub ts
ĠHand ling
ĠGre ece
Ġdio xide
b ell
o ise
est one
Ġchar ity
ĠRes pect
oph ys
ĠPsych ology
Ġintention ally
Ġantioxid ant
Or gan
Ġmaneu ver
ĠChamp ions
ð Ł
Ġw age
iz ational
ud d
Ġsh oot
ult in
Ġdef ines
Ġtrust worthiness
Ġrefer ring
Ret urning
3 9
p ath
Ġs ays
Ġh a
ell ers
Ġall oy
Ġsim ulation
Ġprin ted
Ġthri ves
Ġexcep tions
ĠAltern ative
Ġul tr
ĠCommit tee
Ġwhisper ed
f ocused
Ġun ravel
Ġev angel
ĠK h
Ġdon ors
ĠSim pl
Ġhead phones
Ġtax ation
ĠST EM
Ġje opard
Ġdisproportion ately
K PIs
N ational
b urg
} =\
Ġac ne
Ġch ees
Ġsur r
Ġbl ur
ĠDef ense
Ġwarm ing
ĠHigh light
ĠBar riers
ĠIndust rial
ĠDemonstr ating
ĠGard en
Ġuncons cious
Q uality
b matrix
it ects
Ġf ires
Ġsyn ergistic
Ġstim uli
P O
b eta
u h
Ġp acing
ĠF ed
ĠO d
Ġset ups
Ġatt ended
Ġlog o
reed om
Ġdry ing
ES T
Ġ198 0
Ġur ging
] .
Ġs iblings
Ġc ran
ist ers
Ġinc on
ĠIn side
com pliance
math rm
Ġfluid s
Ġw ax
Ġd ies
ab led
Ġun employment
Ġback yard
Ġlib eral
Ġunch ecked
ĠGeorg ia
Ġenig matic
c ost
ter ed
Ġsh iny
Ġind ices
Ġtra pped
ater nal
Ġrem edies
pt oms
Ġemb ell
Ġbr imming
Ġdown s
Ġpat ron
Ġlog ging
ĠBusiness es
ĠNo tice
Ġcontrovers ies
enn ial
ĠArti ficial
ĠChe f
erge tic
is ible
ĠM ission
ĠK im
Ġprof essor
ĠY oga
Ġtravel er
Ġcal ming
Ġrespect fully
Ġpush ed
ĠĠĠĠĠĠĠĠ ĠĠĠĠĠĠĠĠ
ĠPr inc
Ġpul ling
P ublic
Ġa verages
ĠM ur
ĠR ule
ile y
ound ed
Ġtrans g
Ġinform al
Ġkey board
Ġret ro
ĠPersonal ization
Ġtransfer ring
Ġsusp ic
Ġaccum ulated
Ġdiagn ose
3 8
O ff
c ycle
ĠA R
ab eth
ĠF rid
Ġab oard
Ġme ats
ĠFor est
Ġtri angles
Ġsw apping
-------------------------------- --------------------
Ġdiagnos es
Ġpaper work
Ġexpend iture
ĠCarl os
G B
Ġt antal
am ine
Ġat ten
ĠCh apter
Ġconsider ably
Ġtw ink
ex isting
Ġdeb ugging
ĠDesign ed
Ġsuff ice
Ġpra ised
Inc orporating
h en
Ġf o
ĠL td
Ġeng rossed
ĠCh rome
ĠCom position
Ġ3 2
Ġcar ving
ron utri
Ġvers es
Ġrobust ness
Ġrad iant
Ġweak ness
Ġsimpl ified
Ġconfig uring
Ġpitch es
Ġcrisp y
Ġwra pped
Ġconfir med
c ap
Ġt une
Ġp ediatric
st orm
ĠI con
Ġtr acing
Ġreput ational
Ġwin emaking
Ġoverl apping
ĠMem ory
Ġpropor tions
Ġholid ays
Ġimbu ed
ul ti
ĠS ource
am ma
os ures
ĠP ressure
Ġres orts
Ġind ie
ĠG a
ry pt
Ġbl o
Ġsal ad
Ġ19 5
Ġsw ing
Ġmut ations
Ġaccel erate
Ġplug in
Ġg ospel
ĠS U
ĠF ox
Ġinter operability
Ġdevelopment al
ĠCl ara
Ġillum inated
ĠArti sts
ĠPur su
Ġdepos its
st akes
im eter
ĠA qu
ĠC oc
Ġint act
ĠF un
ell ular
ĠN u
ven ience
Ġactiv ated
Ġcar riers
Ġlif ting
Ġsymbol izing
ĠSing le
F ree
Ġp oured
Ġm eth
Ġl ender
us er
ĠM ill
ĠJ eff
Ġstud ios
Ġdown stream
hold er
az ed
Ġste ering
aun a
Ġprepar ations
Ġanticip ating
Ġdecre ases
Ġsubstit ute
Ġtranqu il
ĠBlu etooth
Ġsatell ite
â ģ
al m
Ġh ailing
Ġg el
ĠS aint
ay er
ĠF ashion
ĠN Y
Ġdes per
ĠAm b
ix ed
Ġrece ivers
Ġamb itions
char ted
Ġquan tif
Ġintang ible
Ġc ooks
Ġm os
Ġh at
Ġapp rais
Ġdisc oura
Ġtre ach
ultane ous
Ġeye brow
Ġcoord inated
Ġtrig onom
Ġaccum ulate
ĠHaw ai
} +
Ġd y
Ġh ack
Ġr ays
ĠA fford
ĠSt an
ĠFor d
Ġarg uing
Ġimmers ed
ĠDisc over
ĠAud io
Ġtrain ers
ĠCorpor ate
Ġgran ular
Ġdess ert
E E
P r
h ome
Ġg rocery
ĠT ry
ĠD ead
Ġph ones
fact ory
Ġworks pace
Ad v
Ġbott len
Ġrandom ly
align ed
Ġflo ors
Ġundergo es
Ġperpetu ate
Ġan onymous
ĠD ave
ry ption
Ġspec ulation
Ġsk ies
Ġshould ers
Ġabs ent
Ġdepth s
Ġdepend ent
Ġabsor bing
Ġsubmit ted
Ġking dom
G l
| |
in ance
Ġin ch
ri ve
Ġfac tions
Ġdeb ts
ĠAss ign
ĠAccording ly
ĠResearch ers
ĠNot able
Ġjud gments
Ġ197 0
M aterial
p ing
Ġt anks
an ical
ĠF itness
ĠL is
ular ly
fort un
ĠInt ellectual
Ġnich es
Ġ199 0
Ġgradu ation
ĠAppreci ation
r ine
Ġs ort
ĠA ward
Ġsc arcity
Ġso f
Ġbre wing
ĠAr c
Ġhead aches
Ġdemand ed
ĠMe eting
âĪ ļ
ĠCare fully
Ġpremium s
Ġtum ult
Ġexplor ations
Ġagend as
ĠWebs ite
Ġglim ps
Ġadren aline
D R
en ic
ĠS O
ĠS weet
Ġpos its
Ġmod eration
ĠCon st
Ġhand led
ĠRes istance
Ġlog arith
Ġimag inary
ĠPe ace
Ġdiagn osing
ĠCarol ina
ĠCryptocurr ency
T ech
d t
p ted
Ġd ressing
Ġh uge
Ġv oy
Ġpol ishing
St ay
ĠCo ffee
Ġanti que
Ġcounter act
Ġsus pect
Ġgrand mother
Ġband width
Ġpuzz led
Ġpredic ament
Ġfores ight
H is
U I
Ġf idelity
il ty
est inal
ĠSt ress
Ch ar
Ġminimal ist
Ġgar ments
Ġassign ing
Ġcoll isions
ĠEncourage ment
ĠRet urn
ĠForm ation
health y
Id entif
C F
ot on
Ġsc or
ĠJ ackson
Ġtrust y
Ġflow er
ĠProt ocol
ĠInstit utions
Ġastr onom
bru ary
h igh
Ġs elves
ĠTh anks
ĠAs h
te in
Ġemp ath
Ġnam ing
Ġclin ic
Ġpenet ration
ĠFlex ibility
Ġunav ailable
re land
Ġd omes
op her
ĠF ant
ĠD aily
ĠW ire
lic ted
Ġveget able
Ġnewcom ers
impro vement
ĠS at
ĠC ash
ain ted
Ġch ore
ass ed
Ġintern ships
Ġcommit tee
ĠRes olution
Ġconven tion
ĠPol ice
Ġcoin c
ĠJen kins
lia ment
ĠNAT O
h on
Â ³
ĠT ree
ĠP ed
Ġab uses
Ġdep osit
ĠCap abilities
Ġfluctu ating
ĠStrength ening
ĠiPh one
olester ol
Ġtumult uous
9 5
T S
o tics
in ant
Ġc asc
Ġl ighth
Ġpro ponents
ĠC ru
Ġv entilation
ĠB atter
um atic
ĠD E
Ġte lec
Ġver d
Ġadm iring
Ġmicro sc
Ġhes itation
ĠGovern ance
ĠVers ati
Ġvine gar
I ll
Ġc iting
le ase
om ed
ĠP ublish
enti eth
Ġspec im
ĠCon dition
ĠCol umb
iam i
unic ations
Ġdelay ed
Ġglimps es
N on
Ġo ste
oc ating
gh an
ĠF I
Ġhas h
ĠBl ood
Ġdecre asing
ĠSte ve
Ġsin cer
ĠVol unte
ĠÂ £
Ġpedagog ical
Ġtreach erous
& =
m ail
st al
Ġst adium
Ġbe e
Ġpre liminary
ry lic
Ġrec ons
Ġsub red
reat ment
Ġbeh alf
ĠRe ality
ĠComm ercial
ĠConsequ ences
Ġrecip roc
Ġcher ish
Ġisol ate
ĠDra w
Ġexped ition
Ġhypoth esis
Ġl oun
Ġg le
ĠS ir
ĠI R
iz abeth
ĠG all
Ġar senal
tain ed
Ġorgan ically
Ġcounter part
ĠTe aching
Ġadver tis
Ġfix es
Ġpun ch
ĠCompar ative
Ġtraum atic
Ġportray al
Ġdraf ting
t an
Ġen ergetic
ĠR ol
ĠTra ffic
Ġmer ge
Ġattribut e
ĠImpro ving
Ġdu plic
ĠAir bnb
col or
Ġlect ures
G u
Ġst opping
Ġsc outing
Ġent renched
ĠCons ulting
Ġtravel ed
Ġer up
ĠAfter ward
aff e
ĠChar acters
ĠGl ass
ĠParticip ate
Mon ths
ĠCount ry
h op
ic iting
ra q
ĠC ognitive
ib eration
Ġdisc ont
Ġsub optimal
Ġnation wide
Ġbreast feeding
Ġabandon ed
ĠHighl ighting
V R
ay a
ilt on
Ġsav oring
ĠAdv ance
ĠNet working
Ġsurv ive
ĠAssoci ated
ĠEqu ity
Ġvirus es
Ġattenti vely
ultin ational
c alled
at ology
ol ine
oc ate
ĠTh ai
ĠM erc
Ġtra ins
ĠJ oint
Ġgra pes
Ġstand alone
Ġcr unch
ĠHar ry
Ġsusp ense
izz es
Ġdecl ar
Ġfrustr ated
Ġwhims ical
i ar
Ġe tiquette
Ġh eter
ĠI reland
ep ti
ĠO cc
ĠG race
Ġsign atures
Ġconf ined
ick ed
sc ill
Ġnor th
Ġvent ured
Ġap olog
Ġnuc le
Ġrepeated ly
ĠCharl ie
ĠHen ry
y ers
Ġh ire
ac ular
ec king
im ents
ĠH air
ĠN eck
ĠHe at
Ġpros ec
ĠSu itable
Ġcompos ite
Ġ200 1
Ġdiges tion
Ġsanct uary
o ir
en ment
or i
Ġp H
Ġin quir
Ġd awn
Ġe cc
Ġl ends
ot ton
ĠP it
Ġle ap
ĠAl i
Ġintegr ations
Ġintegr ates
Ġsuper vis
Ġbig gest
Ġcream y
Ġspect acle
ĠPosition ing
Ġpron oun
O h
h ot
Ġt ense
ĠA P
ag ging
oc ative
ĠL ew
In sp
Ġcomb ustion
ger ies
Ġbroad ening
Ġsuper her
19 8
ĠSol ar
Ġfreed oms
Ġprivile ges
g overn
un ks
Ġdis k
ĠJ on
Ġpain ful
Ġcompl aints
Ġord ered
Ġconv iction
ĊĠĠĠĠ Ġ
Ġbeat en
Ġdys function
Ġparadig m
Ġcham ber
Ġar rays
Ġhapp ier
Ġsus pected
Ġhon ed
ĠCustom ization
ĠRob ust
-------------------------------------------- ---
Ġenzym es
Ġmultil ateral
Ġtraged y
Ġmetall ic
R OI
m ort
om ach
ir ds
ĠC in
Ġover he
Ġ$ |
ps y
Ġ3 6
Ġdev ising
ee k
Ġprevent ative
ĠBl og
Ġrelig ions
Ġcoop erative
prof its
ĠDev ices
Ġtor que
Ġgarner ed
Ġchap ters
A B
E s
Ġst akes
Ġr all
Ġy og
ĠB h
ĠG un
Ġexam ines
Ġvol can
Ġvalid ating
Ġillust ration
Ġfro zen
A G
l i
Ġp ests
ir ming
Ġopp ression
ĠRep e
Ġresol ved
Ġcyber c
Ġreus able
Insp ired
4 7
p ed
Ġt ar
oc ument
Ġint ensive
Ġpos ing
Ġcap ability
Ġeduc ated
Ġautom ating
Ġposition al
Ġeffort less
ĠFin ancing
Ġtraffic king
Ġgar age
Ġstim ulating
Ġrac ism
Ġhards hip
Ġw ard
ĠS ide
em ies
ĠP air
un ior
Ġno tifications
Ġafter market
Ġseek ers
Ġdistingu ishing
Ġrecycl ed
Ġscript ure
Ġ$$ \
ĠAdapt ation
Ġplain tiff
ĠPrim ary
D eterm
b iqu
ĠR ain
Ġser endip
ĠMar ian
onom ics
Ġconcer ts
Ġjud ges
ĠChar les
Ġdefe at
Ã ¤
en ers
Ġl ake
ĠM iami
Ġab r
Ġrem embering
Ġsub jective
erm an
Ġconstruc tively
Ġcultiv ation
Ġstat utes
Ġcr ash
ĠDif ferences
ĠHy per
Ġsad ness
Ġbrace let
B s
z ona
al d
it ably
Ġh ook
Ġre cess
ĠG roups
Ġdec imal
lu g
To k
On line
ches ter
Ġalb ums
Ġecho ing
ĠBow l
E d
v ised
ĠD onald
Ex per
Ġcat alog
ĠChallen ge
ĠFe bruary
Ġwhe at
ĠMich igan
Ġbackl ash
Ġcorrel ations
D epth
F C
U X
m ons
in th
Ġl es
Ġon ions
ag raph
ĠD utch
ĠO x
ĠO ak
Ġser ial
Ġacc us
yp e
Ġund es
Ġdesc riptive
Ġadvers ities
Ġsle e
Ġcos m
Ġterrit orial
Ġwrong do
ĠPort ug
Ġsti p
Ġhierarch ies
ĠList ening
Ġlap tops
ĠNig er
Ġrecons ider
M any
j oy
es tive
Ġsc ans
ĠV eter
Ġco atings
Ġ& =
Ġyear ning
ĠRe in
ĠComp atibility
Ġaltern ate
Ġcross ing
Ġtang y
ĠLibr ary
( '
d og
w ill
Ġp ie
Ġw ings
Ġn ick
Ġv otes
ĠI raq
ud s
ĠR ules
Ġpar ental
Ġsp orting
Ġrel ie
Ġsec urities
Ġpower house
ram ing
Ġprepar es
lo or
Ġattr action
Ġunf air
Ġfer mentation
ĠContinu ously
Ġneglig ence
O P
Ġ ...,
Ġo ak
Ġw it
ol ly
Ġr ust
ĠC ream
ĠD C
ĠR a
Ġsupp lier
Ġwar rants
Ġdemoc racies
ĠFe aturing
Ġelim inates
Ġmembr ane
E duc
Ġ ---
Ġt ed
Ġt ires
Ġs orting
Ġf ont
ĠS ab
ĠS ubs
Ġbe ars
ĠH om
Ġcl icks
Ġinf amous
Ġdeep ens
Ġclass ics
Ġdest roy
Ġguarant eed
Ġbright ness
Ġquiet ly
ĠAutom ated
Ġethnic ity
ĠCompe tition
+ +
ĠS em
Ġreal ism
Ġdev iation
ĠTra in
Ġanim ated
ĠâĪ Ī
Ġunt reated
ĠCampaign s
Ġpix el
Ġoutf it
Ġbottlen ecks
fortun ate
e z
Ġ ion
ĠA B
ĠS ources
ĠC rime
ĠE g
ĠW aste
Ġcl uster
Ġunder graduate
Ġsome what
Ġsub str
Ġimpro vis
Ġbra ins
Ġbound s
Ġwar nings
sh aped
Im plications
Ġsqu ee
right arrow
Ġrecommend ation
Ġi OS
C are
R ep
S M
es thes
Ġp ork
il er
ĠS ong
Ġit erative
ĠB ot
Ġres ting
ist ent
ple x
Ġreg ain
Ġdel iberation
ĠAr tistic
Ġhar assment
ĠCo aching
Ġreson ating
Ġovers had
tt p
Ġthrow ing
Ġbuck et
Mod ern
Ġrum ors
ro be
ĠC a
ĠH un
Ġins ect
ĠJ oy
ock ets
ĠRes pond
Ġplace ments
Ġfant as
ĠRequ est
Less on
" ),
V A
g iving
o op
al o
Ġp acking
Ġf ame
Ġw are
ec tic
Ġl ined
id ates
ĠB on
Ġres ident
Ġinter rup
Ġremain der
Ġsal aries
ĠTra ditionally
Ġregim e
Ġcerem ony
\ [
Ġtr act
Ġconf using
Ġhuman itarian
Ġpath ogens
Ġinstruc tor
ĠCompar ing
Ġroll s
* ,
- ,
l ists
er ness
ti bles
Ġy ards
tic les
ĠH ost
Ġall oys
Ġexc els
Ġz inc
in ators
Ġst aring
Ġres ides
Ġbet ray
be h
Ġcirc uits
Ġrev ised
Ġtac tile
Ġawa its
ĠSales force
ĠEnt reprene
A rt
Ġb ree
Ġl acks
Ġun charted
ĠG h
Ġtrans porting
ĠAn imal
Ġmar itime
Ġrece iver
ĠLe o
Ġpiv ot
Ġcoll ision
ĠCap tain
Ġfrustr ating
Ġchampion ing
ĠSund ay
D on
il ies
ĠB C
Ġat oms
Ġj aw
Ġass emb
ov a
ĠAs k
ĠCon tr
ĠDe ath
Ġspecific s
Ġheav ier
ĠDi plom
Ġpure ly
}^ {\
Ġassum ed
Ġspher es
ĠI ce
ĠP ier
Ġsp inning
Ġ$ (\
Ġair port
Ġexhib iting
Ġhop ed
Ġnotice able
Ġpromp ted
Ġpolynomial s
ĠNFT s
ĠAri zona
e ous
p y
Ġd ip
Ġto ss
il st
her ing
Ġdisc ounted
Ġsim ultaneous
Ġsupp osed
Ġcommon place
Ġdon ations
Ġsatisf ies
ĠIs a
ĠHist orically
Ġawa ited
inet eenth
cuss ions
Jam ie
$ ;
Ġp ause
Ġh ass
Ġh otsp
Ġu biqu
Ġst ag
Ġr ally
Ġen ergies
ĠP ra
ĠB iden
ĠE lement
Ġun fortunate
Ġop tical
Ġenc oding
Ġgl am
St ud
ins pired
Ġdirect ories
Ġflow ing
ĠSupp ly
Ġpal ate
Ġbirth day
ĠPrem ium
) **
3 1
H L
l ock
Ġt on
Ġs ip
Ġl ymph
ĠT ouch
Ġwh ilst
us al
ag an
ĠM ade
ĠM ode
ĠE ll
Ġsh elves
Ġso ap
ak a
ession al
Ġtyp ography
Ġperson as
Ġsn aps
Ġcher ishing
Ġpoll ut
Ġattach ments
ĠReview s
Ġcha otic
Ġtow er
---------------------------- -
Ġleisure ly
ĠSqu are
Ġpasseng er
Analy ze
Ġp ocket
ec tivity
Ġst olen
os ke
pl ess
Ġat op
ĠG ro
Ġrec l
Ġfl ights
Ġdivers ification
Ġeth os
Ġhard ness
Ġfar ms
Ġdom inated
Ġpublish ers
Ġsell er
Comm unity
Ġwholes ome
Ġdisciples hip
c ode
Ġs ail
ac tional
ul ators
ĠC E
Ġsh elf
Ġup wards
Ġsur geries
ĠPro of
Ġclass mates
Ġadm ission
Ġfaith ful
Ġcraft ers
Ġâī ¤
Ġcorrespond ence
h ard
h ears
w atch
in ical
om ics
Ġst omach
ĠR avi
Ġdo ve
Ġbr ut
Ġbar g
Ġunivers ally
Ġmel ting
Ġfab rics
Ind eed
ĠRepublic an
Ġasym met
Ġbare ly
U ser
Ġt ens
ent er
Ġr amp
Ġex pecting
ra tives
ĠG ender
Ġinv ention
Ġacc ent
Ġall iance
ĠTra ding
ĠOr th
Ġsing er
Ġrest orative
Ġinher it
Ġtable t
Ġrepe ating
bu ilt
ĠMin i
Ġrever ed
Ġimplic it
Ġancest ors
G D
o ples
t urn
ing les
Ġst ub
ĠP HP
ĠR ange
Ġcontin ents
Ġtyp ing
Ġdev iations
Ġreput ations
Ġimpl ants
Ġvoc als
ĠMast ery
Ġpanor amic
O ps
Ġc ere
Ġw anting
Ġd erm
pp ings
ĠM atter
Ġform ative
Ġprot est
Ġidentif ies
Ġbi och
Ġmis comm
ĠPres ence
Ġdiagnos tics
ĠEl izabeth
ĠDiffer enti
ĠBase ball
ĠScal ability
ĠTow ards
o tions
ĠP M
Ġup s
Ġcommit tees
Ġ19 60
umb ling
Ġcompet ency
Ġpractical ity
âĤ Ģ
Ġrecon n
Ġtum ors
Ġtrigger ed
H T
^ {\
er ator
Ġp orts
ver t
ĠS AP
ĠC her
our met
ĠR ing
ĠL em
ĠRes ort
Ġunex pl
Ġsubs ets
Ġmarvel s
Ġedit or
Ġorth odon
ĠRecommend ations
Ġdomes tically
H z
ic ulture
Ġcon ditional
em ics
ud i
end o
Ġgra vit
Ġnon zero
Ġadjust ed
ructure d
ĠSpirit ual
Ġupl ifting
ĠAcad emic
Ġtransmit ted
Ġul tra
Ġaccl aimed
ĠOw l
Ġt ie
Ġen emy
op ath
ĠF reedom
Ġoff shore
Ġaff inity
ĠInd ic
Ġmanufact ure
Ġvari ability
Ġtouch ed
Ġamb assad
ĠVis it
Ġsou thern
ĠProm otion
Ġbed rooms
roph ys
bur se
Implement ing
C ap
Ġc ust
Ġc rit
Ġm ultinational
Ġpro jected
Ġdig its
Ġver b
med ic
Ġwatch making
Ġmist rust
ĠâĪ ļ
ĠSpecial ized
minded ness
Ġexpon entially
bor ne
Ġretrie val
ĠTik Tok
P ower
p ati
Ã §
Ġr ansom
Ġv ign
Ġimp ress
Ġsm iles
ĠAl gorith
Ġcor on
Ġlog os
Ġmatter ed
Ġpolicym aking
Ġelic it
Ġreposit ories
Ġneat ly
M ed
P roduc
p op
r ints
Ġs outh
Ġf auna
Ġun m
Ġmid field
ĠLim it
Ġclust ers
ĠCoop eration
Ġcarbohyd rates
Ġp ounds
Ġex er
ĠT ommy
ĠR ose
Ġtrans national
ĠCh anging
Ġplan ets
Ġphys ician
Ġnon verbal
Ġfre el
rain ian
Ġpursu ed
Ġport ability
Ġcogn ition
Ġpair ings
He alth
Ġdecl ared
Ġdiag onal
N E
} }\
Ġh ung
em at
Ġch ew
ĠO k
ĠV oice
ĠEn forcement
ĠAc quis
rep resent
Ġgreat ness
Ġcand y
Ġnur se
Ġland mark
ĠUS A
Collabor ation
Ġunderpin nings
B O
f its
w an
Ġb ab
Ġh anging
el a
Ġinv isible
aw a
ili ans
20 18
ĠCommun icate
Ġexist ential
ĠDet ailed
I R
v et
Ã ±
ĠH ab
Ġrec k
Ġwr ist
Ġpred is
Ġattemp ted
Ġche er
Ġhun ger
ĠHT TP
ĠNutri tion
Ġpix els
Mus ic
at ories
th ood
ra id
ĠC ro
ĠJ r
ĠK it
Ġbeh ave
Ġsupp ress
Ġrun time
Ġsl ip
Ġsyn ergies
Ġaesthe tically
Ġcool er
Ġuniform ly
ĠFind ings
Ġbak ery
I G
Ġproduc er
Ġprocess ors
ĠAn atomy
ĠCont rovers
Ġanim ations
Ġelect rom
ĠRen ew
Ġelastic ity
ĠBrit ain
H aving
ti ps
ĠC F
ĠR ot
ĠR ates
Ġco h
Ġlay ering
Ġarch itects
man n
Ġapart ments
Ġdiss atisfaction
------------ ---
Ġupgra ding
ĠDiv ide
Ġorigin ality
Rec ent
Ġmultipl ied
Ġsod ium
D s
p ython
Ġin ception
Ġr aces
Ġsp raw
Ġro d
Ġk et
be an
Ġmis leading
Ġrelax ed
ont ally
ĠAutom ation
Ġaficion ados
E G
G e
Ġp ile
Ġto t
im pl
ri ties
ĠB ab
ost on
arm a
Ġdemonstr ations
ix el
Ġdeb ilitating
Ġcultiv ated
ĠX ML
Ġcelebr ity
Ġsequ encing
Ġarom atic
ĠIr ish
fund ing
p ress
es es
Ġf allen
Ġf erv
Ġn erves
ĠS ara
ĠM and
ĠInst ruc
Ġrestr ict
Ġcatch y
Ġreplic ate
ĠGal axy
Ġbes ide
D i
M R
Ġp aved
Ġv ice
ĠG round
Ġreg ret
ĠJ ean
Ġmo tions
Ġdist ancing
Ġ= >
ĠYou th
Ġlever ages
ĠRo lex
Ġhesit antly
Ġvan illa
Analy zing
Ġtong ue
Ġimagin ative
U s
i y
Ġp up
Ġpres erves
Ġprof essions
Ġvers e
ĠRec ruit
Ġabs urd
pe aking
ĠFound ations
Ġspons ors
Ġcounsel ors
Ġhorm onal
Ġtemp ting
Del ta
ĠAlign ing
medic ine
L ook
Y Z
x iety
ag netic
Ġsc ored
Ġsc ams
Ġsc rap
Ġdec lining
Ġrequ esting
ĠBut ter
ĠĠĠĠ ĠĠĠ
Ġproced ural
ĠNor thern
Ġassist ants
ĠCost s
Ġbatt ling
Ġglow ing
H ar
L ist
on ics
Ġb ip
Ġre cep
Ġch olesterol
ap ore
pec c
Ġbl ended
aw are
Ġshare holders
Ġsym p
Ġsw elling
Ġwr ink
Ġauthor ization
Ġunexpected ly
Ġansw ered
Ġwel ding
Ġrhyth mic
ĠEd ge
ĠRest aur
Ġhierarch ical
Ġtough ness
Ġpresc ription
ĠSymb olism
F orm
Ġm oneti
Ġar row
Ġout right
Ġwhere ver
Ġprot ects
Ġbeg un
Ġarch ae
ĠSw iss
Ġmand ates
pre ting
Ġdimin ishing
ĠColor ado
Ġenlight ening
ĠAnticip ating
Ġcomfor ting
ĠProced ures
F igure
y our
Ġt ube
Ġp ub
le ys
ĠF ar
Ġtr aces
Ġconc oc
Ġdeath s
ĠVer ify
writ ten
Ġsho ppers
Ġse aling
Ġdec k
ty p
ern ame
Ġlong time
Ġtrust ing
ĠCl aim
Ġrece ip
Ġz oning
ĠZ oom
sh ine
ĠReduc tion
ĠPhot ography
Ġconsol idation
I L
S pec
S uddenly
w all
an ium
ĠP and
iti ves
Ġpr erequisites
Ġma kers
app ropriate
Ġcultiv ates
Ġarr est
Ġhor ology
ĠElectr onic
Ġrestric ting
ĠCy ber
Ġchampions hip
Ġmerc y
ĠVehic le
Ġitiner ary
ĠDat ab
$ ).
F act
M in
p m
ĠP in
ĠH osting
Ġpar as
ĠG as
In trigued
Ġsc ent
ĠK n
Ġplay ground
ĠUn packing
Ġconf used
Ġent ers
Ġvill agers
Ġvict orious
Ġastr onomy
ĠNur turing
ĠDiam ond
4 9
p ur
om as
Ġst umble
Ġun ve
Ġtr ucks
ass es
Ġk ern
Ġinv itation
ĠSt ock
ĠSt yles
Ġpe ppers
Ġide ally
ush ing
Ġharm less
Ġharm onic
Ġpred ecess
Ġwarrant y
Ġble eding
Ġgro oming
Ġdiges tive
ĠHor iz
Ġjewel ers
Ġoxid ative
Intern ational
$ ),
p end
x i
ic tive
ab ling
Ġins urers
Ġinf ographics
Ġemb arr
Ġdeterm inants
Ġmanufact ured
Ġfellow ship
ĠImpro ve
ĠLaw s
Ġvacc ination
ĠGra de
Ġchat b
ĠStruct ures
Ġhass le
V C
b in
Ġh aunting
im e
Ġr arity
ĠB ooks
Ġim pecc
ĠD ed
Ġsoc i
Ġincre mental
Ġgl oves
Ġbra ke
Ġtal ks
ĠSc ott
Ġbudget ing
ĠOrgan ize
Ġbelong ings
ĠMo tiv
ĠQue en
Ġspont aneous
heim er
a o
Ġw ast
ĠS ac
ust en
Ġdisc ourage
Ġass ert
res olution
Ġ$ [
Ġcomb ating
Ġspecial ty
Ġsw ir
ĠRem ote
Ġouts ourcing
Ġdark er
Ġaccomp any
ĠSym ptoms
Ġbrush ing
Ġcyl ind
im ited
ĠM ilitary
ĠF C
ip es
Ġop ted
ĠCh ronic
Ġwhere by
ĠRes erve
Ġpred iction
Ġpossess ed
ĠSk ill
Ġsn acks
Ġhoriz ontally
Ġpleas ant
Ġreper cussions
g one
Ġp acks
Ġre evalu
ĠS atur
ĠF em
ĠF ive
Ġeduc ate
ĠAf ghan
yl lic
Ġaccel erated
Ġinduc ed
Ġinstill s
m id
Ġst ats
ĠP i
he ets
Ġph osph
Ġpres erved
Ġmean while
ĠPl ant
int uitive
Ġinspir es
Ġdish ear
Ġrevolution izing
Ġcurve ball
Ġdin ers
Ġmanifest ations
Ġlod ging
or ating
Ġp iano
Ġcon d
ĠC rucial
Ġbe verage
Ġres erve
ĠF u
se e
Ġinvestig ative
Ġexhib itions
Ġmarg in
Ġpitch er
ID S
Ġforec ast
ĠTem perature
Ġunden iable
ĠTh ings
Ġbe ats
ĠB ad
ĠB ure
ĠB oston
ill ary
ĠH ad
ĠG ap
ian a
Ġbro ker
Ġunc lear
ĠPay ment
ĠPartners hip
Ġhorm one
Market ing
Ġsubscrib ers
Ġbless ings
kn it
P olitical
Ġm otors
ec d
ĠS ave
ĠI gn
ĠE C
ĠL at
ib les
Ġsp am
Ġdo ts
Ġfl oral
Ġclear ance
Ġorig inated
ĠMe et
Ġovers eas
Ġquir ks
Ġnour ishing
ĠInspir ation
a ft
in oids
Ġs orts
ĠA y
ĠF lu
Ġass ault
ĠV in
Ġintern ally
Ġgre ens
Ġspecial ist
ĠRec ord
Ġcrow n
Ġresid ue
Ġadminister ing
Ġprejud ice
b ul
z el
Ġh ust
ĠA part
ĠR ab
ens orship
Ġqu izzes
Ġdec om
Ġsl ide
Ġaccel erating
ĠDiv ision
Ġturb ulent
ĠEmp ire
Ġsatur ated
c lick
h uman
k ay
Ġd Ã©
Ġl anes
Ġde ple
Ġad ept
Ġsh ame
Ġinv asion
Ġ2 9
Ġskill fully
Th ough
Ġmath ematically
Ġintr usion
Ġsleep ing
Ġinequ ities
Ġparad ise
Ġsubstit ution
Ġwra pping
Ġpermit ting
Ġstrand s
6 7
D etermined
g rown
ti les
Ġn ose
am in
ĠD omestic
Ġunderstand ings
Ġcra w
ĠRec all
Ġmatch ups
bu ild
Ġhyd raulic
ĠCultiv ate
ĠPati ents
Ġquart ers
K e
Ġc racks
Ġo scill
Ġf ounder
et ti
Ġy ard
Ġpre y
Ġdet ected
Ġsm arter
Ġret ros
Ġevalu ated
Ġdiv orce
Ġenthusi astically
Ġlever aged
ĠLe on
Ġlater al
ĠAdapt ability
Ġacous tic
O M
P e
d iv
ers ey
Ġpro c
ch er
Ġapp ointed
ĠL ack
Ġdis ad
ob ic
ĠV ac
ron es
ĠAt tor
Ġver tically
20 17
Ġvig or
Ġpoor ly
Ġuncover ed
ĠPresent ation
ĠCrypt o
Ġreti red
d ep
m ain
if fer
ĠF A
Ġapp arel
Ġturn around
Ġste aming
ĠInt roduce
Ġlower ing
Ġelev ates
Ġcr ust
Ġestim ation
roph y
ĠViol ence
Cho osing
ĠMinist ry
ĠEg yp
) :**
) =\
P oint
m es
on tal
om ical
ĠP age
Ġch lor
ch ild
ans as
Ġdis till
Ġsp ice
Ġrec tify
Ġso y
Ġinf ected
ĠEx ecutive
Ġid yllic
20 19
Ġoverl ap
eles c
Over all
Ġupl oad
ĠSing apore
ĠUnivers al
ĠOffic er
e fficacy
Ġe ast
Ġl ining
ĠB at
ch o
rac tice
ament als
Ġtrade offs
brid ge
ĠTur k
ĠIncl uding
Ġstub born
D C
f illed
p aces
r h
r ality
ent ing
Ġre un
ĠT ony
ĠA wards
ab s
ĠS ex
ĠB ell
âĢ ľ
Ġpar agraph
Ġass isting
ĠEx posure
Ġstra w
ĠCan nab
Ġpul s
tw o
ĠMc C
Ġeater ies
Ġtantal izing
Ġstag gering
f ile
Ġ ÏĢ
Ġd ad
Ġh ang
ĠP assion
Ġch asing
Ġse es
Ġ6 5
Ġ200 2
Ġadvantage ous
ĠInves ting
Ġpenal ty
ĠDri ving
Ġcorrec tive
Ġrul ing
Ġpolar ization
Ġimplic ated
C R
d ro
Ġt ribute
es ium
ĠS ounds
iz ability
od ed
Ġdes erving
Ġrem n
Ġeduc ating
Ġpolic ing
Ġ4 00
ĠOrgan izational
ĠDeb ates
Ġunfold s
ĠComple te
Ġkine tic
Ġex clusion
ĠT ru
Ġcl auses
Ġang ular
Ġenrich ed
ĠCustom ers
Em ily
Ġnerv ously
ĠSus p
Custom er
ais y
Ġwithdraw al
M ark
f oot
el and
Ġen emies
ĠM as
ill ion
Ġsol iciting
ĠReg ister
Ġcounter intuitive
Ac tivity
Ġstyl istic
Ġmultic ultural
ro ir
Ġr iders
ĠC uis
fer red
Ġman usc
Ġsp a
ack et
Ġcar ve
ĠCl ients
Ġfra ught
ĠCho ices
Ġelim ination
Ġceleb rities
Ġrush ed
Ġinhib itors
Ġtab s
H E
Ġt id
Ġl ays
ĠS olving
ĠH ope
ĠL ighting
ĠCh icken
Ġplan ners
cept ance
Ġfeed s
zz le
Ġdepend able
Ġcalend ars
Ġmusc ular
Ġmacro economic
keep ers
Ġsupre me
Ġenroll ment
V arious
f il
Ġs izing
ar o
ĠC ounter
ĠC lick
Ġsub missions
Ġmet eor
ĠRe lev
Ġphys iology
Ġcal ories
Ġver tex
pri v
sc ape
Ġten acity
Ġfresh ly
Ġexcess ively
Ġcheck ups
Ġinflamm atory
Ġbath room
Ġillust rative
Ġkid ney
ĠIll ustr
Ġconfir ming
Ġtravers ing
ĠFant asy
4 2
s pring
ĠP il
ĠR omans
ĠEx ternal
Ġ3 1
ĠCl ient
ump ing
Ġterm inal
Ġmotiv ate
âĪ Ĥ
bre w
Ġple ase
Ġuns ung
Ġlaugh ed
ĠNar ratives
ĠPhil osoph
Ġt asting
Ġth ro
Ġl amp
ul se
Ġst amps
ĠS SL
Ġen tit
Ġres in
Ġstr anger
Ġprofound ly
Ġcos mic
tra ditional
Ġce ment
Ġgast ro
Ġplag uing
o z
it us
Ġw rap
ic ular
ĠC ra
ĠC art
ĠP enn
ĠD ance
Ġun inter
ĠL iver
Ġpar ab
Ġspirit ually
Ġden om
ĠBar cel
ĠExc ell
Ġmand ate
Ġearth y
Ġfram ing
Ġpump kin
ĠSkin care
Ġprud ent
ing ual
om atic
Ġre hears
ĠA k
ag h
ĠO ly
ĠG ive
Ġsp ray
ak h
yn c
Ġann ivers
Ġdur ations
Ġvac ations
Ġpoly mer
ĠUk rainian
Ġcontam inants
Ġâī Ī
Ġber ries
U N
p ersonal
Ġd ent
od ium
av irus
Ġprocess or
ush i
Ġobs ession
int ensive
Ġvo ila
esty le
Ġciv ilians
pe er
ĠOrgan ic
ils on
Ġboost s
Ġveget ation
ĠâĪ Ĵ
Ġstic king
ĠInvestig ating
ĠAdop tion
Ġedit ors
Ġasym pt
Supp ose
ĠLad y
Ġinstil ling
c ount
ĠP D
Ġinf o
ĠCons titution
ĠCol lective
ĠOver all
play ing
Ġport al
Ġwis er
Ġinstru mentation
Ġfire arms
Ġcertific ate
ĠOrig inal
Ġhyper t
Ġhorm ones
ĠLiter ature
Ġkil ometers
ĠFore ign
Ġfortun ate
Ġp ads
ent ric
ĠC reat
ĠD ry
Ġunder ground
Ġoff enders
Ġprog n
aus ible
Ġintegr als
rim ination
Ġpun k
Ġcuis ines
Ġfav oring
B est
P F
b um
Ġc ure
Ġcon dens
ĠB ella
op en
ens ing
Ġj elly
Ġover ly
Ġam ino
ia tive
Ġhas ht
cent ury
Ġcorpor ation
ĠOut comes
usten ance
4 6
in atory
Ġl ying
ag ne
Ġis lands
Ġun res
Ġsp icy
Ġ- >
Ġconf essed
ĠHe aling
Ġpo em
ĠCont in
int egr
Ġheart y
Ġweak ened
Ġarom as
Ġrestric tive
ĠDynam ic
Ġtub es
Ġreserv ations
ĠJac ob
Ġredef ine
Ġlabyrinth ine
oske letal
ĠBure au
F l
p an
Ġt amper
ar p
ĠP PC
iti v
iv a
Ġtra verse
Ġdivers ifying
Ġcar amel
Ġcra ve
Ġpsych o
19 7
Ġconfig ure
urg ence
ĠMax imizing
ĠEmpower ing
Ġabsol utely
Ġpip eline
Ġdestruc tive
Ġtransmit ting
C L
f ires
j o
Ġs ustenance
st ro
ĠF ront
ĠN ick
Ġro oft
Ġregard ed
ĠMan chester
ĠMay or
Ġprob ably
ĠOb ama
Ġfix ing
rid ge
Ġjournal ist
ĠRo om
ĠMath ematically
Ġdiver gent
Ġeluc idate
Ġreposit ory
Ġchirop ractic
Ġaccus ations
3 00
T echn
v ic
Ġt uition
er os
Ġm ascul
st ud
Ġch ip
un ny
ĠSt age
ĠAm endment
au x
Ġthought fulness
Ġget away
Ġstri ps
Ġcred ible
Ġbreak down
ĠSk illed
ĠContext ual
Ġbul bs
ĠFund amentals
ĠReduc ing
Ġpip elines
Ġturb ines
ĠEs tim
ĠReput ation
c uts
f u
s l
Ġc ram
Ġp uts
Ġw ars
Ġch ron
ĠR achel
Ġimp urities
ĠCom fort
Ġatt acking
Ġcar rier
Ġsl opes
ĠResearch ing
Ġprem ises
Ġharmon ies
ĠFamiliar izing
ĠDet ails
Ġspl endor
Ġagend a
---| ---|
Ġmos qu
^ (-
} (\
ĠS ix
Ġan th
ĠR ay
Ġdis reg
Ġwork loads
Ġpe oples
ĠInd ones
Ġsw im
Ġmarvel ing
Ġpra g
Ġadvis or
nam on
Ġsculpt ures
Ġscar ce
Ġplas tics
unct ure
Ġperipher al
N ot
ĠC ut
ĠD id
ĠR AM
ĠW ould
Ġse lective
Ġpar tition
Ġcomm uting
ĠJ ess
cl usive
Ġobs c
Ġhar bor
Ġwarm er
ĠLead ers
ĠCur iosity
Ġsurge ons
Ġmetaph or
Ġneur ons
E nd
p ost
Ġa ver
ol k
Ġconc urrent
Ġsens ibilities
sc enes
ĠTrans it
Ġgrand eur
Ġresid ency
neg ative
Ġn ineteenth
Ġorig inating
Ġwa ited
sc ience
Ġunders erved
âĪ ŀ
Ġintersection ality
= (
m ax
Ġf estive
ĠC opy
ĠI SO
St art
Ġadm ire
ĠUs age
ĠLeg is
Ġlisten er
ĠProm ote
Ġyouth ful
Ġju icy
Ġcalm ly
------------------------ ---
Ġshel ters
ĠSit uated
ĠInterpret ation
N ET
O D
le vant
Ġto ll
if ier
Ġtrans actional
Ġdist ortion
Ġmet rop
Ġaut onomous
Ġextract ed
Ġadvent urers
Ġrev amp
Ġstandard ization
Ġdisapp ear
ĠÎ ¸
Ġconvey ed
Ġbill ions
Ġunfold ed
SO N
itz er
Ġjourn als
ogene ous
ĠOh io
ĠBarcel ona
' :
D ays
y t
Ġc ob
Ġpl ots
ĠFor ms
Ġav oc
Ġten ants
Ġsymbol izes
ĠEnter prise
ĠMo z
ĠLo an
Ġaffili ations
Ġprecip itation
B oth
G C
N As
R s
r ence
Ġf ond
ĠA M
Ġsh r
Ġsc ram
Ġrequ is
Ġtop ical
Ġdim ensional
Be ing
Ã© s
urch ase
Ġevol ves
Ġdisrup ted
ĠâĪ «
Ġech oes
ĠIde as
nam ely
Ġmusc ul
Ġcit rus
d istance
Ġb illing
Ġh emp
ĠW ond
Ġcons erving
ĠN umbers
Ġvar iance
res istant
Ġmarket places
Ġconst ants
ĠCent re
Ġrevel ations
Ġsen iors
__ __
ĠRad io
Ġwarran ties
Ġs ulf
Ġinc umb
Ġrel atives
rac le
Ġcap tures
Ġdeliver ies
Ġcurr ents
ret t
Ġobjec tivity
Ġhope ful
Ġpal ettes
Ġcardi ac
ĠAuthor ity
Ġdecipher ing
Ġpollut ants
^ -
l ay
r ational
es ian
Ġc otton
Ġw aking
ĠM ob
ĠE RP
vel ength
Ġ( (
ĠW W
Ġgener ators
Ġhead ing
Ġurban ization
Ġtast y
Ġperm ut
Ġast ute
Ġcub ic
S earch
h eld
Ġd ose
ĠC itiz
ch ains
Ġad ul
ĠG ospel
ear ted
se ud
rib ing
---------------- ---
Ġgra y
ĠComm and
Ġcomput ed
ĠRem ain
ĠDis orders
ĠDec isions
Ġtransc ended
ĠBel ow
En c
Ġdiag rams
oler ance
Ġspraw ling
ĠCuis ine
$ -
H elp
Ġ âĤ
ĠC row
ĠM ut
od ic
ĠD im
ĠD eg
ĠR ail
Ġro asted
Ġdem ean
Ġess ays
oss ing
Ġer ad
lear ning
Ġdecor ations
Ġpond er
Ġfinger tips
Ġcanc ellation
ĠAtl antic
ĠMean ing
P ost
s igma
re ls
ur er
Ġg ram
Ġg ourmet
oc ated
pl ication
ĠR oot
ĠH ands
âĢ ĭ
arm ac
Ġbre eds
Ġbre eding
atis factory
read ing
ĠPar ad
ring ing
ĠDel ta
Mat thew
ĠRelev ance
6 8
C urious
u v
Ġ --
Ġf ool
ag g
Ġac rylic
ens ely
Ġtra dem
cl ock
Ġsolid ified
Ġvari ant
ĠInter face
Ġexpert ly
Ġske w
Ġsan itation
Ġconqu er
Ġgadget s
ophys iology
hon ored
Ġfantas tical
S E
a ut
o en
in ting
th an
Ġal pha
Ġan tig
ĠB orn
ies t
ĠE ager
ĠF ine
Ġcomm ut
Ġind oors
ph ant
Ġexp ort
Ġperform s
erv ical
Ġstress ful
Ġexplain s
ĠUtil ization
Ġmel an
ĠGu ard
Ġwash ed
ĠBrid ge
Ġinnoc uous
ĠLevel s
Ġdefici encies
in duc
Ġs ine
ĠT an
ĠT rou
ĠC ou
ĠM oving
ĠE ye
ĠF all
ens ic
Ġind icated
Ġev ac
Ġexam s
Ġco herence
Ġgu ilty
ĠAn t
ĠCommun ications
ĠHealth y
Ġcr ashes
ĠDoc tor
Ġiter atively
Ġantib odies
Ġflood ing
Ġrefuge es
ĠScot land
ĠWebs ites
Ġhust le
itiv ities
d ig
Ġo v
ĠC raft
ĠB or
Ġsh ores
Ġsh ocking
Ġfe ver
Ġsol ved
con st
Ġtop ology
ik a
ĠTechn ique
ĠBu ff
ĠX YZ
Ġscreen ings
Ġgrand father
uls ion
Ġsubred dit
mort ar
ar on
Ġex agger
un ed
Ġsh or
ĠF iction
ĠSt akehold
ĠV acc
Ġsuccess ive
ilar ious
Ġlay ered
ĠMe ets
ĠTravel ing
Ġencaps ulate
Ġunden iably
rat ulations
Ġprioritiz es
Ġrequis ite
G s
^ \
in se
ess ing
im port
ĠR T
ĠR yan
end ering
Ġsp ell
Ġimm ensely
edi ation
ĠPres ervation
fl ies
ĠMal ays
Ġupl ift
ĠList en
Ġresur rection
ĠFrid ay
_ {\
Ġh ood
ess ential
ĠC auses
ri ving
ĠR oll
Ġrel ational
Ġ$ {\
ĠY ellow
Ġaccess ed
Ġlong ing
Ġliv elihood
Ġhand ed
Ġcharacter ization
ĠCar bon
Ġdiss ip
ĠNeg ative
Ġtriv ia
Ġjudicious ly
Ġtarn ish
Ġengra ving
} -
on to
ce ans
ĠR unning
ĠH o
Ġrec overing
Ġdec eption
vers ion
Ġcur b
Ġautom obile
Ġcamp ing
ĠPh ase
Ġtext book
cle ar
ĠCar ib
Ġtransfer able
Ġathle ticism
Ġhesit ant
Ġillum ination
Ġoccup ants
Ġprotagon ists
------------------------------------ -
Ġstro kes
Ġdash board
Ġprejud ices
Ġwhit ening
typ ically
d ays
Ġe B
ĠTh ail
Ġun equ
Ġdec ides
Ġsub c
Ġmed ian
Ġperform er
ĠComp ared
ĠÎ ±
ĠAre as
Ġcoast line
Ġpromin ence
Ġprototyp ing
Ġlighth earted
Ġremn ants
ĠOly mp
Ġd ol
Ġm aternal
uc lear
ad el
ist ence
ĠR og
Ġpr iced
Ġinter iors
Ġper vasive
Ġbet ting
ak i
ĠAr range
ĠAc know
ĠAss istance
Ġwealth y
ĠGrow ing
Cre ate
ĠAnn ual
Mar ia
Ġpil ot
Ġgle aming
G M
P res
[ (
k ward
r ors
z zing
z heimer
ar se
id ge
Ġr us
ĠT ai
ab el
ĠB oy
Ġde hyd
ere al
Ġdis pens
Ġdisc arded
Ġback ward
ĠApp eal
ĠStud ying
lim its
Ġclar ification
ĠComb ine
rupt cy
Rec ogn
Ġportray als
Ġrival ry
Ġeluc idating
writ er
ĠVictor ian
O ut
o ter
w a
Ġp y
im b
ir ts
Ġen act
ĠP od
Ġcomp ress
ĠD ocker
ĠH an
In f
Ġchan ger
Ġvision ary
Ġabsor bed
ĠGovern ments
ĠSou theast
Ġpenet rate
E ar
f riend
p roduction
v re
Ġf isher
Ġb ought
Ġpro state
Ġsu ites
ĠG one
Ġsec ular
Ġmulti player
Ġend ure
ĠMar c
Ġcompos ers
Ġofficial ly
Ġesc ap
ĠGovern or
Ġbow ls
Ġspons orship
ĠObs erve
Ġwarran ting
0 1
r ats
Ġw re
Ġw asted
is tible
ĠT am
enti a
Ġse lec
ĠL ed
ĠJ osh
Ġref lex
Ġright eous
ĠZ ero
Ġvibr ations
Ġenrich ment
Ġhom elessness
ĠDem and
ĠCur ric
ĠAir port
ĠOrig in
Ġpione ers
Ġplas ma
Fin ancial
b its
i ot
Ġthe atre
Ġw ires
id ency
ĠC oh
ri ous
ĠP ut
are t
we igh
ĠJ azz
Ġopen ings
io let
Ġnon profits
Ġrob ots
Ġpain ted
ox ide
Ġinstall ment
Ġconver ges
ĠRespons ibilities
Ġrever ber
Ġvoc ational
ĠStream lined
valu ed
ĠTac tics
Ġhotsp ots
Produc t
8 5
B re
c ents
Ġh ill
ĠS her
ĠS now
ĠC MS
ĠI BM
Ġres ent
ĠH old
Ġj oys
Ġpe aks
ps ilon
ĠCons ervation
Ġsens itivities
Ġter rains
ĠCo aches
Ġstra ined
Ġbul let
Ġspeech es
Ġcong ru
Ġfold er
ĠSus an
. -
b ral
c in
re ts
Ġw estern
Ġm ol
ĠI ron
ĠO uts
Ġsp arks
Ġloc ating
Ġoptim istic
Ġlay ing
Ġrev isions
Ġcolle g
Ġundersc ored
bre aks
ĠSol id
Ġling ered
Ġbond ed
cont amination
ĠScot tish
Ġconj ug
Ġphilanthrop y
L eg
b age
g reen
h r
t est
t ake
er ry
ti ally
Ġth umb
ĠD ays
Ġem ission
ĠG aming
ĠN ecessary
ĠCh emical
ĠAd here
ĠDe Fi
avor able
Ġing rained
20 16
ĠInter active
Ġthink ers
Ġtransl ated
del ta
H ub
N ote
o pl
or us
Ġh int
Ġl un
ĠS equ
iv ia
ĠF an
Ġsp acing
we ek
ĠAn ton
Ġexpress ive
Ġswitch es
Ġrent ing
Ġadminister ed
Ġappreh ension
C ost
w inning
Ġre tire
Ġcon ferencing
Ġg ross
ĠP ow
ĠB a
ch i
Ġun healthy
Ġab dom
In forming
ood les
Ġhas n
ĠV A
ĠV ulner
Ġprof itable
Ġvis a
Ġsocial ization
ĠCap acity
Ġox ide
ĠNe ighb
ĠClass ification
ME s
eff ectiveness
Ġcritic ized
ĠSav ings
Ġye ast
c ell
ent ance
st ock
il ization
ol itan
ĠP y
Ġpl atinum
ĠO racle
Ġpar tisan
Ġob vious
Ġsuper natural
Ġarg u
Ġdiscrim inatory
Ġunderm ines
Ġresh aping
Ġirres pective
l aces
y ards
Ġr aced
Ġv oid
ĠM D
Ġscen ery
int estinal
itch es
reg ulation
ĠSam uel
Ġfresh ness
ĠOb tain
Ġpic ks
Ġwild erness
Ġbus es
Ġbot anical
avior al
Ġhors es
Ġregen eration
Ġexcurs ions
esthes ia
E qu
L ittle
l ore
ti ge
is k
Ġm ug
om er
ĠM ond
ĠM oney
ome ga
Ġinter generational
stand ard
Ġout weigh
ĠAd vantage
ĠAr m
Ġaut umn
ĠSp ark
ĠConsider ing
-------------------- -
Ġintermedi ate
Ġhypoth eses
Ġadhes ive
Ġmush rooms
Ġspecim ens
Ġc um
nd ry
Ġm ile
ir rel
ĠE dit
Ġ( <
ĠDevelop ed
ĠAss embly
Ġwar ri
ev in
Ġden y
âĪ «
Ġpeace fully
Ġuns us
ĠBri an
Ġque er
ĠPrec ision
ĠThail and
U T
d eterm
Ġp ipe
Ġl akes
as ers
Ġor chest
ĠE lig
ĠD ig
Ġper imeter
ĠWh it
ĠV illa
Ġfin est
Ġgl anced
Ġstory line
sc apes
ĠRel igious
Ġexempl ary
ĠSur gery
Cl ass
Ġattack ers
Man aging
Ġgall ery
Ben efits
---------------------------------------------------------------- ----------------------------------------------------------------
5 5
b ability
Ġt ier
Ġth irty
Ġg inger
ĠC NC
Ġal mond
ĠW ilson
Ġev oking
art z
ĠAs pects
St ate
Ġcomput ation
Ġworth while
Ġred ness
Ġdocument ed
Ġdocument ary
ĠAg ric
Ġrelax ing
Ġstret ches
Ġconcentr ated
Ġbackl inks
ĠAgree ment
Ġvign ette
H I
a ire
Ġth rown
Ġg ru
ĠS epar
ĠC ases
ĠTh ought
ĠB aking
Ġint ra
ĠO ri
ĠWh ere
ĠComp et
uccess ful
Ġflavor ful
Ġwear able
Ġoccup ational
Ġreass urance
ĠHy brid
Ġirre levant
Ġtemp o
Ġcontra sts
Ġdemean or
Ġargu ably
B al
â ī
ĠM es
ĠM ic
ĠM oh
ati st
Ġserv icing
ustr ated
Ġvill ages
Ġdissem inating
ĠConsum ers
Ġlad der
Ġcleans ing
C I
U D
f i
à ´
ar ia
od ox
ĠG rammar
Ġsur real
ex ample
Ġcontrol lers
Ġmonit ors
ĠIns ight
Ġcand les
ĠGen esis
hand ed
Ġpractition er
Ġisol ating
ES CO
ĠEd ward
ĠMove ments
Ġrect angle
Ġdisconn ected
produc ed
Integr ating
L ike
uc turing
ĠP a
ĠR ati
Ġj et
ĠN ic
ĠAd s
ĠK ub
Ġaw kward
Ġaud i
Ġgreen ery
Ġoverl ooking
Ġretain s
Ġmyth ology
ĠDie go
Ġundes irable
M o
Ġb oss
Ġb ites
st ory
Ġ( *
Ġj uggling
Ġloc ked
Ġperson a
ĠMar g
ĠMar vel
Ġmor b
Ġdiscipl inary
Ġcoll apse
Ar med
ĠAvoid ing
imp act
osc ow
ĠSa udi
Ġimpair ments
Ġgastron omic
Ġbub bles
lies t
Ġscrutin ize
Ġtimepiec es
ĠRecruit ment
ĠdÃ© cor
) $$
en ch
ti a
Ġre use
Ġg ig
Ġcan cel
ĠN i
ten ing
Ġsens ing
Ġvalu ing
Ġterm ination
Ġdirec ting
Ġball oon
oll ar
Ġhyd rated
ĠForm at
ĠQues tion
Ġsod a
Ġimpecc able
" >
) ^{
k ets
w aves
Ġ _
Ġf lick
ly n
ĠB ond
ĠM ail
oun ce
Ġleg ends
Ġstaff ing
Ġfra gments
omet own
ĠSy ria
------------------------ -
Ġcritic isms
Ġunch anged
ĠColumb ia
Ġunsus pecting
m o
Ġ %
en ergy
Ġc ables
Ġf ake
ro ts
ĠC ertain
ag u
ĠB ron
ĠR aj
ip le
Ġ1 50
ty pe
Ġinnov ators
Ġsch ema
Ġlik es
Ġanx ieties
Ġbrow se
Ġce iling
Ġforec asts
meas ures
ĠBatter y
Ġtelec omm
Ġransom ware
D riven
c at
ing le
Ġb atches
ac co
Ġv ascular
ĠP ok
ĠG am
Ġcl ips
Ġsy rup
Ġany time
Ġsub jected
Ġdown ward
Ġcollabor ated
Ġcontrol ler
Ġpoli tic
Ġmar in
ĠCollabor ations
Ġmanif ests
ĠCry stal
ĠWi Fi
Ġsket ches
forest ation
Ġbab ies
S eeing
Ġp ockets
Ġre charge
Ġch unks
ĠB right
Ġtr ash
Ġsp rink
Ġtim ef
Ġresp ite
Ġmed iation
Ġbr on
Ġdef endant
ĠMan ual
ĠExper t
ĠFe eling
Ġelement ary
Ġ199 8
ĠLew is
L ily
Ġc ave
Ġp our
st op
Ġn ic
ĠB ah
ĠM agn
ell ations
ĠSt ation
rol ls
Ġdest iny
Ġadher es
Ġpond ering
Ġcorrec tion
otyp e
Ġsculpt ure
Ġbrace lets
Ġerg onomic
n ia
p ot
Ġh ym
ĠA esthe
ĠC oping
ĠD A
ĠN ich
ath an
Ġpol ls
---------------- ----------
Ġpe el
Ġclos ures
Ġgr ids
Ġgood will
Ġconsequ ence
ĠRef rain
Ġcontract ual
entral ization
cel ain
Ġdiscrep ancy
Ġmes h
Ġmaneu vers
Ġresh ape
ĠNG Os
ĠSatur day
ĠCarib bean
l it
er ators
on struc
re ens
ĠC ape
Ġj ot
ov able
ĠCh ocolate
Ġafter math
Ch allen
Ġmedic inal
Ġbelong ed
Ġgar n
ĠSur ve
ĠPart ner
Ġbed s
ĠSum mer
Ġparad ox
Ġdismiss ing
Ġspons ored
ĠLu ke
ĠDemonstr ate
Ġdess erts
ĠHind u
i age
w alls
ar ios
Ġd ump
ĠT ower
Ġpl ausible
Ġ- \
ĠY OU
Ġcri tiques
Ġart works
Ġmach ining
Ġswe at
Ġche aper
Ġattract ed
Ġillum inates
ĠAdop t
-------------------------------------------- --
Ġrival ries
Ġcanc ers
Ġripp les
ĠBehavior al
Ġattenti veness
Ġaccl aim
$ \
b ying
f itting
h ma
Ġn ice
Ġex ert
ĠT es
ĠM P
ĠM aple
ĠR ow
Ġse g
ĠSt ra
Ġpur ple
Ġpoli tically
Ġve gg
ĠTrans forming
Ġlack ed
ĠInnov ations
Ġfol iage
Ġdism ant
Ġelectro ly
Ġrevis iting
Ġcerem onies
Ġaffor ded
Ġcolleg iate
a ults
Ġ Ð
ar ium
Ġw ake
Ġd ressed
ĠC ricket
ĠE dition
Ġcont ested
ost asis
Ġequ ate
ĠAl zheimer
Ġactiv ate
Ġrob ot
Ġsw ings
Ġpast e
ĠConsider ation
Ġinher ited
ĠAg ile
ematic a
Ġmotor cycle
Ġinduc tion
Ġirres istible
Disc uss
Pri v
Ġembell ishments
Ġyog urt
E P
r d
v ety
Ġt ent
Ġm alle
ol ve
ĠS W
ĠP un
ĠM ars
od ge
ĠE lev
ĠJ uan
ven tions
Ġstri ves
ĠRec re
int endo
Ġperf ecting
uck y
Ġ9 5
Ġarri ves
ĠProf ile
Ġfirm ware
Cl oud
Ġscatter ing
ĠSen ator
ht ml
Ġwand ering
ĠCouns eling
Ġbree ze
Ġh ires
Ġh oly
Ġst aging
ith ium
ĠH art
Ġpl aque
ph ab
Ġgra ding
Ġorig inally
ĠRem ove
Ġfa ulty
Ġcompl imentary
Ġfinal izing
Ġoccup ation
Ġquan tify
Ġtwink ling
N O
l ights
p olitical
Ġb omb
ro v
om eter
ot echnology
ĠB ound
Ġres urgence
Ġse als
ĠN a
tr al
Ġpot ency
Ġco at
ĠEn joy
Ġdig ging
Ġbro kers
pos itions
Ġvisual izations
Ġaltern ating
ĠEth an
Ġche ap
Ġvill a
ask a
ĠFrame works
Ġfo am
ĠNiger ian
w atching
y er
Ġb ats
ĠA ND
tic a
ĠR O
Ġhe y
ati es
erm ost
Ġbenef ici
ĠCl ar
20 14
Ġfree zing
Ġsusp ensions
Ġconcl udes
ĠBrand ing
Ġencry pted
Ġreb ell
ĠUpd ates
ĠCannab is
M ia
R NA
f ig
l ide
s ki
Ġt orn
Ġs aga
ed e
an tha
Ġb ore
Ġl ips
ĠB ear
ch annel
les h
ne ath
Ġ1 20
Ġnew est
ĠK y
Ġfact ual
Ġavoid ance
Ġge ared
hes es
Ġsun screen
Ġclim ates
ĠPe er
Ġdefin itely
ĠMethod ologies
Ġguarantee ing
ĠSen ior
ĠArab ic
Ġarc s
) }{
S C
T V
d f
ĠW inter
Ġsp rings
Ġma x
Ġfe ast
Ġtechn ically
Ġemb ro
Ġcost umes
ĠComp uting
Ġlight ning
Ġbound ed
ĠAv ailability
Ġretail er
Ġrecre ate
Ġtooth brush
ĠFac ilities
Ġsummar izing
ĠAdjust ing
trans mit
ĠReput able
Imp act
S w
b ee
Ġh alls
ul o
ra wing
ad ays
ĠF DA
Ġinc idence
Ġk ill
yn thesis
Ġgr inding
Ġjoy ous
ĠPart nering
ĠDeterm ining
ĠTarget ed
Ġrecept or
Ġspont ane
Ġdos age
Applic ation
ĠThorough ly
ĠTurk ish
4 4
f ood
u nderstanding
ar g
ar bon
ĠA id
Ġen amel
ĠM oscow
ĠU t
Ġper pend
ĠBe at
Ġstri p
ĠPre vious
ĠCustom ized
Ġwood s
Ġhistor ians
bed room
cont rol
Ġpip es
Ġcoexist ence
Ġdrain age
D I
h ift
Ġre ef
Ġpro jection
Ġal arm
ke eper
Ġhe fty
he at
ĠK ir
Ġgra ms
Ġconnec ts
ex ec
Ġvalu ation
Ġglobal ized
Ġwa velength
Ġsl iding
Ġfig ur
Ġanti qu
Ġdr astically
ĠAll iance
Ġfilm makers
Ġgrapp les
ĠSci entific
ĠScen arios
Ġjus tify
Ġirregular ities
Ġvoy age
g ov
l ength
Ġa u
Ġc ensorship
it ating
Ġh ose
ĠA verage
ĠP s
Ġch ick
ĠE ric
ĠD aisy
Ġcre atives
ĠIn come
ass essment
ĠAd am
ĠAd hering
Ġaud iting
Ġthri ved
ĠBo ost
Ġstead ily
ĠEmploy ment
Ġdust y
ĠTeach ers
Ġsandwich es
S elf
h our
h ttp
ay ers
ĠF ou
est ine
Ġwe aving
ĠL ines
Ġset back
ĠWe ather
Ġbra king
Ġrest ored
Ġenthusi astic
Ġ$\ {
ĠOff icial
Ġconsult ant
Ġtit anium
Ġcategor ize
Ġdos ages
ĠMarian ne
A L
V AC
Ġc affe
ĠT ale
end ered
Ġimp ressed
Ġab rupt
Ġinter change
ĠN ode
Ġatt ribution
Ġoper ated
Ġincorpor ation
Ġhold ers
Ġec lec
Ġden ial
Ġstor ms
Ġexpans ions
Ġtransfer red
Ġcurious ly
vis it
Ġtrail bl
Ġdile mma
Per haps
ĠFranc is
Ġfolk lore
ĠThreat s
L ong
N ame
Ġf ed
ut able
um erous
Ġem ulate
Ġco erc
Ġcho pped
Ġbra kes
ĠAr gent
Ġachie ves
Ġregul ated
Ġstory lines
20 21
Ġsil hou
Ġtut oring
ĠJam al
Ġpredict ability
Ġescal ation
ĠStar ting
Ġvel vety
Ġshall ow
Ġinfin itely
ĠSen ate
Ġsucc ulent
Ġundert ones
ĠAcquis ition
: :
C BT
b our
s im
in ian
Ġt ired
ĠA BC
Ġal arming
Ġcomm issions
Ġso aring
ob iles
Ġatt uned
ĠRec e
ĠDis advantages
Ġimper ial
ĠHol istic
Ġdimin ish
Ġwedding s
Ġrevol ve
ĠAp ache
Ġverd ant
Ġwrink les
D id
c raft
k it
es ians
Ġs ized
Ġp estic
Ġm ouse
Ġre write
Ġl uster
Ġn ull
ĠS anta
Ġv ir
ĠM att
ĠD entist
ĠH az
ĠAn xiety
ĠRe act
Ġsymb iotic
ĠSur pris
Ġmac OS
ĠRele ase
ĠLu ther
Ġnour ishment
Ġbon us
bel ief
Ġabnormal ities
Ġintellect ually
Ġuninter rupted
) !
B ec
r ances
Ġb ilateral
Ġl ately
ut Ã©
qu oise
ĠL iqu
Ġj umps
Ġj okes
Ġsc rip
Ġdist ract
Ġlearning s
ĠRe tirement
ĠSh aping
int on
Ġengine ered
Ġcompl iant
reg on
Ġrepl ication
omet ry
ĠIniti ative
ĠCor inth
Col or
coin s
Ġcharism atic
0 5
N e
th is
uc tions
ĠS occer
Ġv et
ĠL iability
Ġcons oles
Ġdes ert
ĠJ SON
ĠSc ale
ĠHer o
whel med
ĠSw ift
Ġfrag rant
Ġsucc umbing
ĠTem ple
b rand
g ae
p oll
y st
Ġp ap
Ġo ceans
Ġw ander
Ġh av
ac tiv
Ġex fol
ra ining
ĠF ra
ĠD ol
ph esians
art ers
Ġpress ed
itch ing
ĠAdv ances
Ġminor ities
Ġmagn esium
Ġunderst ated
Ġtun ing
Ġdro ple
Ġpropor tional
Ġedit orial
Ġcategor ization
imm une
umbers ome
Ġfif th
Ġredund ancy
ĠVill age
determ ination
] $
c ritical
Ġc umbersome
or ie
Ġh ints
ch at
ĠG B
Ġsec l
ĠY ears
tention ally
Ġauthor itarian
Ġmis inter
ĠPar ents
mar king
Ġslow ing
ĠAccess ible
Ġcivil ization
ann ab
ĠFund ing
Ġcru ise
Ġbicy cle
f in
Ġs or
Ġp ier
Ġl act
Ġbe am
ĠH ou
Ġpar ity
Ġsp ur
ple te
Ġrep ay
Ġadd itives
Ġsa pp
Ġclos est
Ġturn overs
Ġswe eping
Ġbust le
Ġsusp ended
Ġlaugh ing
Ġaf raid
Ġobserv ational
box es
Ġast on
Ġfestiv ities
ĠPeriod ic
ĠDiagnos is
odynam ic
u ke
Ġo kay
Ġb ap
ĠS in
ĠPro position
Ġeth ereal
ĠPer ception
Ġdraw ings
Ġfree ing
With in
ĠOut look
mon ary
ĠBel ie
ĠOper ating
ĠHol id
oti ent
Ġimpair ment
pur pose
6 9
P ractical
\ ,
a very
g ram
Ġh ometown
ĠC I
ĠF alls
ĠH ass
ep tive
Ġsim ulate
equ ipped
Ġidentif iers
ĠAt tention
Ġlight ly
Ġexpect ation
Ġcatch es
ĠOper ation
Ġcin namon
Ġdiscl ose
Ġterror ist
ĠVers ion
Ġmobil ization
Ġlau ndry
Ġexhaus tion
Ġpedest rian
Ġward robe
Ġted ious
Ġrecep tive
S etting
V iew
b oth
f ting
h ar
in ol
ti e
Ġm amm
ĠS A
ĠE T
ĠE co
Ġunder gone
ĠN intendo
ĠK ent
onal ities
Ġ$ -
ram es
Ġdef end
ĠĠĠĠ Ġ
ĠCont ributions
Ġste al
urs hip
ĠTim ing
ĠDel ve
Ġpredic ted
Ġdw ind
Ġsights eeing
Ġchuck led
Ġsuperher o
= -
f old
g uid
Ġm ount
Ġwh istle
ĠC ards
Ġen rolled
oc a
ĠH op
ĠL LC
Ġend ors
Ġcourse work
erv ices
Ġtal ked
Ġpra ising
ĠIncre asing
Cont inu
Ġdash boards
ĠSeg mentation
ĠGPU s
Main taining
ĠSubsequ ently
Ġadul thood
Ġrus tic
W ork
Ġd orm
ĠB rad
Ġcomp ressed
ĠF abric
ĠR E
ĠN AS
ĠCh annel
Ġform ulating
Ġpost ers
Ġbelie ves
ĠDisc overy
ĠWell ness
Ġforth coming
ĠDra ft
Ġast rology
Ġpool ing
sub set
ĠVeg et
Ġchim ed
Ġoverhe ard
Ġnick el
ĠAfghan istan
N F
w al
z one
Ġa uction
at ar
Ġan ecd
Ġch ief
ĠB attle
ĠF am
Ġro pe
Ġso aking
so lete
Ġmight y
Ġdeep ened
Ġhead er
Ġsl avery
Ġge ograph
Ġquestion able
Ġsun set
Ġsqu ared
Ġveget arian
Ġfem inist
Ġsem inal
Ġoblig ation
ĠPati ence
Ġextrem ely
ĠInstall ation
Ġrect angular
Ġenlight enment
Educ ation
ĠCurric ulum
M B
T opic
e q
Ġc akes
Ġm ock
Ġb races
Ġl amps
ĠC utting
In st
Ġpe an
Ġsal ads
Ġcolle ague
ĠMed ium
ĠInc ident
ket ball
ĠKnow ing
Ġscal ar
Ġunt ouched
Ġtriumph ant
Reg ardless
Ġinev itably
ĠGene tic
odynam ics
Ġbarg aining
b ury
Ġm it
om ething
Ġst agn
ĠM iller
ĠO regon
Ġj am
Ġcol onies
Ġdet ract
ĠApp l
isting u
Ġclean up
Ġapproxim ate
Ġmanip ulations
ĠAmong st
Ġquarter backs
ĠDav is
do i
Ġdw ell
Ġpregn ant
Ġunpredict ability
ĠCalc ulate
Ġles ions
G reat
w heel
Ġt iles
Ġs tit
Ġm ant
ig er
ĠA x
ĠS pl
ĠS eed
Ġsign age
Ġbu zzing
Ġsub gen
ĠIm aging
Ġdown loading
Ġfound ing
Ġtri ple
Ġpast ries
orn s
Ġpassion ately
Ġapproxim ation
ĠProt est
Ġprosper ous
Hist orical
iar ism
ĠRestaur ant
m ad
p tic
w ent
Ġs id
Ġs atisfactory
Ġp seud
Ġd aring
ĠS leep
ĠTh eme
Ġan atomy
ĠM uch
ĠR F
Ġtra ps
Ġdisc ol
Ġappro vals
Ġco ales
Ġtem pt
ĠAss istant
ĠMarket ers
ĠDis cl
ĠFl avor
Ġcivil ian
Ġampl ifies
ĠSci ences
Ġancest ral
Ġnob le
A g
C or
E vent
M ulti
p o
r ent
Ġw ished
Ġh ailed
as ound
Ġfor tune
ĠC orn
Ġv ene
ĠP oor
Ġsh ower
ĠF ellow
ĠW il
ass ing
se a
Ġincl usions
Ġref used
iss ible
au g
Ġadm itting
Ġ6 4
Ġshort ages
ĠIs n
Ġdocument aries
Ġconver ted
Ġovers impl
ĠFound ed
Ġtestim ony
ĠLoc ated
Ġbon uses
Ġcav ity
ĠIcon ic
Ġgastro intestinal
Ġunequ al
ã ģ
Ġ @
ar re
Ġv ib
ad der
ĠD S
form s
ens itive
ĠG ate
ĠN ik
Ġinv oking
ĠWh is
Ġsim m
Ġwork load
Ġtw entieth
ĠNew ton
Ġled ger
Ġunf avorable
yth m
Ġbed room
Ġbrush es
Per formance
Ġimpar ting
Ġasser tiveness
ĠPrem ier
Ġcham bers
Exam ples
Ġimprovis ation
a ud
Ġe ll
Ġle ts
Ġsh ingles
ĠF ran
Ġpl um
Ġab ortion
ĠN orm
Ġout breaks
row th
Ġref und
ĠAn th
Ġent ang
Ġbr ackets
-------------------------------- ---
ĠMon th
Ġfarm er
ĠFac ilit
Ġcoc oa
Vis ual
process ing
ĠInj ury
h ist
v i
or ti
as king
am ics
ĠF ib
ge q
ĠL ater
ĠV ent
ĠV ice
Ġ4 8
aps es
Ġadm issions
Ġphot ographic
Ġpsych ologists
ĠGo al
ĠAg encies
Ġcher ry
Ġequival ence
ĠTranspar ent
Def inition
S ecurity
h al
o ices
ĠS AR
ĠC A
ĠB M
est ruc
ĠL A
lec ular
Ġbo ots
Ġgovern mental
ĠCl ose
Ġpay roll
Ġdr astic
Ġchec ked
att acks
ĠRet ail
Ġsupplement ation
ĠCer tification
Ġambigu ous
Ġdisagree ment
Ġanch ored
ĠNutri tional
Ġfragment ed
ĠSug ar
E ven
i op
Ġf ade
ĠB ap
ĠE fficient
ĠF ish
ĠR ice
Ġbo ats
eth ical
tern ally
ĠSo f
ĠSh ad
head s
ĠMod eling
ĠConvers ion
Ġresid ences
Ġbat ting
ĠOptim al
ĠMath ema
Ġanch or
Ġasc ertain
ĠSug ges
Ġswir ling
L ever
S peaking
m us
n on
Ġt ide
Ġt elesc
Ġp ine
Ġp ores
st aking
Ġon boarding
ist a
ĠR EST
ach er
Ġat omic
Ġpar tially
over ed
ish a
ak y
Ġanaly st
Ġminim ally
Ġsl ipp
ĠEnc ryption
Ġintellig ently
ĠEar rings
ror ism
Ġroll er
Ġrain fall
Ġstic kers
Ġnumer ator
Ġconcentr ating
ĠKen ya
ĠSn ap
p ine
Ġl ag
ĠH ay
ĠG ems
Ġob solete
ĠAnd rew
Ġelectr ons
Ġobjec tively
Ġhar b
ĠAlex ander
ĠFr ustrated
Ġintros pective
ĠTal k
ĠDocument ation
Ġillust rious
Establish ing
Determ ine
S um
y on
Ġt ort
on ly
Ġf ixture
Ġm uff
st ore
ĠS ad
ĠC ult
Ġv apor
Ġch ill
ĠM A
Ġdis abled
Ġimm inent
Ġgr illed
20 15
Ġhar vesting
Im pro
set ting
Ġdr ums
Ġir rational
ĠMem orial
Ġsubsc riptions
ĠEff ectively
Ġcyl inder
Ġstiff ness
Ġvolunt ary
ĠNeck lace
ĠPier re
H and
N R
k o
Ġ ðŁ
Ġd ull
Ġh unt
ĠL es
ong s
ĠO ral
Ġstrateg ists
uss ian
Th ird
Ġend point
Ġcar ved
Ġweb inars
Ġtop ological
Ġpat ents
Ġcirc ulating
Ġdiv es
ĠSc reen
ĠSe as
ĠSe attle
Ġseason ings
Ġsil k
Ġtransl ations
Ġpand emics
Ġscript ural
ĠAllow ing
-------------------------------------------- -
ĠCommit ment
Ġinterf ere
ĠDatab ase
( );
* .
m aker
or ia
ol ation
Ġst acks
Ġpro st
Ġmy ths
Ġcle aring
Ġ3 8
ĠRe fer
vant aged
erc ise
ĠInter vention
ogen ous
Ġdistingu ished
Cont ent
van ia
Ġoccurr ence
ĠCelebr ating
ĠDur ability
Ġannivers ary
ĠâĤ ¬
E ff
b ath
Ġr outing
if er
un s
ĠR V
Ġimp art
Ġwor ries
Ġcons pir
Ġrep entance
Ġdif fers
Ġinform s
ĠFor ward
Ġfollow er
ĠIm ag
Ġcor al
Ġ3 7
ĠOn t
ik o
of ten
Ġindic ator
Ġland l
Ġcoun ty
Ġ199 6
Ġdeploy ed
Ġmarginal ization
Ġborrow ed
Ġdistingu ishes
Ġdispos able
Op en
ĠNavig ation
deg ree
Ġbureauc ratic
Ill ustr
induc ed
c r
g roups
j our
n els
v are
Ġl umin
th emed
our ism
oc l
pl us
un ci
ĠW inning
Ġrec urs
ĠWh atever
Ġdem ys
itch ens
ĠDef ensive
Ġshort cuts
ĠIs lands
Ġexcl uded
Ġobst acle
Ġsn ack
ĠRespons es
Ġoccup y
Ġign oring
Ġparent ing
Ġax es
Ġconfront ation
ĠJew s
ĠCrafts manship
ĠQuan titative
Ġrecl aim
ĠCorinth ians
H i
b f
t ry
u ating
Ġt aps
Ġs emic
Ġp epti
Ġd oses
Ġh uh
if ted
ĠP ixel
Ġsh ips
ĠD omin
ĠR ise
Ġcan on
Ġpl ed
Ġsoc iology
ĠK itchen
Ġdet ective
Ġfact ories
ĠApp oint
ĠĠĠĠ ĠĠ
Ġnon linear
Ġconven iences
ĠTrans l
Ġstatis tic
Ġi P
Un fortunately
Ġgrasp ing
Ġdro pping
rig ation
ĠInvest ments
Ġcong regation
Ġretrie ve
ĠRub y
Ġresemb ling
Ġrepur posing
Ġmagaz ine
C H
E l
L og
[ \
u mental
} |
en h
Ġo eu
ĠS ar
Ġv ibration
ĠF ees
Ġsu icide
ĠO ption
tit utional
Ġfl ipping
ĠApp ropri
Ġsal ient
ĠSe amless
Ġattr acts
Ġtend ency
emb ling
ĠUS D
Ġhalf way
Ġprop els
uff y
Ġaffili ation
ĠEff ectiveness
Ġcategor ized
ĠMad rid
}. $$
Ġfract ures
Ġheaven ly
Ġsuspic ion
ronutri ents
burse ment
Ġdishear tened
P al
Ġc ube
Ġh ats
ot ations
nder ing
Ġsol icit
Ġsol itude
ĠCon vention
Ġend ang
Ġorig inate
Ġnon compliance
Ġpain staking
ĠSec uring
Pro v
Ġdry ness
ĠInf rastructure
oub t
bur gh
Ġflags hip
ĠNavig ate
C ul
L ocal
Y et
l ink
id d
Ġst roll
un king
ĠE lection
ĠD M
ĠW ave
Ġtr im
ĠL ie
Ġgu ards
ĠPro tein
ĠAm y
ĠAc qu
der ived
Ġcross ed
ĠMe i
Ġinterpre ted
CD C
Ġsnipp ets
ĠMortg ages
Ġreconn ect
L ead
R ob
T om
Ġe asing
ul ing
ist ries
ĠW is
ard i
Ġrel iant
Ġinf using
eng er
ĠSc ene
Ġsl ides
Ġemerg ent
Ad ap
Ġinters ects
ĠSuccess fully
Ġwear er
ĠFact or
fol io
Ġexacerb ated
ĠPal ace
ĠTre as
Ġrefuge e
ĠDom ain
Ġhasht ags
Ġmorb idity
M c
O L
W ater
i em
{ {\
Ġa ids
ĠS E
ĠP erm
ĠP ossible
ĠL ev
Ġfe ats
Ġbl ame
Ġbr ightly
Ġend points
Ġcar go
Ġhome ostasis
Ġbroad ly
ĠSp rings
Ġexpos ures
ĠPar alle
Ġsus pects
Ch ris
Ġconver ts
Ġgrapp led
Ġdeal ers
Ġvacc inations
Ġmirr oring
------------------------------------ ---
ĠClin ic
ĠUN ESCO
Ġerg onomics
Ġadoles cents
Ġdeterior ation
Ġinfringe ment
Val ue
ĠIndic ators
Ġmuscul oskeletal
Ġabdom inal
ĠHou ston
Ġp i
il ings
im age
ul u
am ar
ĠL ate
Ġrel ocation
eng u
ren tices
ĠRep orts
Ġblock chains
------------ --
Guid elines
Ġkeeps akes
Ġlifesp ans
ĠTor onto
omorph ism
Ġreconstruc tion
Ġinven tive
Ġresent ment
Ġeclec tic
G ood
P ay
h ots
k le
Ġf res
Ġw ore
ĠT ask
pl ane
ĠD NS
ĠW ise
ĠH oney
Ġpl ural
ĠIn n
ĠN ear
Ġinf est
Ġcor rid
Ġ5 5
Ġdiv inity
Ġrob otics
Ġrisk y
ĠPrac tition
Ġthreat en
Ġfun ny
ĠDem ographics
Ġminds ets
Ġdead line
Ġcompris ed
ĠFeed ing
ĠBuddh ism
ĠCrim inal
Ġmunic ipal
Ġkern el
ĠExcell ence
B rand
n i
Ġp ne
Ġm m
et ts
Ġcom ics
ĠC ow
Ġus ername
ĠG ran
tr ust
ric ted
ble ms
ĠAl f
Ġtre aties
Ġhar vest
Ġsil ently
Ġharness ed
ĠOrgan izing
Ġgrad ient
ĠSur vey
ĠState ment
Ġbed rock
Ġfan base
bl ock
Ġteen ager
Ob jective
ĠAgree ments
Ġbou tique
ĠSter ling
Ġnewsp aper
ĠLis a
ĠRepe at
F F
H ome
w arming
Ġm urm
Ġfor k
ĠTh an
ĠH olding
Ġunder went
ĠIn put
ear ned
ond a
Ġ1 000
Ġpres tige
Ġbl urring
urr ence
Ġmakes hift
Ġsl ots
Ġlow est
Ġarch et
Ġnote book
Ġsac ra
ĠConn ectivity
Ġsand y
Ġencaps ulated
)/ (
ĠGre ater
ĠArab ia
Ġgate way
Ġmembr anes
ĠInspir ing
Ġlung s
Ġrejuven ation
Ġdenom inations
B L
c ases
z o
Ġc ervical
or tions
Ġre active
ir ability
ĠC reek
tr ack
Ġform ulated
ĠAr ticle
Ġcost ume
Ġwater proof
Ġshort ly
sh aring
Ġcountry side
ĠConf idence
Ġox idation
ĠInstit utional
ĠSal t
Ġhur dle
ĠMechan ical
appro ximately
Ġsatur ation
ĠNu ances
itzer land
G old
h y
Ġt read
Ġw iki
Ġb ikes
ur u
um my
ĠE uc
ĠD rop
ant e
Ġpre f
Ġsc andal
Ġsub tract
Ġemb edding
by e
Ġhome work
rim p
Ġer ode
Ġline back
ĠSp ot
Ġsw ap
Ġhead ers
ĠTrans mission
Ġport als
Ġwin ners
ĠRep air
Ġalgorith mic
Ġmass age
Ġsoon er
ĠAb ove
Ġcos ine
Ġflour ished
ER Ps
Ġcoal ition
Applic ations
Ġexplos ive
4 00
f requency
Ġ ~
Ġst un
ĠM oses
ĠG rant
ric ks
xt ap
Ġent omology
Ġmon umental
ym e
Ġsyn ergy
ĠAv ailable
Ġ18 0
Ġspot ted
Ġ199 9
Ar ti
ĠAltern atives
Ġpropag anda
Ġdispers ion
Ġunear th
ĠPursu ing
d ots
f amily
q quad
v ard
Ġp m
ro sc
ic o
th al
ĠT oy
ĠA im
ĠA RT
ĠC L
ĠD all
Ġtra ded
ĠAc ts
ump tious
Ġsugges tion
So ft
ĠCo al
CA A
ĠSou l
Ġpreced ing
real istic
Ġpremature ly
var phi
Ġeigen values
ocy tes
Ġtrigonom etric
Ġambassad ors
adel ph
6 6
8 7
P o
T T
b ig
in ch
Ġf lesh
Ġw ishes
Ġb unch
ic on
Ġcon e
ĠC ell
ut ors
qu arters
ĠF HA
ĠR om
ĠW arm
ĠL ag
Ġpot ato
ĠPro ph
Ġcur ved
Ġlo vely
Ġconst raint
Ġadvoc ated
Ġblog ging
ĠOb ject
ĠOut door
Ġlon eliness
Ġscre w
There fore
ĠGra titude
ĠIsra eli
Ġsati re
Ġunin tentionally
Ġsilic one
ĠLaur a
Ġabr asive
Ġubiqu itous
R ead
Ġc racking
Ġo mn
st ood
as ant
ĠA round
ĠE gg
Ġj unior
Ġtra p
equ ate
ax ies
aps ed
ĠComp elling
Ġfoot wear
Ġfoot steps
Ġbar bec
ĠPol and
Ġcounter measures
mit t
ĠIntegr ity
Ġ199 4
ĠNe uro
Ġap iculture
Ġneck laces
Ġconve ys
Ġsupplement ary
omorph ic
Ġburst ing
ĠSlow ly
T aking
\ }$
Ċ ĊĠĠĠ
Ġp ist
Ġm ilit
Ġh ilarious
im ag
ĠF ig
ĠK ind
Ġapproach able
Ġmulti ples
Ġpush es
Ġalloc ations
Ġmel ted
Ġune ase
ĠCast le
Ġant agon
Ġth under
Ġl amb
Ġg ust
ign on
Ġcomm end
Ġcomm onalities
Ġmul tit
Ġplan es
Ġfel ine
Ġcater ed
Ġcompos er
emb les
Ġfer til
Ġfer tility
ĠEmploy ees
box ed
Ġspect acular
Ġbath rooms
Ġaward ed
ĠOwn ership
Ġsket ch
Ġhypert ension
Ġperpend icular
) ?
Ġas pire
ĠB row
ĠG ir
Ġcl ut
Ġsign ifying
he et
ĠCh am
Ġgu ys
ĠAl ab
Ġstand point
Ġactiv ating
Ġcar p
az y
Ġheart warming
sy l
Ġpsych iatric
ĠOut line
Ġsurv iving
Ġscal p
Sp ot
ĠURL s
Ġreim ag
ĠAccommod ation
Ġha irst
Ġelectrom agnetic
ĠFou rier
G I
U se
Ġc ous
ĠC ass
Ġal ly
Ġres umes
ĠN ep
Ġcap tain
Ġback end
Ġdown t
Ġemp ire
ĠMan agers
Ġold est
Ã© e
Ġvalid ated
rel iance
Ġunl imited
ĠMor oc
rif ying
Ġmold s
Ġfro st
Ġpenc il
direc ted
govern mental
rophys ics
Ġrooft op
Ġcum ulative
poll ination
{ -
Ï ī
ar ians
Ġm ales
Ġim b
ĠO EM
Ġtra it
Ġk in
Ġread s
Ġrev ision
ĠInter action
Ġtac tic
ĠSur face
Ġmal ad
Ġroof s
enn is
Ġmetaph orical
Ġbuff er
ĠLind a
Ġmiscomm unication
ĠEgyp tian
' ).
W D
h elp
Ġs el
Ġc ush
as ia
Ġst ake
ĠS ony
ĠC ub
ĠI ter
ist ration
ĠH iring
ĠIn equ
Ġ" $
Ġens ued
ĠK evin
ĠV M
ĠEx ecution
Ġidentif iable
Ġsw all
ĠInt el
Ġconfig ured
ky o
ĠExp and
Ġlaun ches
yl ene
Ġresid ues
Ġast hma
ĠMortg age
Ġconvin cing
Ġchees es
Ġapolog ized
Ġcaffe ine
T E
d uty
t arget
Ġt art
Ġl n
op athy
ĠW a
Ġcan al
ach us
Ġar thritis
Ġup set
Ġhel m
Ġexp ands
ribut ing
Ġresearch er
Ġgr illing
Ġsw ept
Ġtransport ed
icro bial
Ġwal lets
Ġmicro organ
Ġscr umptious
Ġearth ly
Ġlad y
Ġgastron omy
Ġfif teen
orb id
Ġgravit ational
Ġunres olved
adelph ia
G E
G S
p ractice
Ġ ,
Ġs ab
Ġp ir
ĠO s
Ġqu o
ĠJ ay
ĠWh ich
ath on
ĠUn ity
lu ent
ĠAnd y
Ġcomput ations
ĠCho ice
ĠMin ecraft
ĠÎ »
Ġconcl uded
Ġign ored
Ġce ilings
Ġneuro transmit
ĠOffer ings
Bl ack
Design ing
Com par
Ġmultil ingual
ĠAlong side
Ġsubsid ies
Ġroyal ty
Ġchatb ots
Ġoeu vre
? '
D em
g re
m ati
Ø §
Ġc oven
ro it
Ġe ti
Ġg asp
ĠP A
ĠB ru
un ing
ĠE P
all ing
ĠW elcome
Ġdes irability
Ġup take
ĠAd vers
ĠCon ver
ĠIm mers
ĠAl pha
Ġsupp ression
ĠSh akes
Ġautom obiles
Ġdr illing
ĠFin ishing
ĠSm ooth
ĠFac ilitating
Ġsacrif ices
ĠMalays ia
Ġg ang
ĠT rip
ad i
ch air
ĠF usion
ĠF aced
ĠD a
Ġinter acts
Ġbo oth
ys c
Ġsol itary
Ġprof iling
ĠFor ces
Ġpriv ately
Ġsum mit
Ġsl ot
ĠTrans actions
Ġju xtap
Ġescal ated
Ġtele medicine
Ġoutf its
Ġunexpl ored
Ġgru eling
ĠTes la
C ong
S et
on duc
es tion
Ġs orrow
or ate
th reat
Ġfor t
and el
ĠB B
ip se
Ġinc lement
ass ium
Ġser enity
Ġout rage
Ġear liest
Ġpri zed
Ġsens ational
atis m
ĠSc ore
Ġadm it
su fficient
ĠInter preting
Ġcelebr ates
Ġsports manship
ĠOb taining
Ġdelight fully
Ġcomplement ed
Ġpitch ers
Ġkn ock
ĠMath ematica
Ġstir ring
ĠPT SD
Ġnewsp apers
ĠVersati lity
Illustr ating
J ack
u ate
or o
ed ral
is tive
Ġd a
ac ci
ĠC el
ĠI van
Ġch ili
ĠR A
ĠH ung
ip ing
ort ex
ĠJ e
Ġsa utÃ©
Ġbl ades
Ġmin us
Ġpromot ed
ograph s
Ġphys i
lean or
ĠProm pt
Ġrot ational
ĠOpportun ity
Ġmir ac
Ġextrem ist
ĠAth le
ĠLif estyle
ĠUl tra
Ġastronom ical
Ġincumb ent
guid ed
` :
er k
Ġo asis
ess ors
us k
ĠP ump
Ġcl ip
Ġser um
Ġmod ulo
Ġspecial ties
ression al
Ġprogress ively
Ġrob otic
Ġfill ings
Ġneg lected
ene tic
Ġdiscipl ined
Ġrestr iction
ino is
ĠStep hen
Ġindul gence
ĠDev Ops
Ġcrowd funding
ĠSpe ech
ĠInstall ing
Ġmerg ers
ĠLiver pool
achus etts
M icro
V P
c ounter
o que
en ario
Ġf andom
og ram
Ġinv ig
Ġ4 9
Ġvers a
ats App
Ġtext books
pe are
ĠHar ris
ĠCam era
Ġreconc ile
Op tim
ĠCand idates
Ġpel vic
ĠAfford able
beh avioral
syl vania
B usiness
g rim
h ave
l ad
in vasive
ver bs
Ġbe an
ĠB irth
Ġsh atter
Ġsh ocks
ill usion
ĠH yp
Ġtime keeping
Ġter roir
ĠCol lect
Ġbi king
Ġarch ives
Ġsyn c
itiz ed
Ġwrit ings
Ġscr atches
Ġagg ress
Ġreplic as
Ġtrib es
L ooking
c ology
f loor
Ġd ice
Ġto ile
Ġpro ps
Ġor b
ĠM ust
ĠM itch
ĠE ag
Ġimp ulse
Ġresp onds
Ġiniti ation
Ġparticip ated
ĠTra dition
ĠTra uma
Ġbi ased
Ġbi ometric
Ġmass es
Ġban ner
Ġevolution ary
ĠSum mar
ĠChe ers
ĠObs erv
ĠExerc ises
Exc ited
Ġinherit ance
G A
ti ers
Ġp s
Ġf ought
ĠP oss
âĢ ¦
ĠG T
ĠG er
oun s
Ġvis c
air es
Ġgre eting
ĠMan ip
Ġpo etic
ĠBl end
ĠQu arter
inf used
ĠSw itzerland
Ġathle tics
Ġparent heses
Ġauto immune
Ġconsol idating
Ġportra it
ĠRout e
Ġpronoun ced
B P
B ar
c lic
t ails
Ġt ann
Ġc itation
Ġto es
ic c
ĠS ti
ĠB ed
ĠF iles
Ġpers ecution
ĠSt atus
Ġsm ell
Ġide ology
yn chron
ĠImp acts
Ġdispar ity
Ġcommunic ates
Ġintim ately
onym ity
Ġregister ing
Ġmetaph ors
osh op
Ġdele tion
Ġgal axies
May a
ĠAccur acy
ĠElig ibility
ĠDall as
ĠAlab ama
A ir
b ly
d am
Ġin aug
Ġd op
ĠP ad
ĠP iec
ĠD ate
Ġun ethical
ĠL aunch
ens ation
ĠG i
ati ans
Ġprac tically
ĠK ong
ĠV ic
Ġcollabor ators
Ġbro thers
Ġpat ri
me tics
Ġliter ally
Ġbur sts
Ġinterven e
Ġ199 7
Ġrot ations
ĠEnviron ments
ĠConsum ption
ĠCirc le
Ġlav ender
ĠHawai i
ĠPhilosoph y
Challen ges
A b
F riendly
J S
R omans
ing e
Ġf al
ou ter
Ġwh irl
ĠS anc
ĠTh erm
og ged
ĠR PG
Ġhel pless
ĠK ansas
Ġform ally
Ġfact oring
app le
Ġplan ting
urr ency
ĠCont rast
az a
Ġwatch ful
Ġwin ner
Ġir rigation
ĠRet ention
ĠMo ist
Ġign ite
Ġpharm a
Ġconve x
Ġregen erative
Ġvolcan ic
F ile
Ġm ounted
Ġb ay
Ġe Commerce
Ġh ike
ĠC urrently
qu al
ard o
Ġcons iders
ograph ers
ĠTr inity
Ġdon ation
ĠAss et
ĠEduc ators
Sc enario
ĠContinu ed
ĠRequ ired
ĠAng el
Ġuncon t
Ġcong reg
ĠOl ivia
Ġexped ite
Ġradical s
Ġempath ize
ĠFI FA
Ġdiscont inu
ĠGh ana
ĠSugges tions
5 7
ti ty
oc ratic
ĠB our
ine es
ĠL ooking
Ġcre ams
Ġpre cl
ĠJ ersey
ĠV i
Ġinf use
Ġlandsc aping
Ġded icating
rim inals
Ġbuild ers
Ġ| |
iling ual
ĠDra gon
Ph ysical
ĠMass achusetts
Ġador ning
Ġcosm os
Ġbioch emistry
Ġrighteous ness
vare psilon
T op
b ank
j an
ed uc
Ġw ing
Ġm ot
st art
ra ham
am ina
ĠM aps
Ġev ocative
Ġinflu x
Ġz eros
-------------------------------- ----------
ffici ently
ĠReal izing
ĠAdap tive
Ġcomplic ating
ĠBel ief
Reg ular
ĠMechan ics
ĠExt ra
Ġdiff usion
ĠClaim s
Ġunve iled
E U
b ons
Ġc aching
ac cess
el in
ow een
ĠS erve
ĠC H
ot le
Ġch ats
ĠB ush
ĠB iology
ĠH omes
oy d
Ġfl ames
ĠIm medi
Ġplan etary
ĠDe eper
raph y
Ġcar rots
ik er
Ġalign ments
ĠRec ipes
Ġground ing
Ġbreak downs
ĠDis order
ĠProt ect
Ġdistribut ors
Ġmal ign
ĠMc D
Ġsymmet ric
Ġlib eration
ĠBer lin
Ġundert aken
ĠPenn sylvania
ĠTai wan
ĠGrammar ly
8 9
N N
in st
in ted
Ġp iles
ur ate
Ġst ains
ĠC ateg
Ġle ase
ĠR ace
ĠU ltimate
Ġro ds
Ġqu otient
Ġk ay
Ġcur v
Ġdep ressive
ĠMan age
ĠSp ider
Ġpast oral
Ġavoid ed
Ġlimit less
ĠTim ely
Ġnor thern
ĠGen re
Ġmicro cos
Ġmaster fully
Ġpitch ing
ĠBas ketball
Ġflour ishing
Ġclar ifying
Ġstic ks
Ġaffili ates
Ġexceed s
ĠWal k
Ġexpon ent
Ġportra its
ĠSecret ary
Ġpatron age
Ġatten tive
ĠCreat or
) ).
m ill
n umber
Ġch ords
all erg
ĠH al
ĠH VAC
ĠU nd
ĠN estled
Ġk itchens
Ġ" [
viron mental
ĠAl bert
Ġdef endants
Ġtail s
Ġtem ple
Ġrecomm ending
}{ (
ĠInter actions
ĠDel hi
ĠProv iders
Ġroad map
ĠUp date
Ġpor celain
ĠPat rick
Ġfluid ity
ĠBel g
ĠOptim ize
Ġkn ife
Back ground
Me as
Ġcommod ities
Ġentrust ing
ĠMond ay
Cul tiv
P ort
l isting
u i
} +\
ur istic
as ps
ĠT empl
ĠE lections
Ġem it
Ġem an
Ġprov oke
tim icrobial
ĠThe atre
ef it
Ġneed le
Ġoper a
Ġsupp ressing
Ġver ified
ĠMy SQL
Ġcheck out
Ġban ter
Ġpic nic
flow er
Ġdeter ring
Ġintertw ine
Ġimpar ts
Ġimproper ly
ĠUnc overing
ĠOnt ario
Ġmicroorgan isms
N estled
O rig
i ary
o ky
t rain
Ð ¾
ti ality
Ġth esis
Ġd azz
th ey
Ġwh ites
ĠC yp
Ġimp rison
In iti
Ġdisc ord
Ġens embles
Th ank
Ġtake away
ĠApp s
Ġgovern ed
Ġcal ibration
ĠSp read
Ġneg ativity
Ġboo kings
Ġmoment arily
Ġden ied
Ġcrim inals
Ġchem otherapy
Ġsou ps
Ġcomplement ing
ĠSub sc
ĠSecond ary
Ġsurpris ingly
Ġsucc umb
ĠHard ware
blow n
pati ent
Ġthro at
a tics
b urn
b irth
c ription
Ġp ension
ol as
Ġen orm
ĠB io
ch ecking
Ġsh ore
ĠF ried
ĠR NA
act ly
Ġind uce
ĠCh a
Ġsol v
ĠCom pos
Ġcustom izing
ĠDe al
ĠZ ara
ĠInter ests
Ġvirt ue
Ġlat ent
ĠEth iop
ĠÎ ¼
ĠPat el
Ġbank ruptcy
ĠMc K
ĠDeb ate
ĠAff airs
ĠJob s
Ġadhes ion
Ġscrutin izing
Ġut ter
Ġsupervis ors
& \
8 00
V M
c ard
Ġs ank
ar ray
Ġre building
as per
and als
Ġbo ot
Ġrec urrent
ef t
res pons
Ġdiscuss es
Ġatt aching
ĠTo kyo
Ġmat uration
oth y
Ġfavor ably
ĠAg ent
ĠPat ri
ĠCost a
ĠOper ational
ĠMat rix
Ġflu or
ĠVehic les
Ġmalf unctions
K E
R F
at ability
im a
Ġst ew
ĠS ud
and ering
Ġan esthesia
ĠM ood
Ġdis charge
ass o
lic t
acter ial
Ġspecial ly
Ġauthor itative
Ġfront line
Ġclick ed
Ġneut rality
Ġsubstit uting
rest rial
Ġingen ious
ĠComplex ity
Ġblind ly
Ġredund ant
Ġpill ars
Ġvegg ies
Ġmisinter pret
unci ation
A IDS
C RM
er ion
Ġp es
Ġd entists
Ġg er
ĠB ou
eg rad
ĠSt ack
ob ia
Ġinf licted
ĠPro p
ĠPro ximity
Ġserv ant
Ġpop ul
Ġmar tial
Ġhead ed
Ġanim e
ĠPre vent
Ġcode base
Ġcompar es
Em power
Ġaffili ated
Ġpreced ent
ĠPhil adelphia
Ġmur der
Ġquantif iable
ĠShakes peare
1 50
g ood
u til
Ġf rac
ic op
st atic
Ġl over
ol ith
am ation
os ocial
ons in
Ġper cuss
tain less
ern etes
Ġfoot work
ran king
Ġmatch up
Ġsole mn
Ġunw inding
ĠDec entralized
Ġpick up
ĠOptim izing
Ġbiom echan
Ġpear l
Ġlect ure
ĠMom ents
ĠGather ing
deg en
ĠHolid ay
ĠWis dom
- >
M ental
z i
th ur
Ġal titude
ĠD ivid
ĠL amb
Ġincl ined
ĠV el
ĠEx cess
Ġsa us
Ġmodern ization
isc onsin
Ġcy to
Ġviol ation
ĠOff ers
ĠOff ensive
Ġtransc ription
Ġspot light
Ġbutter fly
ĠDeb t
ĠPhot oshop
Ġanalog y
Com put
Ġenzym e
Ġtro ve
ĠWire less
C rypt
d ec
z an
Ġs ender
Ġl ore
ĠA venue
ĠC ov
Ġsh ielding
Ġdisc ourses
Ġdec lines
ĠAr men
den ed
Ġrig idity
ĠBl ending
ĠBu ilt
inc ere
Ġguit ars
Ġsettle ments
Ġbub ble
Ġeigen v
ĠDiagnos tic
Ġduplic ate
Ġerup ted
Ġdisad vantaged
Ġavoc ado
! [
le ans
Ġr ud
ad ers
ĠP ink
iz arre
ch emical
op t
ĠW ide
Ġro asting
se x
Ġso ak
eth yst
ĠK a
red it
ĠAt m
Ġve ins
Ġovers eeing
Ac tive
Ġbow el
ĠTarget ing
ĠSy ndrome
ĠScen ario
Ġfav ored
Ġbluep rint
Ġmascul inity
W A
b uds
c ooked
g mental
Ġb ending
Ġto ast
ĠP eters
Ġch ores
ĠE M
ĠF uel
og ging
ĠV PN
ĠEx hib
Ġ3 60
up on
Ġpred ators
Ġsequ ential
ĠAdv is
ĠProf iles
Ġ< =
ĠProv ides
ĠPr ince
ĠFe el
Ġbrain storm
leg ged
Ġdisrup tive
ĠWork ers
ĠAct ors
Ġspark le
ĠAdjust ments
Ġmisunder stood
Ġportray ed
Ġtrem end
ĠNeighb or
S ervice
] ;
g rowing
o irs
Ġt ill
er d
Ġb ored
th ink
ĠS erving
ĠB ird
ĠB race
um i
Ġdis gu
Ġdem entia
Ġbr ides
Ġactiv ist
Ġsustain ably
Ġhapp ily
ĠOr ange
Ġair flow
Ġland f
Ġfilm making
Ġinters ections
Ġmicro phone
Ġdisapp ointing
ĠClass room
ĠAuthentic ation
Ġfier y
writ ers
ĠNur sing
ĠText ure
ĠStatis tical
Ġstif le
ĠSubs tit
ĠAnton io
Ġdrople ts
L O
L uc
h ol
p ublic
Ġt ink
or er
Ġo c
ec oin
ain e
ĠP OS
ĠB I
od us
ĠD ress
ĠW olf
Ġun at
ĠL ock
ĠG M
ĠN LP
se en
ph em
Ġsy ll
ĠCom plement
Ġconvers ational
int ensity
ĠPre ferences
Ġcounter fe
Ġbur ied
ĠSam antha
Ġfire walls
ĠFe ature
Ġfem ales
Ġearth qu
Ġtrib ulations
Ġtur quoise
Ġbin omial
ĠScholars hip
ĠVolunte er
O mega
b est
m ate
Ġ ions
Ġd iction
ir con
Ġfor ensic
ĠT estim
ri ans
em akers
ĠP ick
un es
Ġsh aft
end ments
ep ower
ĠG ab
ass uming
cl aimed
Ġsub m
iss on
Ġdig itization
ĠAr g
ustain able
ren ia
Ġmodern ity
Ġmaxim izes
ĠKey word
Ġsn ap
Ġban anas
Ġproceed s
ĠBar b
ĠLo ad
fe el
Ġpermit ted
ĠLay er
ĠRecomm ended
ĠTele vision
Ġinquir y
count ry
T M
g ard
l ove
t echn
Ġto b
et ra
Ġr ap
Ġex udes
Ġfor e
ĠC ant
ĠE uro
ld ots
ĠN ob
Ġass ort
Ġref in
ash a
Ġsal mon
ros is
yl on
bi ased
Ġdivis ive
ĠNegoti ating
ĠLic ensing
ĠConfig uration
ĠTru th
ĠHass an
allerg enic
4 1
4 3
B ook
P ol
S te
l aw
v iol
Ġc ott
or ations
Ġm ice
Ġn oodles
Ġex or
ag ency
ĠB us
ĠF al
ĠF le
est ablish
ĠL ost
ĠL ives
ĠO A
Ġfe ared
Ġexpl osion
ĠJ u
pt u
ĠIm per
Ġliv est
ĠEm otion
ĠAr my
ĠRe vel
Ġvisual izing
ĠRec ipe
ĠAcc ounts
ĠAss urance
ĠPre venting
Ġarg ues
Ġsepar ates
zz y
Ġattribut able
ĠMet a
Ġcompens ate
ĊĠĠĠĠ ĊĠĠĠ
Ġlean ing
ĠDet ection
ĠTake aways
Ġdoor step
Ġly rical
ĠHot els
Ġcorrec tions
Ġstation ary
Ġlip id
Go ogle
Ġlawsu its
ĠPand emic
Ġdownt urns
6 00
b as
u istic
Î ²
Ġd rones
Ġb achelor
ĠF it
ĠR S
Ġun ite
Ġsp ouse
Ġinv itations
** .
Ġneed n
Ġfl av
Ġcomb inator
Ġann als
Ġopp ressive
Ġnu ance
Ġgar nering
ĠAb use
Ġuns ec
Ġ199 5
Ġpal p
aph rag
Ġtom ato
Ġirre vers
eps ilon
Ġaggreg ate
Ġassemb led
ĠControvers ies
r ide
r ho
al ur
ro ads
Ġh acking
ĠS atisfaction
ĠI l
ĠF ans
ĠW isconsin
Ġcol der
Ġexp onents
Ġimport ed
Ġskill ful
Ġmulti dimensional
Ġdecis ive
Ġ4 2
Ġbroad casting
Ġview point
Ġstri fe
ym b
rep id
Ġfar away
ĠZ e
ĠMar ine
ĠAll ocate
Ġpal ates
Ġindustrial ization
Ġcategor izing
Ġmerch ants
dem and
Ġanalog ous
ĠBol t
Ġaccred ited
Ġmish aps
Ġslee ves
ĠIsa iah
Ġtelecomm unications
C omb
Q ues
W HO
Ġs ink
it ate
Ġl ane
as ks
Ġst a
Ġcom orbid
ĠI C
Ġch ic
ĠB unny
Ġab ode
Ġso fter
ĠK han
Ġsim ulating
Ġprot otypes
Ġanaly tic
ĠRec ycling
Ġtem ples
Ġacqu ainted
Ġland ed
ĠProg ressive
ĠDiscuss ing
ĠDep ression
ĠÂ ±
Ġaband oning
Ġpunct uated
ois se
Ġbluep rints
Ġcommend able
Ġunsec ured
T ext
s ervices
Ġc ache
Ġm arch
im ize
Ġst arch
Ġpro se
ĠA A
Ġ( +
Ġdis illusion
Ġwor st
Ġro sters
Ġbel ts
Ġris es
ĠWe ak
Ġintern ship
port ed
ĠRec ording
Ex ercise
ĠEng aging
Ġpsych ologist
Ġelev ation
Ġic ons
och astic
Ġfat alities
Ġreplic a
Ġgal van
theast ern
ĠPhilipp ines
Ġentrust ed
udd led
Ġinterrup tions
Ġnic ely
Ġscrip ting
ĠNep al
T able
p res
p ointing
u f
Ġb acon
Ġl ust
Ġg ums
Ġon wards
ot en
ĠTh emes
ĠG ulf
Ġper oxide
Ġdisc s
ĠV ene
Ġcur ating
Ġpop ulated
ĠSh el
Ġbas king
20 13
ĠEnc ounter
Ġmatch ed
val ence
Ġsqu ash
Ġtax p
Ġprob ing
}\ \
ĠAb raham
Ġfru ity
Ġrul ed
Ġretreat s
Ġrect angles
Ġhal t
Tra ditional
ĠConcept ual
Ġprioritiz ed
Ġincentiv ize
U r
w estern
Ġt ending
ol utely
ĠT ab
ĠS yd
ĠD B
ĠR ick
ĠG reg
Ġar ter
Ġk m
ici ency
Ġrecogn izable
Ġgr in
az i
Ġsing les
ĠZ en
Ġpsych otherapy
ĠGuid ance
ĠPerform ances
Ġtack les
Ġdivid end
Ġreason ably
Ġep it
Ġaren a
Ġexplo ited
Ġbed time
ĠReview ing
Ġcomplic ate
ĠIndust ries
Ġsenti mental
ĠRest ric
Ġcru ising
Ġdefe ated
Ġatmospher es
Ġcrush ed
Ġlob bying
Ġski ing
Ġador able
oen ix
Ġtrailbl az
S ur
b ases
Ġb izarre
Ġg ifting
ĠM arsh
Ġsh ooter
Ġun su
ĠG oth
ĠK at
oid al
Ġeconom ically
Ġsolid s
Ġtre k
Ġhol iness
ĠMar co
set t
ĠProg ression
ĠFl ash
}} $
ĠOut reach
ino a
ĠComb ined
ĠPort folio
Ġdispl aced
Ġdiscl osing
ĠChe ese
Ġorient ations
Ġster ile
Ġhing e
Ġplag ued
ĠMountain s
Ġteen agers
Ġprototyp e
Cal c
Ġlawsu it
Ġdecom position
Ġbenefici aries
L ED
h aul
s is
Ġb end
Ġst ellar
ab out
ĠC op
ĠB ry
ĠF ishing
ĠR oh
Ġse iz
rom ptu
low er
Ġbo ts
Ġcommun ion
Ġspec tral
ĠCh i
Ġexp iration
rac ious
Ġref rain
ik ers
Ġclean ed
ĠBl anc
Ġpropos ing
ĠCri tique
Ġcannab inoids
Ġtro ops
ĠGit Hub
Prom oting
ĠSwed en
Ġultr asound
Ġevangel ism
E th
G ra
g ate
Ġf olding
Ġw est
Ġr ins
os opher
Ġor anges
Ġcont acting
ĠH ong
Ġstr ide
Ġab ack
Ġcomm ence
Ġunder taking
ĠN A
Ġop ulence
Ġhigh way
Ġed ible
els on
Ġgener ational
Ġbroad ens
Ġprogress ions
ĠOr leans
Ġmedic ines
Ġtable top
ung le
ĠExp ressing
Ġtire less
Ġdiscl osures
Ġyes ter
ĠStrength s
Ġorth op
rif ication
ĠHall oween
Ġtoxic ity
ĠVictor ia
---------------------------------------- -
Ġcub es
Ġfragment ation
ĠCook ies
Ġphilanthrop ic
ĠTransition ing
Ġecc entric
represent ation
Ġcurveball s
G reen
\ ]
b b
s ur
en er
st an
om i
as por
ow a
ĠT ar
ĠS port
ri ages
ĠB urn
ĠE X
og g
ĠL ength
ĠL iber
Ġsp are
Ġprof essors
Ġsub group
Ġiss u
Ġemploy ability
Ġfil ed
Ġstay ed
Ġmotiv ational
Ġviol ating
Ġchat ting
Mod ule
Ġdele te
Ġfron tier
ĠMuslim s
ĠTail oring
Ġenvelop e
Ġlav ish
Ġinven tions
Ġadvertis ers
Ġretros pect
Ġcob bl
ĠAdvers ity
Ġtob acco
es ides
id al
ul er
ver ted
pl ays
Ġint repid
ĠR ey
Ġapp rentices
Ġimp romptu
Ġup scale
Ġsc ars
ph ere
ĠSt at
ici ary
Ġid i
Ġemb races
ris ts
Ġdep ictions
Ġend oc
Ġmet er
Ġconsist ed
ĠRe place
wh ite
ĠSh ift
oph renia
Ġclim b
Ġfear ing
Ġdiss ent
pe ak
Ġpen ned
ĠÎ ²
Ġrepair ing
ĠEff ect
ĠCam bridge
ĠSM ART
Ġdeduc tions
Ġaccred itation
ĠAlgorith ms
Ġunm atched
lide an
M ind
b oy
m ir
} -\
Ġo mega
Ġl ace
ĠS ent
ĠB eg
Ġcomp iled
Ġne urop
Ġdis inf
ĠG irl
Ġsp elling
ten tional
ey e
ili ary
Ġstar ter
ĠDes k
Ġlit eral
Ġcontain ment
Ġcy t
use ment
emp tive
Ad vantages
reg ulated
Ġcontract or
Ġmagn ets
Ġholding s
ĠCalc ulating
Ġplag iarism
Del ving
Ġdece ased
Ġsumm aries
Ġmagaz ines
Ġepid em
Ġevac uation
Ġwiki How
. ),
E r
d d
m i
m ia
Ġb ull
Ġh ips
ĠM T
og s
Ġins ert
ne goti
Ġdisc overs
Ġdec oration
Ġpot assium
Ġthere of
Ġco il
Ġcor es
Wh ere
Ġidentif ier
Ġparticip atory
ĠAc id
Ġnow here
Ġspir al
Ġdesc ent
Ġpred atory
-------------------------------- ------------------
Ġair ports
Ch ild
Ġ8 5
ĠGe ographical
ĠIll inois
ĠLiter acy
Ġstabil ization
ĠGraph ics
Ġrall ied
GD PR
ĠKub ernetes
H ead
J ake
e on
f ox
n uts
o j
p ting
Ġf aded
Ġin ject
Ġd ub
Ġd read
Ġm ud
ent ine
Ġon ion
ad ic
Ġup keep
Ġsc ary
Ġspec ulative
Ġdec ad
Ġmul tiv
tif ies
Ġred ist
ĠHar old
ĠMin imizing
Ġpal m
ĠMag az
Ġneuro science
ĠSl ack
Ġfold ers
Me et
---------------------------------------- ---
ĠStri king
ĠDiet ary
T ype
V ol
Î »
in ner
Ġs its
Ġc ass
or ance
it ability
Ġb ru
Ġal phab
Ġbe ad
Ġch urn
ĠB eng
ĠF ill
Ġun biased
Ġop io
** ,
ub le
iness e
rac ting
ĠK id
Ġincre ment
Ġdef y
ĠCl inton
Ġbas eline
Ġfire f
yl um
ĠDet roit
Ġimpar tiality
Mr s
Ġpropag ation
Ġcontrad ict
Ġcow ork
ĠAttor ney
Ġenact ed
( {
V er
l uster
r angle
y roid
Ġb ios
Ġre aff
ĠC ars
ap tive
ĠW ik
Ġse aled
ach t
ĠN ap
Ġk g
ect omy
Ġplay back
Ġfl ock
Th ink
str ing
Ġ\ (\
Ġded icate
ĠStud ios
Ġpo pped
Ġadop ters
ĠZ one
Ġfig uring
ĠPr int
Ġexplo its
Al tern
Ġload ed
ĠMedic aid
-------------------- ---
ĠVol ume
Ġdiges tible
Ġcru el
ĠJen ny
Ġhors epower
Ġleak age
Ġcolon ization
Aut om
prom otion
Ġsincer ity
ĠAdvance ments
ĠBound aries
Ġsecl uded
v ignon
Î ¼
er ates
on ed
es ign
Ġp endants
an ticip
Ġin ad
Ġe g
ic ted
ur ved
ĠE leanor
ĠR ent
Ġpl umbing
Ġdis l
ati t
ph p
ĠJ enn
get s
Ġoff spring
Ġcur ate
ee ks
ĠAnd erson
ĠCol lecting
Ġfund ed
Ġeth n
Ġcy bers
oyal ty
Ġfaith fulness
Ġexcl uding
Ġweek ends
met ry
Ġcrow ns
ĠBo asting
Ġstret ched
Ġkn ack
Ġjump ed
Ġslic ed
Ġnostalg ic
Ġantib iotics
ĠPlace ment
Ġum ami
May be
Gl obal
oton in
Ġreevalu ate
p ts
s ets
t ri
Ġn ail
ir lo
Ġon set
ĠR andom
Ġse vent
ue z
Ġk illing
Ġinv al
Ġno ises
Ġdist orted
Ġexc elling
ĠSu ite
ĠCommun icating
ĠAll ocation
Ġdream ed
ĠOut put
Ġpul se
ĠAust in
Pl an
Ġgest ure
ĠBro ok
Ġtele phone
Ben ny
ĠCoord inating
Access ibility
Hist orically
ĠBuddh ist
Ġpanc re
Ġloun ging
Spec ific
Recogn izing
Ġa uctions
ol n
Ġn ested
ĠC rown
am an
em ploy
ĠR aw
Ġcont enders
ĠN ormal
Ġrem un
Ġdist raction
Ġiss uing
ĠCol omb
Ġsound ed
Ġbegin ner
20 20
At t
Ġleft over
ĠLe ban
Ġgam ification
Ġrestr ucturing
Ġcredit worthiness
Ġlat tice
Ġban ana
Ġscr ub
asm ine
Ġ199 1
Ġmark up
Ġrecre ating
ĠContinu ing
Ġtreas ured
Ġcalm ness
Ġdissem inate
ĠMind set
ĠMary land
Ġsupre m
Ke ep
Ġcorrid ors
Ġunat tainable
T O
c m
Ġs ins
or ption
ar at
uc ch
ĠS ri
ĠM itigation
ud inal
Ġinter mitt
Ġrem oves
Ġmo tives
Ġlit urgical
Ġge ological
[...]
