{"<|endoftext|>":0,"!":1,"\"":2,"#":3,"$":4,"%":5,"&":6,"'":7,"(":8,")":9,"*":10,"+":11,",":12,"-":13,".":14,"/":15,"0":16,"1":17,"2":18,"3":19,"4":20,"5":21,"6":22,"7":23,"8":24,"9":25,":":26,";":27,"<":28,"=":29,">":30,"?":31,"@":32,"A":33,"B":34,"C":35,"D":36,"E":37,"F":38,"G":39,"H":40,"I":41,"J":42,"K":43,"L":44,"M":45,"N":46,"O":47,"P":48,"Q":49,"R":50,"S":51,"T":52,"U":53,"V":54,"W":55,"X":56,"Y":57,"Z":58,"[":59,"\\":60,"]":61,"^":62,"_":63,"`":64,"a":65,"b":66,"c":67,"d":68,"e":69,"f":70,"g":71,"h":72,"i":73,"j":74,"k":75,"l":76,"m":77,"n":78,"o":79,"p":80,"q":81,"r":82,"s":83,"t":84,"u":85,"v":86,"w":87,"x":88,"y":89,"z":90,"{":91,"|":92,"}":93,"~":94,"¡":95,"¢":96,"£":97,"¤":98,"¥":99,"¦":100,"§":101,"¨":102,"©":103,"ª":104,"«":105,"¬":106,"®":107,"¯":108,"°":109,"±":110,"²":111,"³":112,"´":113,"µ":114,"¶":115,"·":116,"¸":117,"¹":118,"º":119,"»":120,"¼":121,"½":122,"¾":123,"¿":124,"À":125,"Á":126,"Â":127,"Ã":128,"Ä":129,"Å":130,"Æ":131,"Ç":132,"È":133,"É":134,"Ê":135,"Ë":136,"Ì":137,"Í":138,"Î":139,"Ï":140,"Ð":141,"Ñ":142,"Ò":143,"Ó":144,"Ô":145,"Õ":146,"Ö":147,"×":148,"Ø":149,"Ù":150,"Ú":151,"Û":152,"Ü":153,"Ý":154,"Þ":155,"ß":156,"à":157,"á":158,"â":159,"ã":160,"ä":161,"å":162,"æ":163,"ç":164,"è":165,"é":166,"ê":167,"ë":168,"ì":169,"í":170,"î":171,"ï":172,"ð":173,"ñ":174,"ò":175,"ó":176,"ô":177,"õ":178,"ö":179,"÷":180,"ø":181,"ù":182,"ú":183,"û":184,"ü":185,"ý":186,"þ":187,"ÿ":188,"Ā":189,"ā":190,"Ă":191,"ă":192,"Ą":193,"ą":194,"Ć":195,"ć":196,"Ĉ":197,"ĉ":198,"Ċ":199,"ċ":200,"Č":201,"č":202,"Ď":203,"ď":204,"Đ":205,"đ":206,"Ē":207,"ē":208,"Ĕ":209,"ĕ":210,"Ė":211,"ė":212,"Ę":213,"ę":214,"Ě":215,"ě":216,"Ĝ":217,"ĝ":218,"Ğ":219,"ğ":220,"Ġ":221,"ġ":222,"Ģ":223,"ģ":224,"Ĥ":225,"ĥ":226,"Ħ":227,"ħ":228,"Ĩ":229,"ĩ":230,"Ī":231,"ī":232,"Ĭ":233,"ĭ":234,"Į":235,"į":236,"İ":237,"ı":238,"Ĳ":239,"ĳ":240,"Ĵ":241,"ĵ":242,"Ķ":243,"ķ":244,"ĸ":245,"Ĺ":246,"ĺ":247,"Ļ":248,"ļ":249,"Ľ":250,"ľ":251,"Ŀ":252,"ŀ":253,"Ł":254,"ł":255,"Ń":256,"in":257,"Ġt":258,"Ġa":259,"er":260,"on":261,"es":262,"en":263,"ti":264,"ing":265,"Ġs":266,"Ġc":267,"Ġth":268,"or":269,"al":270,"nd":271,"re":272,"Ġp":273,"it":274,"Ġo":275,"at":276,"Ġthe":277,"ed":278,"an":279,"tion":280,"Ġand":281,"Ġf":282,"Ġin":283,"ar":284,"ou":285,"Ġw":286,"is":287,"Ġd":288,"Ġm":289,"le":290,"Ġb":291,"ro":292,"Ġto":293,"Ġe":294,"ic":295,"ent":296,"Ġof":297,"Ġh":298,"st":299,"om":300,"ation":301,"ac":302,"el":303,"ec":304,"Ġre":305,"ur":306,"il":307,"et":308,"Ġl":309,"ly":310,"ers":311,"ess":312,"id":313,"ig":314,"as":315,"ol":316,"Ġu":317,"ce":318,"ve":319,"im":320,"Ġcon":321,"th":322,"Ġn":323,"ow":324,"Ġg":325,"ul":326,"Ġst":327,"Ġpro":328,"Ġr":329,"ir":330,"ment":331,"Ġex":332,"--":333,"Ġfor":334,"ver":335,"ĠT":336,"uc":337,"ts":338,"ra":339,"ĠA":340,"ity":341,"ith":342,"Ġwh":343,"Ġcom":344,"ab":345,"ĠS":346,"us":347,"ĠC":348,"am":349,"ate":350,"Ġv":351,"ut":352,"Ġen":353,"Ġon":354,"ter":355,"qu":356,"pp":357,"ag":358,"Ġwith":359,"Ġy":360,"ay":361,"tic":362,"ri":363,"os":364,"em":365,"Ġas":366,"our":367,"if":368,"ĠI":369,"ion":370,"ain":371,"ad":372,"Ġal":373,"igh":374,"Ġor":375,"oc":376,"ot":377,"ations":378,"ĠTh":379,"and":380,"pl":381,"for":382,"Ġac":383,"Ġit":384,"Ġan":385,"'s":386,"Ġbe":387,"ĠP":388,"ke":389,"iz":390,"Ġch":391,"ĠB":392,"un":393,"ies":394,"ĠM":395,"od":396,"Ġle":397,"ting":398,"rou":399,"ch":400,"iti":401,"Ġres":402,"ure":403,"ance":404,"iv":405,"um":406,"Ġint":407,"ust":408,"Ġde":409,"op":410,"----":411,"Ġthat":412,"tions":413,"ĠE":414,"Ġim":415,"per":416,"Ġad":417,"ud":418,"Ġcomp":419,"gh":420,"Ġsh":421,"ous":422,"Ġis":423,"ial":424,"Ġtheir":425,"ap":426,"ist":427,"ĠF":428,"pec":429,"ĠD":430,"og":431,"tive":432,"all":433,"ating":434,"vel":435,"ere":436,"ant":437,"ĠR":438,"ign":439,"Ġus":440,"Ġ(":441,"Ġpr":442,"ĠW":443,"Ġcont":444,"ard":445,"Ġun":446,"able":447,"ese":448,"est":449,"enti":450,"Ġse":451,"ill":452,"ĠH":453,"ore":454,"end":455,"king":456,"ical":457,"age":458,"ine":459,"Ġcan":460,"ip":461,"ort":462,"are":463,"ence":464,"out":465,"rom":466,"Ġne":467,"ld":468,"Ġwe":469,"Ġtr":470,"Ġinc":471,"Ġpl":472,"Ġapp":473,"Ġby":474,"enc":475,"Ġthis":476,"ual":477,"ach":478,"ge":479,"ans":480,"ff":481,"Ġimp":482,"ĠL":483,"form":484,"cess":485,"Ġem":486,"Ġyour":487,"ther":488,"Ġdis":489,"Ġyou":490,"duc":491,"ents":492,"ong":493,"Ġat":494,"ves":495,"act":496,"Ġstr":497,"ile":498,"Ġhe":499,"Ġab":500,"Ġwor":501,"ens":502,"fer":503,"ost":504,"ib":505,"ities":506,"ight":507,"Ġsu":508,"Ġfrom":509,"ated":510,"ments":511,"Ġcons":512,"nder":513,"rough":514,"ide":515,"ep":516,"ors":517,"anc":518,"ast":519,"Ġsuc":520,"ome":521,"ue":522,"uring":523,"ĠO":524,"Ġinto":525,"âĢ":526,"ility":527,"Ġpar":528,"av":529,"ition":530,"Ġthese":531,"Ġcomm":532,"low":533,"ks":534,"ful":535,"Ġind":536,"ĠG":537,"Ġinter":538,"her":539,"ĠU":540,"ential":541,"Ġev":542,"Ġare":543,"ech":544,"Ġj":545,"Ġme":546,"ary":547,"ike":548,"Ġman":549,"ie":550,"ons":551,"Ġthey":552,"ind":553,"Ġsp":554,"Ġcre":555,"Ġar":556,"lec":557,"Ġits":558,"Ġcl":559,"ati":560,"ire":561,"ious":562,"Ġunder":563,"ell":564,"ĠIn":565,"ive":566,"over":567,"Ġpre":568,"ress":569,"--------":570,"ĠN":571,"Ġper":572,"ail":573,"ear":574,"Ġro":575,"Ġprov":576,"ures":577,"Ġthrough":578,"ack":579,"ace":580,"Ġbet":581,"oun":582,"ific":583,"tim":584,"ould":585,"Ġdes":586,"ĠThe":587,"Ġour":588,"ning":589,"ally":590,"Ġup":591,"ely":592,"ted":593,"Ġtra":594,"Ġover":595,"ark":596,"ms":597,"Ġbo":598,"Ġexper":599,"stand":600,"ass":601,"Ġlike":602,"echn":603,"Ġqu":604,"Ġk":605,"tain":606,"ry":607,"Ġrec":608,"Ġabout":609,"ates":610,"Ġins":611,"ult":612,"Ġinv":613,"les":614,"Ġser":615,"ich":616,"we":617,"olog":618,"Ġsuch":619,"ving":620,"ne":621,"ose":622,"Ġrel":623,"velop":624,"ple":625,"lic":626,"Ġreg":627,"Ġhow":628,"Ġam":629,"ave":630,"Ġcol":631,"Ġop":632,"se":633,"ges":634,"Ġma":635,"ding":636,"Ġfe":637,"Ġincl":638,"ish":639,"Ġtim":640,"ater":641,"iqu":642,"**":643,"hip":644,"ia":645,"In":646,"Ġwhile":647,"Ġexpl":648,"Ġout":649,"Ġdisc":650,"ions":651,"Ġwhen":652,"round":653,"ular":654,"Ġtechn":655,"oo":656,"Ġsc":657,"Ġrem":658,"tr":659,"ect":660,"ound":661,"Ġtrans":662,"dition":663,"ative":664,"Ġsign":665,"Ġ-":666,"als":667,"ase":668,"ider":669,"ph":670,"eg":671,"ween":672,"now":673,"ĠThis":674,"rib":675,"ond":676,"row":677,"he":678,"ite":679,"ateg":680,"ory":681,"Ġthem":682,"ower":683,"Ġbetween":684,"Ġvar":685,"tiv":686,"Ġeff":687,"ings":688,"pport":689,"Ġcommun":690,"one":691,"Ġ\"":692,"Ġacc":693,"ever":694,"ten":695,"ences":696,"Ġall":697,"ues":698,"Ġinclud":699,"Ġsy":700,"ward":701,"ys":702,"ience":703,"Ġass":704,"Ġhigh":705,"Ġval":706,"ĠBy":707,"tical":708,"ruc":709,"Ġdevelop":710,"Ġpos":711,"Ġwill":712,"Ġens":713,"ef":714,"Ġmore":715,"Ġ2":716,"ĠJ":717,"Ġadv":718,"Ġpers":719,"ough":720,"ivid":721,"Ġ1":722,"cl":723,"ss":724,"ĠâĢ":725,"Ġso":726,"alth":727,"Ġrep":728,"Ġspec":729,"elf":730,"ays":731,"ov":732,"Ġdec":733,"Ġever":734,"ability":735,"Ġte":736,"its":737,"ased":738,"Ġinst":739,"ĠWh":740,"ging":741,"standing":742,"ub":743,"oy":744,"Ġpot":745,"ath":746,"Ġhave":747,"Ġhel":748,"Ġrequ":749,"Ġprovid":750,"Ġsome":751,"ak":752,"res":753,"Ġnot":754,"Ġstud":755,"Ġeng":756,"ational":757,"Ġag":758,"ood":759,"ice":760,"Ġexam":761,"ĠĠ":762,"ividual":763,"gan":764,"ĠCh":765,"ĠSt":766,"Ġher":767,"ness":768,"art":769,"Ġdif":770,"Ġlead":771,"pt":772,"eth":773,"iness":774,"Ġlear":775,"allen":776,"ize":777,"stem":778,"arket":779,"Ġindividual":780,"Ġpotential":781,"Ġph":782,"Ġthere":783,"led":784,"Ġknow":785,"Ġduring":786,"get":787,"Ġbec":788,"Ġsignific":789,"ality":790,"Ġhelp":791,"ering":792,"Ġboth":793,"Ġexp":794,"Ġproduc":795,"Ġnew":796,"Ġone":797,"oin":798,"Ġprac":799,"Ġtime":800,"Ġprom":801,"Ġappro":802,"tern":803,"izing":804,"Ġhas":805,"Ġother":806,"ric":807,"Ġoff":808,"Ġvarious":809,"ĠâĢĵ":810,"ights":811,"Ġbut":812,"til":813,"ob":814,"Ġstrateg":815,"'t":816,"so":817,"Ġconsider":818,"ized":819,"Ġwho":820,"wor":821,"Ġwhich":822,"ices":823,"Ġdesign":824,"Ġprocess":825,"ining":826,"Ġchallen":827,"ven":828,").":829,"Ġdo":830,"Ġmain":831,"ines":832,"Ġhealth":833,"Ġset":834,"Ġhis":835,"Ġwithin":836,"ata":837,"Ġwas":838,"ection":839,"Ġwhere":840,"ber":841,"Ġthan":842,"Ġmod":843,"usion":844,"Ġinvol":845,"Ġneed":846,"ci":847,"Ġmay":848,"Ġallow":849,"Ġsk":850,"Ġdiffer":851,"rac":852,"Ġpres":853,"ty":854,"ise":855,"Ġgen":856,"ame":857,"Ġpol":858,"Ġevery":859,"ency":860,"usiness":861,"ĠAd":862,"Ġdel":863,"ake":864,"irst":865,"Ġsoc":866,"Ġalso":867,"ling":868,"ern":869,"por":870,"yp":871,"lex":872,"ible":873,"ural":874,"ross":875,"ĠK":876,"Ġbu":877,"ĠAs":878,"Ġsur":879,"Ġsol":880,"Ġany":881,"xt":882,"Ġsim":883,"ĠV":884,"Ġplay":885,"ently":886,"ital":887,"Ġdem":888,"Ġke":889,"Ġchan":890,"Ġprof":891,"Ġwhat":892,"fore":893,"Ġresp":894,"onal":895,"Ġcare":896,"Ġadd":897,"ution":898,"Ġinf":899,"Ġincre":900,"Ġcould":901,"Ġpartic":902,"ved":903,"ĠCon":904,"tics":905,"Ġno":906,"ount":907,"urther":908,"Ġsystem":909,"agement":910,"Ġloc":911,"ree":912,"arm":913,"Ġmarket":914,"ivers":915,"ĠEx":916,"Ġob":917,"ribut":918,"Ġsignificant":919,"old":920,"ances":921,"Ġreal":922,"Ġsa":923,"roduc":924,"Ġgrow":925,"Ġworld":926,"oring":927,"ĠHow":928,"ici":929,"Ġref":930,"ct":931,"ages":932,"Ġeffec":933,"Ġfac":934,"ocus":935,"Ġvis":936,"Ġdet":937,"ology":938,"ces":939,"own":940,"Ġinform":941,"aging":942,"Ġco":943,"iew":944,"Ġsuccess":945,"aking":946,"ends":947,"Ġcap":948,"ustom":949,"ĠFor":950,"wards":951,"Ġsub":952,"),":953,"Ġequ":954,"ique":955,"Ġmed":956,"Ġorgan":957,"Ġmo":958,"Ġwork":959,"clusion":960,"par":961,"ication":962,"Ġenc":963,"Ġbusiness":964,"ĠCom":965,"Ġess":966,"Ġdata":967,"Ġimpro":968,"ands":969,"ically":970,"ately":971,"Ġsec":972,"ourse":973,"Ġthose":974,"ang":975,"pect":976,"Ġfin":977,"Ġed":978,"Ġtw":979,"Ġoffer":980,"Ġeven":981,"vely":982,"ft":983,"Ġgu":984,"The":985,"Ġlet":986,"Ġform":987,"unc":988,"Ġfost":989,"pportun":990,"Ġfocus":991,"wn":992,"ĠIt":993,"Ġprog":994,"ics":995,"Ġsm":996,"Ġ$":997,"ĠUn":998,"Ġeach":999,"Ġenh":1000,"Ġmy":1001,"less":1002,"ization":1003,"ily":1004,"reat":1005,"Ġnum":1006,"ĠThese":1007,"tional":1008,"ying":1009,"Ġimport":1010,"Ġcontin":1011,"Ġperform":1012,"uss":1013,"Ġamong":1014,"Ġconn":1015,"fter":1016,"ild":1017,"----------------":1018,"ared":1019,"Ġunderstanding":1020,"Ġbl":1021,"other":1022,"erg":1023,"ord":1024,"Ġmaintain":1025,"Ġconf":1026,"Ġpower":1027,"ĠAn":1028,"ĠPro":1029,"tit":1030,"abor":1031,"Ġent":1032,"Ġrespons":1033,"Ġmight":1034,"Ġopportun":1035,"ties":1036,"iting":1037,"Ġessential":1038,"Ġpe":1039,"II":1040,"itions":1041,"Ġusing":1042,"ĠEn":1043,"ety":1044,"ram":1045,"vers":1046,"ature":1047,"Ġcustom":1048,"Ġsee":1049,"Ġben":1050,"Ġcur":1051,"iron":1052,"Ġdist":1053,"Ġif":1054,"Ġanal":1055,"ather":1056,"ife":1057,"ook":1058,"line":1059,"te":1060,"Ġincluding":1061,"ources":1062,"erm":1063,"Ġunique":1064,"ps":1065,"ollow":1066,"Ġgo":1067,"Ġfl":1068,"Ġid":1069,"Ġ20":1070,"Ġconc":1071,"aw":1072,"aus":1073,"utions":1074,"ols":1075,"lish":1076,"rucial":1077,"com":1078,"entif":1079,"ditional":1080,"Ġdue":1081,"ilities":1082,"viron":1083,"Ġexperi":1084,"Ġapproach":1085,"Ġcrucial":1086,"ru":1087,"ĠY":1088,"Ġcontribut":1089,"egr":1090,"Ġoften":1091,"Ġmul":1092,"Ġtowards":1093,"Ġback":1094,"Ġfunc":1095,"Ġcult":1096,"iss":1097,"Ġrelations":1098,"Ġinn":1099,"Ġdevelopment":1100,"Ġaccess":1101,"Ġserv":1102,"Ġskill":1103,"Ġacross":1104,"jec":1105,"ession":1106,"Ġtyp":1107,"rol":1108,"ĠHowever":1109,"Ġmin":1110,"ibility":1111,"Ġaround":1112,"els":1113,"ples":1114,"labor":1115,"tices":1116,"Ġfact":1117,"Ġrole":1118,"Ġchar":1119,"Ġtwo":1120,"ied":1121,"ead":1122,"Ġremain":1123,"Ġele":1124,"Ġgl":1125,"ble":1126,"Ġbenef":1127,"ffor":1128,"Ġfollow":1129,"ploy":1130,"Ġmem":1131,"Ġenviron":1132,"Ġeduc":1133,"Ġemb":1134,"Ġbeh":1135,"ĠIm":1136,"ick":1137,"Ġgener":1138,"ories":1139,"iel":1140,"Ġchallenges":1141,"ether":1142,"Ġiss":1143,"ism":1144,"Ġdifferent":1145,"Ġshe":1146,"cep":1147,"Ġfind":1148,"Ġmulti":1149,"acy":1150,"ris":1151,"urn":1152,"hips":1153,"Ġapplic":1154,"Ġlong":1155,"Ġpersonal":1156,"ets":1157,"con":1158,"Ġgrowth":1159,"oura":1160,"Ġstrategies":1161,"Ġexperience":1162,"Ġsever":1163,"Ġprot":1164,"Ġgra":1165,"ination":1166,"asing":1167,"cc":1168,"Ġpur":1169,"Ġhum":1170,"Ġbefore":1171,"ew":1172,"Ġear":1173,"atch":1174,"Ġmus":1175,"atform":1176,"Ġdiscuss":1177,"ases":1178,"Ġrequire":1179,"eng":1180,"roduction":1181,"Ġpart":1182,"Ġav":1183,"Ġatt":1184,"Ġdecis":1185,"Ġlearn":1186,"iques":1187,"uth":1188,"Ġpri":1189,"ey":1190,"earch":1191,"bers":1192,"air":1193,"Ġhist":1194,"Th":1195,"Ġindividuals":1196,"app":1197,"Ġbr":1198,"Ġ&":1199,"Ġown":1200,"ĠWith":1201,"Ġiniti":1202,"Ġoper":1203,"red":1204,"Ġoverall":1205,"ĠAl":1206,"Ġsaf":1207,"Ġmany":1208,"oci":1209,"ecess":1210,"Ġmake":1211,"itive":1212,"Ġcomplex":1213,"ield":1214,"Ġrepres":1215,"Ġjust":1216,"Ġintegr":1217,"Ġinnov":1218,"ants":1219,"Ġkey":1220,"Ġest":1221,"Ġpractices":1222,"Ġext":1223,"Ġpromot":1224,"Ġbased":1225,"Ġcle":1226,"Ġdep":1227,"Ġlo":1228,"Ġopportunities":1229,"Ġdivers":1230,"Ġteam":1231,"Ġregard":1232,"Ġmust":1233,"Ġdown":1234,"Ġexc":1235,"Ġaddress":1236,"ertain":1237,"Ġlearning":1238,"Ġresearch":1239,"Ġproper":1240,"Ġdef":1241,"Ġcor":1242,"Ġfirst":1243,"ogn":1244,"Ġposs":1245,"ablish":1246,"ape":1247,"Ġbre":1248,"ublic":1249,"St":1250,"Ġprovide":1251,"Ġwithout":1252,"uch":1253,"Ġagain":1254,"Ġonly":1255,"str":1256,"tively":1257,"Ġexplore":1258,"Ġsch":1259,"Ġ'":1260,"Ġinsights":1261,"day":1262,"Ġthroughout":1263,"oreover":1264,"ethod":1265,"Ġplatform":1266,"aterial":1267,"Ġensuring":1268,"Ġfam":1269,"As":1270,"Ġfound":1271,"ture":1272,"Ġwould":1273,"Ġpass":1274,"Ġcreate":1275,"view":1276,"lu":1277,"Ġliv":1278,"Ġstand":1279,"Ġbel":1280,"Ġend":1281,"Ġrele":1282,"Ġthough":1283,"Ġsocial":1284,"Ġalong":1285,"ancing":1286,"ength":1287,"Ġris":1288,"lement":1289,"Ġbeen":1290,".,":1291,"equ":1292,"Ġprofession":1293,"Ġfurther":1294,"ĠAm":1295,"Ġ=":1296,"uture":1297,"ĠCons":1298,"au":1299,"Ġcho":1300,"ited":1301,"Ġcollabor":1302,"Ġpop":1303,"Ġlife":1304,"Ġseveral":1305,"ledge":1306,"pects":1307,"anced":1308,"ĠWe":1309,"Ġlevel":1310,"Ġemp":1311,"Ġexample":1312,"Ġconnec":1313,"troduction":1314,"ade":1315,"Ġrequir":1316,"und":1317,"Ġplan":1318,"00":1319,"ental":1320,"Ġsupport":1321,"Ġreduc":1322,"ilar":1323,"âĢĶ":1324,"Ġindust":1325,"Ġinclude":1326,"Wh":1327,"Ġtechniques":1328,"tice":1329,"ending":1330,"tives":1331,"Ġemploy":1332,"Ġwell":1333,"ored":1334,"Ġparticular":1335,"Ġnecess":1336,"to":1337,"Ġsupp":1338,"itle":1339,"ex":1340,"Ġdig":1341,"ording":1342,"ined":1343,"lying":1344,"Ġconst":1345,"Ġhad":1346,"ier":1347,"Ġinformation":1348,"ian":1349,"Ġimpact":1350,"Ġskills":1351,"Ġresources":1352,"avig":1353,"Ġopen":1354,"Ġimm":1355,"ange":1356,"Ġhand":1357,"Ġeffor":1358,"Ġjour":1359,"Ġaw":1360,"Ġenab":1361,"Ġensure":1362,"Ġdire":1363,"ĠTo":1364,"Ġmethod":1365,"Ġmean":1366,"eness":1367,"fully":1368,"ĠWhile":1369,"Ġactiv":1370,".\"":1371,"ĠDe":1372,"Ġ3":1373,"Ġmaterial":1374,"Ġdeep":1375,"Ġsystems":1376,"ins":1377,"Ġcompan":1378,"ilding":1379,"Ġprev":1380,"Ġarti":1381,"ditionally":1382,"lect":1383,"Ġstudents":1384,"aring":1385,"atures":1386,"raph":1387,"Ġsens":1388,"Ġgain":1389,"Ġwere":1390,"Ġoffers":1391,"Ġassoci":1392,"Ġresul":1393,"Ġfactors":1394,"Ġpoin":1395,"ĠThey":1396,"ĠEm":1397,"Ġlocal":1398,"thers":1399,"Ġcompon":1400,"plic":1401,"Ġyear":1402,"Ġtake":1403,"ople":1404,"Ġfri":1405,"Ġ**":1406,"ock":1407,"Ġcommunity":1408,"ually":1409,"Ġsom":1410,"Ġanother":1411,"io":1412,"Ġoptim":1413,"Ġseem":1414,"mental":1415,"ĠThrough":1416,"Ġleg":1417,"Ġissues":1418,"Ġbetter":1419,"iver":1420,"Ġpolic":1421,"Ġprin":1422,"Ġvalu":1423,"##":1424,"Ġunderstand":1425,"Ġunit":1426,"Ġcri":1427,"ug":1428,"Ġafter":1429,"ior":1430,"Ġproviding":1431,"Ġway":1432,"Ġmost":1433,"ax":1434,"Ġexperiences":1435,"Ġcommunication":1436,"Ġcar":1437,"Ġagainst":1438,"ney":1439,"aving":1440,"Ġknowledge":1441,"Ġorganiz":1442,"Ġcourse":1443,"ething":1444,"Ġperformance":1445,"yond":1446,"Ġbeyond":1447,"Ġeffici":1448,"Ġtoo":1449,"Ġcreating":1450,"Ġmon":1451,"Ġimprove":1452,"ensive":1453,"Ġconsum":1454,"Ġregarding":1455,"Ġbra":1456,"Ġinflu":1457,"ember":1458,"Ġfuture":1459,"Ġidentif":1460,"Ġintern":1461,"onstr":1462,"Ġsomething":1463,"orpor":1464,"Ġtechnology":1465,"Ġestablish":1466,"ltim":1467,"Ġide":1468,"Ġaim":1469,"reci":1470,"yn":1471,"Ġmet":1472,"Ġcent":1473,"Ġweb":1474,"Ġgrou":1475,"Ġcontinu":1476,"Ġupon":1477,"Ġstruc":1478,"lection":1479,"Ġmanagement":1480,"Ġanaly":1481,"erv":1482,"ograph":1483,"Ġpublic":1484,"ject":1485,"Title":1486,"Step":1487,"Ġaspects":1488,"ists":1489,"Ġonline":1490,"Ġfostering":1491,"ditions":1492,"Ġtop":1493,"Ġcomb":1494,"Ġcontrol":1495,"Ġlim":1496,"Ġaff":1497,"Ġinstance":1498,"Ġdoes":1499,"ĠOne":1500,"Ġshow":1501,"ards":1502,"Ġless":1503,"acter":1504,"Ġmeas":1505,"âĢĻ":1506,"cept":1507,"Ġvalue":1508,"arch":1509,"Ġconsist":1510,"nderstanding":1511,"Ġothers":1512,"Ġread":1513,"Ġguid":1514,"Ġques":1515,"the":1516,"Ġbeing":1517,"ron":1518,"alu":1519,"amp":1520,"Ġgre":1521,"ĠAr":1522,"ink":1523,"Ġdemonstr":1524,"gether":1525,"Ġtogether":1526,"Ġaud":1527,"Ġpresent":1528,"Ġusers":1529,"Ġmarketing":1530,"Ġtools":1531,"elves":1532,"Ġfunction":1533,"ergy":1534,"To":1535,"Ġappreci":1536,"Ġpeople":1537,"inal":1538,"Ġservices":1539,"up":1540,"action":1541,"go":1542,"ological":1543,"Ġhuman":1544,"omes":1545,"Ġcall":1546,"Ġthen":1547,"Ġbenefits":1548,"Ġspecial":1549,"Ġdiverse":1550,"pir":1551,"ĠAdditionally":1552,"ner":1553,"Ġauth":1554,"pite":1555,"Ġdigital":1556,"ĠRe":1557,"Ġdri":1558,"aling":1559,"Ġbro":1560,"Ġself":1561,"Ġimportance":1562,"Ġcost":1563,"ancial":1564,"Ġsit":1565,"ix":1566,"Ġneeds":1567,"du":1568,"ince":1569,"Ġphys":1570,"Ġ\\":1571,"atic":1572,"ĠSo":1573,"care":1574,"Ġstep":1575,"Ġallows":1576,"Ġconclusion":1577,"Ġdi":1578,"ltimately":1579,"Ġassociated":1580,"Ġvaluable":1581,"Ġdev":1582,"ways":1583,"Ġbecome":1584,"Ġpati":1585,"ream":1586,"ĠMoreover":1587,"Ġtraditional":1588,"fact":1589,"Ġcommit":1590,"Ġpat":1591,"Ġday":1592,"ilit":1593,"ĠHe":1594,"Ġincorpor":1595,"Ġconcern":1596,"urity":1597,"ustain":1598,"ĠLet":1599,"Ġminim":1600,"ll":1601,"more":1602,"iec":1603,"Ġsmall":1604,"ash":1605,"Ġtal":1606,"Ġrepresent":1607,"Ġdiscover":1608,"Ġful":1609,"Ġspecific":1610,"Ġsignificantly":1611,"rit":1612,"Ġmaintaining":1613,"Ġtransform":1614,"port":1615,"hie":1616,"Ġused":1617,"atis":1618,"Ġhighl":1619,"Ġinvest":1620,"Ġachie":1621,"Ġelements":1622,"Ġbest":1623,"wh":1624,"ators":1625,"Ġencoura":1626,"ĠApp":1627,"Ġemo":1628,"arget":1629,"tract":1630,"pos":1631,"Ġbal":1632,"Ġnavig":1633,"atives":1634,"Ġcra":1635,"Ġmultiple":1636,"Ġsetting":1637,"Ġrelationships":1638,"work":1639,"Ġes":1640,"ced":1641,"elling":1642,"ren":1643,"Ġprim":1644,"ze":1645,"Ġimplement":1646,"ili":1647,"Ġcompe":1648,"ients":1649,"ired":1650,"Ġadap":1651,"ee":1652,"Ġleading":1653,"Ġbusinesses":1654,"Ġuser":1655,"Ġclos":1656,"Ġstar":1657,"Ġmaking":1658,"self":1659,"xim":1660,"eed":1661,"Ġshould":1662,"Con":1663,"Ġdirect":1664,"oot":1665,"Ġfeel":1666,"urthermore":1667,"Ġrecogn":1668,"Ġquality":1669,"Ġwhy":1670,"ysis":1671,"vity":1672,"ĠBut":1673,"Ġstrong":1674,"Ġstrength":1675,"vant":1676,"Ġeducation":1677,"Ġgover":1678,"Ġtravel":1679,"ests":1680,"ries":1681,"aces":1682,"ression":1683,"ĠĠĠĠ":1684,"Ġcase":1685,"Ġtoday":1686,"Ġincreasing":1687,"Ġexploring":1688,"Ġimportant":1689,"Ġcaus":1690,"omm":1691,"tle":1692,"Ġlar":1693,"Ġcomponents":1694,"ufact":1695,"idence":1696,"ption":1697,"reh":1698,"ĠAnd":1699,"ĠPl":1700,"istic":1701,"Ġparticip":1702,"ĠMan":1703,"Ġuse":1704,"Ġjourney":1705,"Ġinvolves":1706,"Ġmat":1707,"Ġplatforms":1708,"Ġcontribute":1709,"erc":1710,"Ġrequires":1711,"Ġsustain":1712,"Ġorganizations":1713,"ger":1714,"Ġseeking":1715,"Ġpoli":1716,"Ġsurround":1717,"read":1718,"Ġcertain":1719,"by":1720,"Ġmen":1721,"andsc":1722,"Ġefforts":1723,"ware":1724,"Ġregul":1725,"Ġ201":1726,"Ġmodern":1727,"ynam":1728,"Ġfinancial":1729,"Ġwhether":1730,"'re":1731,"ners":1732,"Ġsuccessful":1733,"One":1734,"Ġclass":1735,"jects":1736,"Ġhome":1737,"lecting":1738,"Ġgr":1739,"Ġavail":1740,"ooking":1741,"Ġter":1742,"Ġallowing":1743,"Ġcount":1744,"ciples":1745,"zing":1746,"Ġnet":1747,"ĠSh":1748,"Ġtarget":1749,"Ġproble":1750,"Ġenergy":1751,"Ġret":1752,"Ġindustry":1753,"inary":1754,"Ġcomes":1755,"Ġtrust":1756,"Ġsug":1757,"ration":1758,"Ġ4":1759,"Ġmade":1760,"be":1761,"Ġchange":1762,"ifically":1763,"fic":1764,"ters":1765,"Ġvalues":1766,"ios":1767,"Ġshared":1768,"Ġaut":1769,"Ġprefer":1770,"Ġmar":1771,"tention":1772,"Ġcommon":1773,"Ġutil":1774,"Ġmind":1775,"Ġconditions":1776,"Ġlandsc":1777,"Ġdetail":1778,"orical":1779,"Ġcharacter":1780,"ĠOn":1781,"ict":1782,"Ġmethods":1783,"Ġlevels":1784,"Ġgiv":1785,"ening":1786,"Ġfollowing":1787,"ĠDes":1788,"Ġtail":1789,"ik":1790,"actions":1791,"rop":1792,"erous":1793,"Ġprocesses":1794,"iety":1795,"ush":1796,"Ġfeatures":1797,"Ġdra":1798,"ĠFurthermore":1799,"Ġglob":1800,"ane":1801,"Ġoptions":1802,"irc":1803,"ĠWhen":1804,"Ġmeaning":1805,"Ġfield":1806,"ars":1807,"Ġsolutions":1808,"ĠUnderstanding":1809,"Ġfil":1810,"Ġcultural":1811,"Ġpiec":1812,"ĠComm":1813,"Ġprovides":1814,"Ġyet":1815,"Ġthought":1816,"Ġbehav":1817,"Ġpattern":1818,"Ġbuilding":1819,"oid":1820,"Ġclear":1821,"till":1822,"Ġtri":1823,"Ġel":1824,"ounter":1825,"isting":1826,"Ġill":1827,"ool":1828,"encies":1829,"Ġshap":1830,"Ġhim":1831,"Ġpopular":1832,"Ġdeterm":1833,"duce":1834,"Ġengagement":1835,"Ġprinciples":1836,"Ġscen":1837,"Ġdecision":1838,"Ġvers":1839,"ĠUnit":1840,"ĠStr":1841,"Ġsafety":1842,"Ġlook":1843,"Ġeffectively":1844,"Ġconcerns":1845,"ered":1846,"Ġmedia":1847,"An":1848,"Ġyears":1849,"Ġcommunities":1850,"phas":1851,"Ġbrand":1852,"fort":1853,"ĠInd":1854,"Ġsimilar":1855,"Ġrather":1856,"Ġenhance":1857,"Ġeffective":1858,"ĠTr":1859,"ah":1860,"olution":1861,"ext":1862,"Ġmaterials":1863,"Ġbroad":1864,":**":1865,"Ġproduct":1866,"Ġmove":1867,"eric":1868,"ource":1869,"Ġturn":1870,"orts":1871,"asc":1872,"Ġconnections":1873,"Ġnecessary":1874,"thing":1875,"empor":1876,"Ġlaw":1877,"Ġapplications":1878,"ĠAc":1879,"angu":1880,"Ġview":1881,"Ġpost":1882,"Course":1883,"ising":1884,"conom":1885,"Ġpriv":1886,"Ġareas":1887,"Ġlit":1888,"Ġright":1889,"Ġfocusing":1890,"Ġded":1891,"Ġtreat":1892,"Ġreach":1893,"Ġmanufact":1894,"ral":1895,"avor":1896,"Ġpromoting":1897,"Ġcompreh":1898,"Ġkeep":1899,"Ġinves":1900,"ologies":1901,"Ġet":1902,"Ġact":1903,"racing":1904,"Ġdynam":1905,"Ġart":1906,"oss":1907,"Ġprovided":1908,"Ġeas":1909,"Ġcontent":1910,"term":1911,"ĠCol":1912,"elines":1913,"ason":1914,"Ġevents":1915,"plications":1916,"Ġ5":1917,"ĠAt":1918,"Ġmusic":1919,"Ġconvers":1920,"Ġdeliver":1921,"echan":1922,"Ġfund":1923,"Ġvisual":1924,"aries":1925,"Ġshare":1926,"Ġcul":1927,"Ġstate":1928,"Ġenti":1929,"Ġocc":1930,"Ġworking":1931,"Ġwater":1932,"Ġcurr":1933,"kes":1934,"aps":1935,"Ġremains":1936,"ient":1937,"ĠComp":1938,"Ġsal":1939,"Ġfriends":1940,"Ġmembers":1941,"olving":1942,"Ġalways":1943,"ming":1944,"Ġmom":1945,"Ġsitu":1946,"Ġsince":1947,"ously":1948,"pected":1949,"rim":1950,"ds":1951,"atural":1952,"Ġcompeti":1953,"Ġproducts":1954,"ĠStud":1955,"Ġgovern":1956,"tig":1957,"Ġhelps":1958,"Now":1959,"Ġsym":1960,"Ġaltern":1961,"br":1962,"osing":1963,"ense":1964,"Ġorig":1965,"Ġnon":1966,"iod":1967,"inating":1968,"Ġchild":1969,"uts":1970,"ipp":1971,"Ġactivities":1972,"Ġenj":1973,"comes":1974,"Ġparticularly":1975,"Ġbelie":1976,"Ġnumerous":1977,"Ġsty":1978,"isc":1979,"Ġserve":1980,"Ġfre":1981,"Ġmuch":1982,"den":1983,"ĠOver":1984,"Ġstudy":1985,"Ġextract":1986,"Ġsoft":1987,"Ġphysical":1988,"Ġintric":1989,"Ġsurrounding":1990,"Ġaspect":1991,"Ġcollaboration":1992,"Ġfel":1993,"ĠCl":1994,"Ġdesigned":1995,"Ġnar":1996,"Ġcritical":1997,"pective":1998,"rams":1999,"Conclusion":2000,"Ġadapt":2001,"Ġinstead":2002,"Ġcal":2003,"Ġnature":2004,"Ġmeet":2005,"hold":2006,"Ġbehind":2007,"Ġaccur":2008,"Ġinformed":2009,"Ġ+":2010,"sts":2011,"ĠBe":2012,"Ġbod":2013,"Ġlist":2014,"Ġpress":2015,"ret":2016,"ones":2017,"Ġbuild":2018,"ĠAmeric":2019,"Ġavailable":2020,"ĠDevelop":2021,"Ġcirc":2022,"Ġresults":2023,"eper":2024,"ulation":2025,"times":2026,"Ġknown":2027,"Ġpo":2028,"Ġevalu":2029,"First":2030,"Ġver":2031,"Ġlay":2032,"Ġtimes":2033,"Ġoutcomes":2034,"Ġhere":2035,"ked":2036,"Ġget":2037,"ery":2038,"Ġyourself":2039,"ove":2040,"Ġcomput":2041,"Ġobs":2042,"ause":2043,"Ġlangu":2044,"Ġenjoy":2045,"emporary":2046,",\"":2047,"Ġstay":2048,"Ġpositive":2049,"Ġpatterns":2050,"Ġemphas":2051,"ames":2052,"abilities":2053,"Ġcustomer":2054,"atory":2055,"ision":2056,"Ġconcept":2057,"Ġattention":2058,"Ġcomple":2059,"Ġdiv":2060,"Ġinterest":2061,"Ġrelevant":2062,"Ġharm":2063,"Ġstill":2064,"Ġtrends":2065,"ĠExam":2066,"ours":2067,"Ġthree":2068,"ips":2069,"Ġbecomes":2070,"Ġvia":2071,"Ġstri":2072,"ale":2073,"Ġeconom":2074,"Ġfacilit":2075,"Ġstory":2076,"acks":2077,"Ġmental":2078,"Ġincorporating":2079,"orting":2080,"esting":2081,"Ġdid":2082,"Ġhealthcare":2083,"Ġincreased":2084,"Ġensures":2085,"ecting":2086,"time":2087,"Ġrece":2088,"de":2089,"ension":2090,"Ġeth":2091,"Ġsecurity":2092,"Ġleaders":2093,"Ġdecisions":2094,"pri":2095,"Ġthems":2096,"Ġthemselves":2097,"ises":2098,"Ġultimately":2099,"Ġgame":2100,"Ġer":2101,"Ġdeeper":2102,"This":2103,"oration":2104,"Ġthings":2105,"ats":2106,"ĠQ":2107,"ĠReg":2108,"Ġprogram":2109,"Ġprior":2110,"Ġrecent":2111,"\\_":2112,"orm":2113,"urr":2114,"Ġrates":2115,"Ġspace":2116,"Ġtailored":2117,"ĠIntroduction":2118,"Ġnumber":2119,"Ġaddressing":2120,"Ġglobal":2121,"Ġeveryone":2122,"Ġlight":2123,"ended":2124,"Ġalign":2125,"Ġve":2126,"Ġmechan":2127,"Ġengage":2128,"sing":2129,"of":2130,"Ġinvolved":2131,"Ġprec":2132,"lectr":2133,"ĠRes":2134,"ĠTra":2135,"Ġregular":2136,"Ġperson":2137,"Ġchanges":2138,"Ġnow":2139,"ission":2140,"Ġenables":2141,"Ġsharing":2142,"ym":2143,"Ġdelve":2144,"ium":2145,"Ġdoc":2146,"Ġund":2147,"Ġquick":2148,"Ġmess":2149,"ground":2150,"ĠRec":2151,"IV":2152,"Ġappe":2153,"Ġaccording":2154,"uid":2155,"Ġamid":2156,"Ġvital":2157,"Ġremember":2158,"asts":2159,"Ġ19":2160,"Ġcontain":2161,"Ġprofessionals":2162,"Ġresult":2163,"ury":2164,"Ġnear":2165,"Ġnatural":2166,"ules":2167,"Ġprogress":2168,"Ġadvant":2169,"Ġsum":2170,"Introduction":2171,"Ġcome":2172,"pro":2173,"ball":2174,"works":2175,"Ġenhancing":2176,"Ġrob":2177,"ĠAcc":2178,"back":2179,"Ġteach":2180,"Ġther":2181,"Ġengaging":2182,"Key":2183,"Ġconven":2184,"atisf":2185,"ots":2186,"ores":2187,"Ġquestions":2188,"Ġline":2189,"Ġinnovation":2190,"Ġfood":2191,"agine":2192,"Ġwebs":2193,"Ġhistory":2194,"Ġtas":2195,"oh":2196,"ĠAfter":2197,"ibr":2198,"Ġpay":2199,"Ġspecifically":2200,"Ġcollec":2201,"ĠAnal":2202,"Ġgoals":2203,"ilience":2204,"Ġplanning":2205,"Ġexpect":2206,"Ġtypes":2207,"Ġbalance":2208,"Ġculture":2209,"Ġdon":2210,"Ġpractice":2211,"pecial":2212,"omen":2213,"Ġability":2214,"ugg":2215,"Ġbeg":2216,"ident":2217,"put":2218,"Ġplays":2219,"Ġfoster":2220,"Ġspir":2221,"ĠCont":2222,"Ġcraf":2223,"Ġrisks":2224,"ĠSc":2225,"Ġassess":2226,"der":2227,"Ġservice":2228,"Ġcover":2229,"Ġcommitment":2230,"Ġhapp":2231,"Ġmakes":2232,"Ġhistorical":2233,"Ġways":2234,"..":2235,"Ġpain":2236,"Ġserves":2237,"Ġmeasures":2238,"ĠOr":2239,"asting":2240,"ean":2241,"Ġempower":2242,"ĠChris":2243,"Ġearly":2244,"ees":2245,"iance":2246,"When":2247,"az":2248,"Ġprograms":2249,"Ġconstruc":2250,"ify":2251,"Ġadm":2252,"ele":2253,"ĠSp":2254,"Ġanalysis":2255,"just":2256,"int":2257,"Ġhigher":2258,"Ġrisk":2259,"ng":2260,"ites":2261,"Ġplace":2262,"tif":2263,"enced":2264,"Ġsw":2265,"Ġcalled":2266,"Ġcompared":2267,"Ġdistin":2268,"Ġcred":2269,"akes":2270,"Ġenvironment":2271,"aged":2272,"Ġpossible":2273,"going":2274,"Ġz":2275,"Ġones":2276,"Ġappear":2277,"Ġworks":2278,"Ġpowerful":2279,"oved":2280,"Ġautom":2281,"ived":2282,"cepts":2283,"Ġnarra":2284,"ĠSim":2285,"Ġpartners":2286,"izes":2287,"Ġpath":2288,"Ġappropri":2289,"play":2290,"Ġsing":2291,"istance":2292,"Ġrest":2293,"Ġcustomers":2294,"Ġbehavior":2295,"Ġsound":2296,"ystem":2297,"iliar":2298,"Ġgroup":2299,"Ġmeans":2300,"Ġinnovative":2301,"ĠInst":2302,"ope":2303,"Ġtraining":2304,"Ġsatisf":2305,"omp":2306,"Ġsteps":2307,"Ġdive":2308,"Ġran":2309,"Ġlandscape":2310,"ides":2311,"Ġpast":2312,"ode":2313,"Ġfamily":2314,"oph":2315,"Ġfoot":2316,"Ġvol":2317,"Ġbecause":2318,"Ġresilience":2319,"ĠFrom":2320,"Ġperiod":2321,"Ġwr":2322,"Ġste":2323,"Ġproduction":2324,"ighting":2325,"ĠThere":2326,"Ġhaving":2327,"rast":2328,"Ġinstit":2329,"Ġdeb":2330,"Ġperf":2331,"ĠChristi":2332,"Ġexpress":2333,"Ġmention":2334,"Ġprofessional":2335,"Ġinternational":2336,"Ġlies":2337,"making":2338,"Ġpoints":2339,"Ġgood":2340,"areness":2341,"Ġamidst":2342,"Ġaccount":2343,"Ġwant":2344,"ected":2345,"Ġlives":2346,"III":2347,"ems":2348,"Ġemer":2349,"Ġupd":2350,"Ġing":2351,"Ġprevent":2352,"Ġevent":2353,"oms":2354,"Ġwa":2355,"Ġra":2356,"Ġheart":2357,"Ġey":2358,"iet":2359,"Ġstruct":2360,"Ġhead":2361,"ĠTechn":2362,"Ġcamp":2363,"Ġapproaches":2364,"know":2365,"Ġaction":2366,"ĠYou":2367,"agn":2368,"ouse":2369,"Ġcompany":2370,"entic":2371,"inking":2372,"Ġstrategic":2373,"iable":2374,"part":2375,"Ġtem":2376,"Ġplayers":2377,"ened":2378,"side":2379,"aster":2380,"Ġdespite":2381,"Ġsignificance":2382,"Ġnext":2383,"Ġrun":2384,"Ġcy":2385,"icate":2386,"Ġbi":2387,"Ġshif":2388,"Ġcurrent":2389,"Ġgreater":2390,"Ġfasc":2391,"Ġachieve":2392,"**:":2393,"Ġstories":2394,"sc":2395,"ĠGod":2396,"ged":2397,"Ġadditional":2398,"Ġbas":2399,"sy":2400,"Ġmaxim":2401,"Ġidenti":2402,"Ġrobust":2403,"Ġbound":2404,"Ġenvironmental":2405,"Ġreducing":2406,"Ġlanguage":2407,"Ġadop":2408,"Ġdesc":2409,"Ġmanaging":2410,"ĠAss":2411,"oint":2412,"rain":2413,"Ġcompanies":2414,"Ġenabling":2415,"Ġshaping":2416,"Ġbroader":2417,"Ġlegal":2418,"Ġx":2419,"Ġproblem":2420,"Ġdirectly":2421,"Ġfeed":2422,"ided":2423,"Ġpred":2424,"Ġrequirements":2425,"edi":2426,"Ġposition":2427,"Ġincreasingly":2428,"--------------------------------":2429,"Ġregion":2430,"Ġspirit":2431,"Ġforms":2432,"Ġembracing":2433,"Ġfill":2434,"ĠPers":2435,"Ġchallenging":2436,"Ġrich":2437,"ray":2438,"ĠConsider":2439,"aste":2440,"Ġalike":2441,"Ġresponsible":2442,"ĠPrac":2443,"Ġmedical":2444,"su":2445,"Ġ|":2446,"'ll":2447,"ute":2448,"Ġpreferences":2449,"Ġelectr":2450,"Ġhard":2451,"Ġcosts":2452,"ustr":2453,"itch":2454,"pr":2455,"eck":2456,"Another":2457,"Ġapplication":2458,"erving":2459,"Ġrespect":2460,"Ġterms":2461,"iences":2462,"Ġconduc":2463,"Ġsl":2464,"Ġproject":2465,"ativity":2466,"ĠSome":2467,"ibilities":2468,"Ġgroups":2469,"Ġprojects":2470,"ĠIf":2471,"Ġpoint":2472,"Ġlove":2473,"ender":2474,"Ġconcepts":2475,"Ġcontinue":2476,"ĠPer":2477,"Ġpolicies":2478,"based":2479,"Ġtechnologies":2480,"``":2481,"tise":2482,"irt":2483,"How":2484,"eration":2485,"Ġhold":2486,"Ġoptimal":2487,"ĠDef":2488,"Ġidentify":2489,"rame":2490,"Ġdraw":2491,"Ġongoing":2492,"Ġsometimes":2493,"Ġlif":2494,"uly":2495,"ĠStrateg":2496,"ĠExpl":2497,"Ġrig":2498,"Ġpros":2499,"ulations":2500,"Ġyoung":2501,"ĠPh":2502,"Ġvide":2503,"Ġtaking":2504,"Ġsoftware":2505,"Ġcontemporary":2506,"Ġground":2507,"Ġdam":2508,"Ġcore":2509,"Ġmath":2510,"Ġadvent":2511,"Ġrelationship":2512,"ole":2513,"aim":2514,"Ġstream":2515,"ĠEv":2516,"Ġnumbers":2517,"Ġaway":2518,"Ġefficiency":2519,"Ġcareful":2520,"Ġperfect":2521,"though":2522,"ument":2523,"isms":2524,"rep":2525,"Ġinvolve":2526,"Ġtext":2527,"Ġobjec":2528,"Ġemerg":2529,"astly":2530,"Ġmer":2531,"Ġtypically":2532,"Ġexisting":2533,"tivity":2534,"pecially":2535,"Ġ6":2536,"face":2537,"Ġengine":2538,"On":2539,"Ġdial":2540,"usi":2541,"Ġremind":2542,"Ġrequired":2543,"let":2544,"Ġfar":2545,"Ġreve":2546,"Ġstrategy":2547,"sych":2548,"Ġexpand":2549,"Ġstrugg":2550,"Ġexamine":2551,"Ġinitial":2552,"Ġbegin":2553,"Ġappropriate":2554,"Ġpolitical":2555,"ective":2556,"Ġunex":2557,"Ġsources":2558,"af":2559,"Ġisn":2560,"Ġsame":2561,"Ġenth":2562,"aign":2563,"Ġbar":2564,"Ġmonit":2565,"Ġavoid":2566,"Ġespecially":2567,"Ġoperations":2568,"Ġentire":2569,"oth":2570,"Ġrelated":2571,"âĢĿ":2572,"Ġemotional":2573,"Ġflex":2574,"Ġuntil":2575,"But":2576,"Ġrefers":2577,"encing":2578,"ator":2579,"Ġexec":2580,"ĠTheir":2581,"urs":2582,"Ġec":2583,"Ġsolid":2584,"augh":2585,"Ġmentioned":2586,"Ġopportunity":2587,"Ġclean":2588,"Ġneg":2589,"Ġadjust":2590,"Ġinterp":2591,"20":2592,"icial":2593,"active":2594,"Ġskin":2595,"Ex":2596,"Ġfull":2597,"Ġroles":2598,"hood":2599,"ified":2600,"ĠWor":2601,"Ġshort":2602,"Ġgiven":2603,"anti":2604,"Ġcomfort":2605,"Ġcut":2606,"Ġrout":2607,"Ġlessons":2608,"Ġinvolving":2609,"Ġexerc":2610,"Ġcross":2611,"uty":2612,"Ġsearch":2613,"Ġprimary":2614,"Ġlooking":2615,"Ġenthusi":2616,"arily":2617,"place":2618,"ribution":2619,"come":2620,"Ġair":2621,"Ġcomprehensive":2622,"Ġteams":2623,"ĠSu":2624,"Ġimplications":2625,"ĠSe":2626,"ĠInt":2627,"Ġ`":2628,"Ġexamining":2629,"Ġspe":2630,"Ġchallenge":2631,"ĠMarket":2632,"Ġenvironments":2633,"Ġge":2634,"Ġstudies":2635,"Ġarea":2636,"Ġaimed":2637,"Ġtruly":2638,"Ġauthor":2639,"Ġtre":2640,"Ġconnection":2641,"Ġonce":2642,"ule":2643,"Ġmach":2644,"Ġcontext":2645,"aily":2646,"Ġunc":2647,"Ġtrue":2648,"Ġfree":2649,"Ġreview":2650,"ĠNew":2651,"ump":2652,"amless":2653,"ĠEnc":2654,"Ġorganization":2655,"Ġimproved":2656,"ĠAmerican":2657,"ĠâĢľ":2658,"Ġrefer":2659,"Ġmeaningful":2660,"Ġitself":2661,"Ġadvance":2662,"Ġappreciation":2663,"emic":2664,"Ġsubst":2665,"VI":2666,"Ġunexpected":2667,"Ġshowc":2668,"usive":2669,"Ġlearned":2670,"Ġadvanced":2671,"Ġdecided":2672,"ran":2673,"Ġconsistent":2674,"Ġsimple":2675,"Ġpromote":2676,"Ġinterests":2677,"Ġclients":2678,"Ġlarge":2679,"ounts":2680,"Ġlog":2681,"not":2682,"ternal":2683,"Ġhol":2684,"Ġheav":2685,"Ġrev":2686,"ĠShe":2687,"?\"":2688,"Ġmanufacturing":2689,"Ġfew":2690,"Ġface":2691,"ĠBl":2692,"Ġintricate":2693,"Ġhy":2694,"Ġbody":2695,"Ġevidence":2696,"Ġpolicy":2697,"Ġboo":2698,"ipment":2699,"Ġauthentic":2700,"Ġfaced":2701,"ingly":2702,"ĠPol":2703,"onic":2704,"Ġingred":2705,"Ġpotentially":2706,"athy":2707,"ĠRem":2708,"inally":2709,"Ġage":2710,"Ġeducational":2711,"Ġliving":2712,"Ġsingle":2713,"Ġscenar":2714,"Ġsecure":2715,"Ġstructure":2716,"Ġdemand":2717,"Ġinitiatives":2718,"orn":2719,"urance":2720,"Ġseamless":2721,"Ġcultiv":2722,"Ġhowever":2723,"Ġexpectations":2724,"Ġrepresents":2725,"ĠAccording":2726,"ĠZ":2727,"Ġproperty":2728,"Ġchann":2729,"Ġlimit":2730,"Ġ0":2731,"ables":2732,"med":2733,"ote":2734,"auti":2735,"orous":2736,"world":2737,"Ġtherap":2738,"Ġarts":2739,"ĠChristian":2740,"Ġphot":2741,"Ġtransport":2742,"Ġsociety":2743,"Ġexpos":2744,"Ġnavigate":2745,"Ġgather":2746,"quality":2747,"Ġfrequ":2748,"By":2749,"Ġbackground":2750,"Ġstandards":2751,"Ġsense":2752,"ewel":2753,"orough":2754,"Ġmis":2755,"ĠThat":2756,"Ġdaily":2757,"head":2758,"itable":2759,"force":2760,"hes":2761,"Ġren":2762,"Ġdialog":2763,"Ġcreativity":2764,"Ġforward":2765,"Ġfavor":2766,"icated":2767,"ox":2768,"akehold":2769,"pping":2770,"Ġbreak":2771,"Ġconflic":2772,"Ġworth":2773,"oday":2774,"vention":2775,"Ġoriginal":2776,"Ġlever":2777,"ĠTim":2778,"Ġinj":2779,"epend":2780,"Ġdetails":2781,"Ġdevices":2782,"Ġcampaign":2783,"eless":2784,"Ġinfluence":2785,"Ġsmoo":2786,"Ġproperties":2787,"Ġcloser":2788,"Ġpiece":2789,"Ġqual":2790,"Ġneeded":2791,"ude":2792,"ffici":2793,"Ġtranspar":2794,"Ġexpertise":2795,"Ġinspir":2796,"Ġnam":2797,"eling":2798,"Ġsets":2799,"acts":2800,"alls":2801,"Ġreturn":2802,"Ġoffering":2803,"Ġsustainable":2804,"Ġawareness":2805,"inist":2806,"Ġimplementing":2807,"Ġresulting":2808,"Ġcolor":2809,"Ġpa":2810,"ĠKey":2811,"Ġlik":2812,"Ġrecord":2813,"Ġinvestig":2814,"Ġprivacy":2815,"ĠSec":2816,"Ġfascinating":2817,"ĠId":2818,"Ġsci":2819,"Ġdeveloping":2820,"Ġanim":2821,"ĠPre":2822,"Ġquickly":2823,"ager":2824,"Ġfail":2825,"umb":2826,"Ġlow":2827,"hic":2828,"Ġresponse":2829,"However":2830,"ished":2831,"Ġcele":2832,"ishing":2833,"Ġold":2834,"Ġsettings":2835,"Ġquestion":2836,"ĠCase":2837,"Ġann":2838,"ised":2839,"ops":2840,"Ġalternative":2841,"Ġred":2842,"Ġstructures":2843,"Ġonto":2844,"apid":2845,"Ġgreat":2846,"ulate":2847,"Ġcapabilities":2848,"Ġdom":2849,"igu":2850,"Ġcontinued":2851,"ĠSuch":2852,"Ġcapable":2853,"me":2854,"Ġcolle":2855,"ĠMar":2856,"eral":2857,"Ġtreatment":2858,"ticip":2859,"Ġexploration":2860,"Ġmodels":2861,"Ġpurch":2862,"ouch":2863,"Ġcalc":2864,"aff":2865,"onom":2866,"Ġrights":2867,"ĠEach":2868,"ĠMed":2869,"Ġcell":2870,"wide":2871,"Ġouts":2872,"hib":2873,"ema":2874,"aceu":2875,"Ġcontinuous":2876,"lier":2877,"ither":2878,"Ġenough":2879,"urb":2880,"Ġstakehold":2881,"ony":2882,"armaceu":2883,"Ġhighlights":2884,"Ġproced":2885,"Ġencounter":2886,"Ġframe":2887,"Ġindic":2888,"Ġsun":2889,"At":2890,"Ġwond":2891,"Ġreput":2892,"ifying":2893,"Ġsomeone":2894,"Ġmatch":2895,"idents":2896,"resh":2897,"Ġarch":2898,"Ġappreciate":2899,"atter":2900,"Ġthreat":2901,"Ġvari":2902,"Ġfunctions":2903,"Ġillustr":2904,"Ġjob":2905,"Ġcry":2906,"ĠEncoura":2907,"Ġvisit":2908,"Ġtour":2909,"Ġidentity":2910,"being":2911,"Ġstress":2912,"aun":2913,"Section":2914,"###":2915,"Ġcontributing":2916,"ĠEng":2917,"Ġethical":2918,"erve":2919,"Ġenable":2920,"val":2921,"Ġsugges":2922,"ĠWhether":2923,"Ġvo":2924,"Ġmut":2925,"itig":2926,"itness":2927,"Ġexperienced":2928,"pose":2929,"Ġtasks":2930,"iol":2931,"Ġaudiences":2932,"Ġacqu":2933,"pectives":2934,"Ġtype":2935,"So":2936,"Ġleft":2937,"Ġrecomm":2938,"Ġwatch":2939,"ĠPar":2940,"Ġcreative":2941,"Ġsecond":2942,"mer":2943,"icro":2944,"ĠToday":2945,"}{":2946,"Ġhar":2947,"ĠCommun":2948,"Ġrigorous":2949,"ank":2950,"utri":2951,"ewelry":2952,"acking":2953,"Ġalongside":2954,"Ġbegan":2955,"arah":2956,"Ġchoices":2957,"Ġfriend":2958,"ĠIns":2959,"Ġsuper":2960,"Ġarg":2961,"ird":2962,"Ġlower":2963,"Ġdistinct":2964,"Ġintr":2965,"atively":2966,"eter":2967,"Ġimprovement":2968,"gest":2969,"Ġexist":2970,"ĠTrans":2971,"auty":2972,"cle":2973,"Ġreduce":2974,"Ġestablished":2975,"Ġflow":2976,"Ġcater":2977,"Ġthorough":2978,"Ġinher":2979,"tenance":2980,"Ġartists":2981,"ĠBu":2982,"Ġprevious":2983,"Ġnever":2984,"ilt":2985,"Ġinsp":2986,"Ġeconomic":2987,"Ġpsych":2988,"Ġdoing":2989,"Ġtest":2990,"Ġinstitutions":2991,"ĠInter":2992,"):":2993,"Ġprotection":2994,"ply":2995,"Ġstarted":2996,"Ġequipment":2997,"Ġexch":2998,"Ġconsumers":2999,"Ġfig":3000,"inition":3001,"Ġdedicated":3002,"Ġschool":3003,"Ġsection":3004,"Ġthereby":3005,"Ġrange":3006,"oming":3007,"Ġfeature":3008,"Ġpossess":3009,"Ġwarm":3010,"Ġtopics":3011,"19":3012,"Ġparam":3013,"Ġactions":3014,"Ġlocation":3015,"Ġadvantages":3016,"Ġpassion":3017,"Ġstakeholders":3018,"rics":3019,"ront":3020,"Ġpursu":3021,"Ġmanage":3022,"esthe":3023,"iosity":3024,"Ġchildren":3025,"ured":3026,"ensions":3027,"Ġactive":3028,"oud":3029,"Ġrapid":3030,"Ġopp":3031,"ĠConsequ":3032,"Ġloss":3033,"Ġexciting":3034,"land":3035,"Ġseason":3036,"Ġprepar":3037,"Ġwar":3038,"ulner":3039,"Ġvehic":3040,"Ġwee":3041,"$$":3042,"Ġdynamics":3043,"sh":3044,"Ġrequiring":3045,"istics":3046,"Ġcorre":3047,"ĠInstead":3048,"Ġseemingly":3049,"irm":3050,"pon":3051,"ĠHis":3052,"ĠĠĠ":3053,"Ġintroduc":3054,"Ġpack":3055,"Ġmoment":3056,"Ġfeedback":3057,"Ġdesired":3058,"Ġside":3059,"ĠYour":3060,"Ġdest":3061,"ultane":3062,"Ġchannels":3063,"Ġnavigating":3064,"cer":3065,"Ġconsidering":3066,"Ġexact":3067,"Ġguidelines":3068,"Ġcand":3069,"ĠDesign":3070,"Ġearlier":3071,"Ġpatients":3072,"Ġwal":3073,"ĠConclusion":3074,"Ġsyn":3075,"Ġhours":3076,"reen":3077,"ultural":3078,"outh":3079,"ny":3080,"Ġfa":3081,"use":3082,"man":3083,"ĠHealth":3084,"enses":3085,"Ġsales":3086,"Ġmob":3087,"Ġanalyzing":3088,"Ġguidance":3089,"Ġcircum":3090,"Ġeffects":3091,"dom":3092,"Ġmonth":3093,"Ġissue":3094,"Ġrecip":3095,"Ġpatient":3096,"apter":3097,"Ġimproving":3098,"Ġterm":3099,"armaceutical":3100,"Ġcarefully":3101,"Ġinteractions":3102,"itiz":3103,"Ġexternal":3104,"plement":3105,"Ġpieces":3106,"Ġinvestment":3107,"Ġcompos":3108,"Ġideas":3109,"Ġadvoc":3110,"ably":3111,"esearch":3112,"Ġcareer":3113,"Ġboundaries":3114,"ĠCo":3115,"Ġempathy":3116,"itation":3117,"frac":3118,"Im":3119,"Ġgovernment":3120,"Ġdim":3121,"Ġscience":3122,"Ġextra":3123,"Ġthink":3124,"aced":3125,"Ġtool":3126,"Firstly":3127,"Ġfellow":3128,"Ġrad":3129,"Ġdiscovered":3130,"Ġstra":3131,"Ġcity":3132,"Ġintegration":3133,"Ġparties":3134,"Ġgames":3135,"Ġprep":3136,"Ġunderlying":3137,"Ġbeauti":3138,"ĠX":3139,"Ġ7":3140,"Ġaspir":3141,"Ġvirt":3142,"ĠIts":3143,"Ġfinding":3144,"Ġartis":3145,"Ġcompetitive":3146,"ĠSimilar":3147,"Ġjoin":3148,"Ġinstall":3149,"Ġplans":3150,"Ġthemes":3151,"Ġworldwide":3152,"Ġetc":3153,"Ġadvers":3154,"Ġfilled":3155,"ma":3156,"ector":3157,"Ġdise":3158,"Ġsil":3159,"iment":3160,"ster":3161,"ĠIs":3162,"Ġbeauty":3163,"ellig":3164,"iles":3165,"jor":3166,"Ġperspectives":3167,"utes":3168,"Ġresource":3169,"Ġ*":3170,"Ġthinking":3171,"akers":3172,"ĠBen":3173,"Ġhost":3174,"Ġvulner":3175,"Ġthri":3176,"Ġreduced":3177,"Ġsqu":3178,"osp":3179,"Ġwebsite":3180,"ĠConsequently":3181,"Ġsatisfaction":3182,"ĠSch":3183,"cing":3184,"Ġshape":3185,"ĠMod":3186,"ĠTherefore":3187,"ev":3188,"Ġcuriosity":3189,"Ġemerging":3190,"Ġmatter":3191,"Ġvideo":3192,"Ġapart":3193,"avors":3194,"Ġcompl":3195,"ĠStudy":3196,"Ġimmedi":3197,"Ġdriving":3198,"Ġcollective":3199,"Ġartic":3200,"ceed":3201,"tiveness":3202,"Ġexcell":3203,"ructure":3204,"Ġfamiliar":3205,"Ġtemper":3206,"Ġunivers":3207,"ĠOp":3208,"ĠGo":3209,"Ġmotiv":3210,"Ġlines":3211,"Ġaesthe":3212,"Ġcoach":3213,"Ġacad":3214,"Ġfunda":3215,"ohn":3216,"Ġfinal":3217,"ĠDevelopment":3218,"Ġreson":3219,"ultaneously":3220,"Ġwind":3221,"Ġmag":3222,"ĠCre":3223,"Ġingredients":3224,"lo":3225,"Ġsmooth":3226,"Ġabs":3227,"Ġyield":3228,"Ġdialogue":3229,"Ġsituations":3230,"==":3231,"Ġliter":3232,"ĠHigh":3233,"Ġanti":3234,"ography":3235,"Ġregulations":3236,"tically":3237,"Ġspaces":3238,"sw":3239,"Ġvibr":3240,"Ġtac":3241,"Ġbenefit":3242,"Ġconstant":3243,"oney":3244,"Ġsymb":3245,"Ġmechanisms":3246,"Moreover":3247,"ressive":3248,"ned":3249,"Ġguide":3250,"Ġunders":3251,"Ġmor":3252,"Ġbase":3253,"Ġusage":3254,"Ġeasy":3255,"ls":3256,"Ġdur":3257,"idden":3258,"ification":3259,"Ġconsiderations":3260,"---":3261,"Ġnetworks":3262,"ĠMr":3263,"Ġden":3264,"Ġexpression":3265,"Ġfour":3266,"Ġerr":3267,"Ġrealized":3268,"Ġdevelopers":3269,"Ġeffort":3270,"Ġleadership":3271,"ring":3272,"ded":3273,"ene":3274,"Ġnamed":3275,"Ġparts":3276,"Ġclim":3277,"ĠGuid":3278,"Ġder":3279,"Ġcutting":3280,"ĠMe":3281,"ids":3282,"Ġ200":3283,"tal":3284,"ĠHist":3285,"Ġsepar":3286,"while":3287,"Ġacknow":3288,"ux":3289,"Ġevolving":3290,"ervation":3291,"Ġpropos":3292,"Ġexplain":3293,"Ġlittle":3294,"ĠStrategies":3295,"inations":3296,"Ġcounter":3297,"Ġsus":3298,"Ġspiritual":3299,"Ġtoward":3300,"Ġours":3301,"Ġcame":3302,"Ġoutside":3303,"Ġplayer":3304,"ĠPersonal":3305,"Ġport":3306,"Ġexcep":3307,"ĠIdentif":3308,"Ġconcer":3309,"Ġcompet":3310,"'ve":3311,"Ġdynamic":3312,"Ġobjectives":3313,"my":3314,"Ġimmers":3315,"bs":3316,"Ġdays":3317,"Ġcircumst":3318,"Ġindepend":3319,"Ġpressure":3320,"Ġaudience":3321,"Ġsole":3322,"Ġvary":3323,"Ġconsequ":3324,"Ġrelig":3325,"Ġcam":3326,"ffic":3327,"Ġbelief":3328,"Ġstart":3329,"Ġfunctionality":3330,"ompass":3331,"Ġsched":3332,"Ġjewelry":3333,"Ġgained":3334,"ians":3335,"Ġmill":3336,"ĠResearch":3337,"Ġefficient":3338,"iction":3339,"coming":3340,"Ġdiscussions":3341,"Ġnu":3342,"Ġoffered":3343,"Ġsize":3344,"Lastly":3345,"ails":3346,"Ġintegrating":3347,"Ġnor":3348,"Ġenhanced":3349,"Ġabove":3350,"Ġcateg":3351,"Ġled":3352,"ĠSarah":3353,"Ġselecting":3354,"Ġadvancements":3355,"ĠOverview":3356,"onds":3357,"Ġitems":3358,"Ġcelebr":3359,"Ġpreserving":3360,"itect":3361,"Ġmaintenance":3362,"Ġbud":3363,"Ġdepending":3364,"Ġtransparency":3365,"acters":3366,"Ġfosters":3367,"alle":3368,"acity":3369,"Ġwrit":3370,"Ġdiffic":3371,"ĠLe":3372,"Ġhon":3373,"Ġencompass":3374,"Ġprioriti":3375,"Ġdistribution":3376,"Ġdocument":3377,"Ġinvesting":3378,"gor":3379,"Ġcases":3380,"ample":3381,"rastructure":3382,"essions":3383,"For":3384,"Ġorder":3385,"turing":3386,"ina":3387,"Ġroom":3388,"Ġbur":3389,"Ġabilities":3390,"Ġresponsibility":3391,"Ġarr":3392,"gen":3393,"Ġcircumstances":3394,"Ġtax":3395,"Ġgrowing":3396,"Ġproblems":3397,"mit":3398,"Ġflexibility":3399,"Ġstyle":3400,"ĠSpec":3401,"Ġnovel":3402,"Ġpush":3403,"Ġfelt":3404,"Ġeither":3405,"Ġnecessit":3406,"Ġviol":3407,"ĠEduc":3408,"Ġwin":3409,"Ch":3410,"Ġsolution":3411,"ĠRep":3412,"Ġasked":3413,"ĠSimilarly":3414,"Ġapply":3415,"gra":3416,"Ġundersc":3417,"ĠUtil":3418,"Ġtown":3419,"ietal":3420,"Ġcreation":3421,"ĠRegular":3422,"ĠBusiness":3423,"Ġeverything":3424,"Ġwomen":3425,"Once":3426,"Ġlarger":3427,"fford":3428,"Ġadding":3429,"Be":3430,"Ġdiscussing":3431,"ffective":3432,"Ġnur":3433,"Ġnarratives":3434,"Ġmoments":3435,"ĠRemember":3436,"Ġinstruc":3437,"Ġourselves":3438,"ĠRed":3439,"Ġbig":3440,"overy":3441,"Ġclaim":3442,"Ġdamage":3443,"Ġtalent":3444,"ups":3445,"Ġsupporting":3446,"Ġtechnical":3447,"Ġland":3448,"Ġincrease":3449,"Ġexposure":3450,"Ġwis":3451,"ĠImport":3452,"bility":3453,"ifies":3454,"Ġansw":3455,"Ġtouch":3456,"Ġprocedures":3457,"ĠImplement":3458,"Ġhope":3459,"Ġsports":3460,"Ġsocietal":3461,"rich":3462,"Ġfair":3463,"Ġtechnological":3464,"Ġrein":3465,"ume":3466,"ighb":3467,"Ġconsideration":3468,"lation":3469,"ĠDisc":3470,"Ġsustainability":3471,"Ġnews":3472,"âĪ":3473,"set":3474,"Ġmodel":3475,"Ġ8":3476,"eline":3477,"ĠSystem":3478,"Ġinside":3479,"Ġtransportation":3480,"uries":3481,"esty":3482,"iving":3483,"ĠImp":3484,"Ġgenu":3485,"Ġpresence":3486,"gorith":3487,"acting":3488,"Ġwellbeing":3489,"Ġdesigns":3490,"rip":3491,"Ġsafe":3492,"Ġencourages":3493,"Ġstability":3494,"like":3495,"iding":3496,"Ġversati":3497,"Ġsure":3498,"aken":3499,"uck":3500,"Ġreflec":3501,"Ġnutri":3502,"ributions":3503,"Ġsav":3504,"ills":3505,"mar":3506,"Ġhandling":3507,"Ġproviders":3508,"Ġrules":3509,"ĠAlex":3510,"Ġoil":3511,"Ġadher":3512,"Ġmitig":3513,"oyal":3514,"Ġfacilitate":3515,"empl":3516,"Ġseek":3517,"Ġconsumer":3518,"Ġinherent":3519,"Ġfu":3520,"urop":3521,"Ġmajor":3522,"Ġstat":3523,"ĠThus":3524,"Ġfear":3525,"Ġinfrastructure":3526,"ĠJohn":3527,"Ġblock":3528,"ĠEst":3529,"While":3530,"ĠExper":3531,"ĠMy":3532,"ades":3533,"Ġdisci":3534,"!\"":3535,"Ġminimize":3536,"oor":3537,"tition":3538,"Ġdifferences":3539,"Ġnetwork":3540,"emp":3541,"acies":3542,"Ġdemands":3543,"Ġdescrib":3544,"Ġweight":3545,"icious":3546,"Ġidea":3547,"Ġlearners":3548,"Ġwords":3549,"ĠMon":3550,"Ġconsequences":3551,"Ġfaith":3552,"Ġthus":3553,"Ġgoal":3554,"Ġtrack":3555,"Ġlimited":3556,"apes":3557,"Ġvibrant":3558,"Ġbecame":3559,"ĠAlthough":3560,"Ġsolely":3561,"Ġcat":3562,"Ġdemonstrate":3563,"taining":3564,"Ġconstit":3565,"Ġseries":3566,"Ġstor":3567,"Ġpolitics":3568,"ĠAnalysis":3569,"Ġmutual":3570,"Ġlater":3571,"Ġfoundation":3572,"Ġchanging":3573,"Ġbring":3574,"Ġappeal":3575,"ton":3576,"Ġemotions":3577,"Ġdr":3578,"Ġcomputer":3579,"assion":3580,"Ġcomplexity":3581,"Ġdat":3582,"Ġattr":3583,"Ġcomprom":3584,"riers":3585,"right":3586,"Ġ$\\":3587,"Ġlive":3588,"Ġsimultaneously":3589,"ĠTe":3590,"ival":3591,"Ġmonitoring":3592,"Ġvac":3593,"Ġdedication":3594,"arked":3595,"issions":3596,"Ġrealm":3597,"Ġcharacters":3598,"ĠManagement":3599,"Ġcouldn":3600,"000":3601,"Ġsituation":3602,"Ġaccurate":3603,"Ġminimizing":3604,"ership":3605,"Ġstage":3606,"zz":3607,"oes":3608,"Ġhab":3609,"Ġcontributes":3610,"Ġcomplete":3611,"lam":3612,"ĠAnaly":3613,"Ġcer":3614,"{\\":3615,"ĠWhat":3616,"ĠMarketing":3617,"Ġfundamental":3618,"ommod":3619,"icians":3620,"agnos":3621,"Ġintellig":3622,"Ġaccommod":3623,"Ġscenarios":3624,"Ġexcl":3625,"Ġmarkets":3626,"Ġhealthy":3627,"Ġexactly":3628,"Ġdiversity":3629,"Ġchoose":3630,"venue":3631,"fficient":3632,"eanwhile":3633,"Ġlab":3634,"Ġsuggest":3635,"Ġcannot":3636,"Ġpharmaceutical":3637,"ĠDespite":3638,"Ġconversations":3639,"Ġempowerment":3640,"Ġencourage":3641,"Ġhidden":3642,"ĠPower":3643,"ĠDis":3644,"text":3645,"Ġclin":3646,"Ġaccordingly":3647,"ĠNot":3648,"Ġgenerations":3649,"Ġfully":3650,"Ġfootball":3651,"Ġprimarily":3652,"Ġmast":3653,"Ġneighb":3654,"Ġsurface":3655,"Ġunf":3656,"ĠImportance":3657,"Ġkind":3658,"ĠServ":3659,"ĠTips":3660,"Ġappl":3661,"ĠOff":3662,"ĠHer":3663,"Ġtesting":3664,"Ġpractical":3665,"Ġfamil":3666,"Ġfun":3667,"Ġpeace":3668,"Ġsaid":3669,"Ġartistic":3670,"Ġprotect":3671,"iny":3672,"acing":3673,"Ġactivity":3674,"Ġadminist":3675,"Ġelev":3676,"ipped":3677,"Ġnich":3678,"Ġstaff":3679,"Ġcompati":3680,"ocial":3681,"ĠRel":3682,"Ġahead":3683,"Ġalloc":3684,"ament":3685,"Ġnotable":3686,"Ġparticipants":3687,"Ġsubstanti":3688,"ictions":3689,"Ġspeed":3690,"Ġkne":3691,"ĠCan":3692,"Ġleads":3693,"Ġstandard":3694,"life":3695,"Ġalgorith":3696,"Ġconfidence":3697,"iors":3698,"ĠEar":3699,"ĠDr":3700,"Ġsequ":3701,"illing":3702,"Ġamb":3703,"bo":3704,"Ġspecialized":3705,"Ġsessions":3706,"usiv":3707,"Ġcountless":3708,"$,":3709,"fulness":3710,"Ġtook":3711,"Ġdeeply":3712,"Ġmathema":3713,"ustice":3714,"que":3715,"ches":3716,"Ġclosely":3717,"Ġapplying":3718,"Ġexhib":3719,"Ġanalyze":3720,"Ġinternal":3721,"Ġtherapy":3722,"Ġprofound":3723,"Ġindustries":3724,"Ġidentifying":3725,"Ġbreath":3726,"rug":3727,"Ġmere":3728,"telling":3729,"Ġsensitive":3730,"Ġutilizing":3731,"Ġsimply":3732,"Ġchoosing":3733,"astic":3734,"Ġgraph":3735,"Ġmedic":3736,"Ġcandid":3737,"uments":3738,"Ġgreen":3739,"ects":3740,"Ġmovement":3741,"iability":3742,"Ġinitially":3743,"Ġafford":3744,"Ã©":3745,"entific":3746,"ĠData":3747,"Ġencouraging":3748,"Ġcrim":3749,"Ġpurpose":3750,"Ġvirtual":3751,"Ġgam":3752,"Ġbeautiful":3753,"Ġclose":3754,"Ġhighlighting":3755,"Ġcris":3756,"ĠRole":3757,"une":3758,"Ġ9":3759,"ĠCar":3760,"Ġvs":3761,"owers":3762,"ĠEurop":3763,"ains":3764,"Ġanx":3765,"ros":3766,"ĠUltimately":3767,"Ġarchitect":3768,"Ġdirec":3769,"Ġmix":3770,"rist":3771,"ĠFirst":3772,"Ġmeasure":3773,"Ġloved":3774,"eria":3775,"oke":3776,"riend":3777,"Ġeye":3778,"Ġadventure":3779,"Ġhands":3780,"Ġcampaigns":3781,"Ġreflect":3782,"Ġregional":3783,"lev":3784,"Ġstyles":3785,"Ad":3786,"Ġhor":3787,"Ġroot":3788,"Ġdoesn":3789,"Ġachieving":3790,"race":3791,"Ġ10":3792,"Ġcompelling":3793,"Ġexamples":3794,"Ġhot":3795,"alf":3796,"Ġmass":3797,"Ġdepth":3798,"Ġstaying":3799,"Ġhighlight":3800,"bre":3801,"ler":3802,"arity":3803,"Ġrate":3804,"Ġsay":3805,"Ġweak":3806,"ĠKe":3807,"Ġmerely":3808,"ift":3809,"Ġsimpl":3810,"ĠCollabor":3811,"Ġcreated":3812,"Ġfocused":3813,"Ġname":3814,"orial":3815,"Ġoverl":3816,"ĠLear":3817,"Ġideal":3818,"Ġwriting":3819,"Ġchem":3820,"Ġpartnerships":3821,"Ġequal":3822,"Ġpositi":3823,"Ġsource":3824,"cent":3825,"Ġselection":3826,"ĠOur":3827,"Ġtakes":3828,"Ġcop":3829,"Ġaffecting":3830,"Ġdiss":3831,"Ġhighly":3832,"Ġintegrity":3833,"Ġcode":3834,"Ġcoord":3835,"Ġdiscipl":3836,"Ġdisplay":3837,"edge":3838,"Ġlimitations":3839,"Ġwasn":3840,"Ġbuilt":3841,"way":3842,"Ġupdates":3843,"$.":3844,"Ġexceptional":3845,"Ġagree":3846,"Ġaims":3847,"Ġenthusiasts":3848,"Ġexamination":3849,"Ġregulatory":3850,"prise":3851,"Ġfunctional":3852,"aught":3853,"lear":3854,"Ġvast":3855,"Ġstudent":3856,"It":3857,"ĠDefinition":3858,"Ġcapacity":3859,"Ġprocessing":3860,"Ġperspective":3861,"Ġjud":3862,"Ġpossibilities":3863,"Ġvalid":3864,"ula":3865,"ĠPri":3866,"Ġinterpret":3867,"ĠExamples":3868,"reg":3869,"Ġtable":3870,"ulating":3871,"ticing":3872,"Ġconver":3873,"Ġgold":3874,"Ġcompetition":3875,"Ġcrypt":3876,"ĠUs":3877,"nel":3878,"lines":3879,"Ġstates":3880,"Ġplaying":3881,"Ġimagine":3882,"light":3883,"ĠGen":3884,"Ġfields":3885,"Ġrecognizing":3886,"Ġintrigu":3887,"Ġapproxim":3888,"ister":3889,"Ġimpacts":3890,"haps":3891,"Ġbrow":3892,"iring":3893,"Ġnarrative":3894,"Ġemployees":3895,"ĠSam":3896,"Ġharness":3897,"ĠSk":3898,"Ġleaving":3899,"ille":3900,"Ġten":3901,"Ġtransformation":3902,"Ġniche":3903,"ĠPres":3904,"Ġnegative":3905,"Ġath":3906,"...":3907,"ads":3908,"ero":3909,"Ġ202":3910,"ĠBal":3911,"Ġcapital":3912,"ĠGuidelines":3913,"Through":3914,"Ġdiscussion":3915,"ifications":3916,"Ġcrafts":3917,"Ġchoice":3918,"Ġloyal":3919,"tis":3920,"Ġput":3921,"Ġconfig":3922,"orders":3923,"Ġofficial":3924,"Ġcomponent":3925,"Ġang":3926,"Ġacknowled":3927,"Ġmanufactur":3928,"Ġspread":3929,"ĠAI":3930,"ĠCent":3931,"ĠProg":3932,"ypes":3933,"Ġincludes":3934,"ĠMus":3935,"Ġwhole":3936,"ruit":3937,"arant":3938,"inate":3939,"Ġprivate":3940,"ĠAg":3941,"Ġarri":3942,"Ġartist":3943,"Ġperforming":3944,"Ġeyes":3945,"ract":3946,"Ġadaptability":3947,"10":3948,"Ġcollection":3949,"ows":3950,"Ġrestr":3951,"Ġtaken":3952,"Before":3953,"Ġcoun":3954,"ĠIntern":3955,"Ġscientific":3956,"ript":3957,"Ġcausing":3958,"Ġranging":3959,"Ġpresents":3960,"ooks":3961,"Ġaccessibility":3962,"Ġbasic":3963,"Ġfresh":3964,"Ġcentral":3965,"wise":3966,"Ġobst":3967,"Ġcredit":3968,"Ġchapter":3969,"Ġmatters":3970,"Ġrecommend":3971,"Ġslow":3972,"Ġexcess":3973,"ĠBuilding":3974,"aturing":3975,"Ġdelivering":3976,"EO":3977,"pris":3978,"Ġstatis":3979,"airs":3980,"ĠFin":3981,"iversity":3982,"Ġknowing":3983,"Ġtend":3984,"Ġreaders":3985,"Des":3986,"Ġlack":3987,"Ġhelping":3988,"ĠAdv":3989,"Ġcr":3990,"Ġbuy":3991,"osen":3992,"egu":3993,"Ġstorage":3994,"urning":3995,"Ġnote":3996,"ĠMay":3997,"```":3998,"otal":3999,"cious":4000,"Ġwaste":4001,"Ġreliable":4002,"Ġalone":4003,"Ġreport":4004,"anning":4005,"Ġtry":4006,"Ġgenuine":4007,"Ġord":4008,"math":4009,"ĠImpact":4010,"sequ":4011,"Ġbudget":4012,"Ġinsurance":4013,"ticed":4014,"Have":4015,"Ġprice":4016,"ĠDuring":4017,"Ġdemonstrates":4018,"ert":4019,"Ġfamilies":4020,"yth":4021,"Ġenhances":4022,"Ġdifference":4023,"Ġcou":4024,"Ġdetermine":4025,"Ġprem":4026,"Ġsle":4027,"gment":4028,"rup":4029,"eted":4030,"uccess":4031,"Ġmid":4032,"ĠUnited":4033,"Ġfindings":4034,"Ġconsistency":4035,"Ġwebsites":4036,"ĠJust":4037,"Ġefficiently":4038,"icit":4039,"Ġ/":4040,"Ġdevelopments":4041,"Ġthreats":4042,"Ġlasting":4043,"Ġseen":4044,"Ġenrich":4045,"Ġsubstantial":4046,"Ġalternatives":4047,"Ġcitiz":4048,"Ġbox":4049,"Ġheight":4050,"ocal":4051,"Ġlength":4052,"Ġcontact":4053,"ĠTw":4054,"ogether":4055,"Ġforce":4056,"Ġciv":4057,"rand":4058,"Ġaddition":4059,"Ġclient":4060,"Ġcard":4061,"Ġfavorite":4062,"ĠChar":4063,"ott":4064,"rought":4065,"ĠĊ":4066,"Ġcontinues":4067,"Ġfacing":4068,"Ġpresented":4069,"ocks":4070,"Ġresistance":4071,"Ġrepl":4072,"ĠArt":4073,"Ġsmaller":4074,"Ġstatus":4075,"Ġrepe":4076,"Ġexperiment":4077,"Ġturned":4078,"Ġcooking":4079,"Ġlaws":4080,"Ġlandscapes":4081,"unning":4082,"nal":4083,"Ġable":4084,"Ġdifficult":4085,"ĠUsing":4086,"Ġfit":4087,"Ġresearchers":4088,"ĠIntegr":4089,"ressing":4090,"ĠProf":4091,"Finally":4092,"Ġassistance":4093,"ĠPerform":4094,"riendly":4095,"Ġreceive":4096,"Ġconcerning":4097,"Ġimplementation":4098,"Ġstarting":4099,"pe":4100,"Ġtang":4101,"ĠAll":4102,"Ġbarriers":4103,"ĠAdd":4104,"Ġintricacies":4105,"ticul":4106,"Ġfra":4107,"titude":4108,"rel":4109,"Ġcompliance":4110,"Ġcondition":4111,"^{":4112,"ĠSm":4113,"ĠChrist":4114,"Ġcountry":4115,"Ġfilm":4116,"ogle":4117,"Ġdispar":4118,"Ġtraffic":4119,"Ġheat":4120,"Ġproductivity":4121,"Ġdiagnos":4122,"Ġadvantage":4123,"Ġtotal":4124,"Ġunw":4125,"Ġinspiration":4126,"Ġstrengths":4127,"Ġconsumption":4128,"emb":4129,"Ġlat":4130,"Ġbecoming":4131,"Ġconsistently":4132,"ĠSet":4133,"Ġexercise":4134,"inated":4135,"Ġinters":4136,"Ġsafegu":4137,"Ġcontributions":4138,"icing":4139,"ĠMain":4140,"poses":4141,"Ġment":4142,"Ġeager":4143,"Ġchosen":4144,"raints":4145,"pped":4146,"Ġregardless":4147,"rene":4148,"Ġprogramming":4149,"formation":4150,"Ġgene":4151,"ancy":4152,"Ġemail":4153,"Ġcaptiv":4154,"Ġcorpor":4155,"Ġir":4156,"Ġofferings":4157,"Ġcultures":4158,"Ġoperating":4159,"Ġarrange":4160,"aks":4161,"backs":4162,"ĠBoth":4163,"Ġserving":4164,"Ġadded":4165,"ung":4166,"Ġcolors":4167,"Ġdrive":4168,"Ġtactics":4169,"Ġclimate":4170,"Ġelse":4171,"Ġrecords":4172,"ĠDel":4173,"Ġrespond":4174,"Ġentertain":4175,"ools":4176,"Ġtalk":4177,"Ġguarant":4178,"Ġmiss":4179,"Ġstronger":4180,"Ġhouse":4181,"ĠSocial":4182,"Ġforces":4183,"Ġimag":4184,"Ġcompassion":4185,"idential":4186,"forcement":4187,"Ġimage":4188,"Ġsite":4189,"iber":4190,"Ġsympt":4191,"omet":4192,"Ġ<":4193,"Ġdemoc":4194,"ĠApplic":4195,"Ġmoney":4196,"where":4197,"ectors":4198,"acles":4199,"Ġintelligence":4200,"ĠWorld":4201,"goti":4202,"Ġprotoc":4203,"Ġdemonstrated":4204,"ulated":4205,"Ġresponses":4206,"ĠKeep":4207,"Ġreligious":4208,"Ġmeticul":4209,"Ġunl":4210,"ĠProt":4211,"ĠNo":4212,"Ġpaper":4213,"mission":4214,"ĠAf":4215,"ĠEducation":4216,"ales":4217,"Ġi":4218,"Ġcombining":4219,"Ġreveal":4220,"Ġrecognize":4221,"Ġbook":4222,"Ġrecognition":4223,"Ġcountries":4224,"Ġknew":4225,"Ġinstru":4226,"ody":4227,"Ġwisdom":4228,"Ġpromo":4229,"udden":4230,"ĠReal":4231,"Ġreality":4232,"Ġcharacteristics":4233,"Ġstorytelling":4234,"Ġpurposes":4235,"Ġprioritize":4236,"Ġperiods":4237,"Ġtap":4238,"Ġcraft":4239,"Ġpen":4240,"Ġdrawing":4241,"Ġlast":4242,"Ġjustice":4243,"Ġrepresentation":4244,"avigating":4245,"ĠNow":4246,"osystem":4247,"Ġdealing":4248,"Ġconversation":4249,"Ġoccur":4250,"faces":4251,"bon":4252,"Ġfast":4253,"urg":4254,"Ġemphasizing":4255,"Ġmanip":4256,"Ġgiving":4257,"Ġweather":4258,"etary":4259,"Ġthird":4260,"Ġinteraction":4261,"Ġfeeling":4262,"Ġsmart":4263,"Ġrenew":4264,"Ġtack":4265,"Ġcrafting":4266,"Ġdream":4267,"Ġanticip":4268,"urch":4269,"asons":4270,"Ġfeaturing":4271,"Ġgive":4272,"room":4273,"eli":4274,"Ġbrought":4275,"order":4276,"Ġconstraints":4277,"Ġacademic":4278,"Ġpan":4279,"ĠRef":4280,"Ġcells":4281,"Ġsac":4282,"Ġexcellent":4283,"Ġsuff":4284,"Ġbehaviors":4285,"reprene":4286,"Ġball":4287,"Ġaspiring":4288,"Ġgoing":4289,"Ġenter":4290,"odes":4291,"ĠDec":4292,"Ġschol":4293,"ellect":4294,"ĠĠĠĠĠĠĠĠ":4295,"eign":4296,"Ġmicro":4297,"Ġcheck":4298,"PI":4299,"arding":4300,"Ġestate":4301,"Ġcool":4302,"ready":4303,"Ġevaluating":4304,"Ġvision":4305,"Ġeffectiveness":4306,"Ġtransl":4307,"oon":4308,"Ġcorrect":4309,"Ġoption":4310,"Ġprote":4311,"Ġremark":4312,"Ġmil":4313,"Ġtransc":4314,"ĠEstablish":4315,"riteria":4316,"Ġassets":4317,"aly":4318,"Ġpiv":4319,"Ġattribut":4320,"chain":4321,"Ġmeeting":4322,"Ġkeeping":4323,"Understanding":4324,"ĠLeg":4325,"Ġexchange":4326,"ĠCare":4327,"ĠProv":4328,"Ġnational":4329,"Ġphen":4330,"Ġparamount":4331,"Ġadds":4332,"des":4333,"Ġcaused":4334,"Ġpositions":4335,"Ġgenerate":4336,"any":4337,"nesses":4338,"Ġfeelings":4339,"Ġbeliefs":4340,"cient":4341,"Ġmovements":4342,"ĠSuccess":4343,"Ġleveraging":4344,"appy":4345,"Ġboasts":4346,"Ġdelivery":4347,"Let":4348,"Ġevol":4349,"Ġmachine":4350,"ĠCal":4351,"ĠGoogle":4352,"ires":4353,"Ġnegoti":4354,"Ġmonths":4355,"Ġthoughtful":4356,"Ġqualities":4357,"Ġmetrics":4358,"Ġlink":4359,"Ġaccuracy":4360,"urban":4361,"Ġanxiety":4362,"hand":4363,"ags":4364,"Ġatm":4365,"Ġmission":4366,"Ġexpans":4367,"Ġtraditions":4368,"Ġtransfer":4369,"Ġvery":4370,"Ġmessages":4371,"ĠCustom":4372,"Ġseemed":4373,"amiliar":4374,"Ġconsult":4375,"Ġeasily":4376,"ĊĠĠĠ":4377,"ĠOrgan":4378,"Ġdivid":4379,"Ġtell":4380,"friendly":4381,"Ġ{":4382,"ocurr":4383,"Ġimpressive":4384,"Ġhous":4385,"Ġsubsequ":4386,"ai":4387,"Ġcreates":4388,"Ġconstruction":4389,"Ġmobile":4390,"ĠConn":4391,"Ġdidn":4392,"ĠUS":4393,"Ġdiving":4394,"ĠSpecifically":4395,"Ġimprovements":4396,"------------":4397,"Ġembrace":4398,"Ġproduce":4399,"Ġmemor":4400,"Ġlabor":4401,"Ġcogn":4402,"Ġecosystem":4403,"Ġgender":4404,"Ġdemonstrating":4405,"Ġdrug":4406,"Ġpositively":4407,"Ġreason":4408,"Ġcitizens":4409,"ĠEvalu":4410,"Ġlikely":4411,"ibly":4412,"Ġvent":4413,"Ġalgorithms":4414,"Ġfans":4415,"ĠFl":4416,"atically":4417,"whel":4418,"Ġprove":4419,"Ġalready":4420,"ĠCho":4421,"Ġfactor":4422,"ĠOnce":4423,"Ġcompatibility":4424,"Ġshed":4425,"Ġprompt":4426,"uality":4427,"Ġcause":4428,"Ġrunning":4429,"ription":4430,"Ġuncertain":4431,"Ġintervention":4432,"ception":4433,"Ġdisease":4434,"Ġrevenue":4435,"ratic":4436,"ĠQu":4437,"Ġremarkable":4438,"With":4439,"ĠEncouraging":4440,"Ġcollege":4441,"Ġshift":4442,"Ġheard":4443,"Ġweek":4444,"Ġnight":4445,"ought":4446,"Ġaccountability":4447,"ercial":4448,"ief":4449,"Ġlonger":4450,"Ġincorporate":4451,"osph":4452,"itage":4453,"Ġshar":4454,"Ġesc":4455,"ĠInc":4456,"ipping":4457,"Ġmessage":4458,"Ġep":4459,"oman":4460,"Ġlate":4461,"Ġplayed":4462,"lity":4463,"Ġpatience":4464,"Ġfall":4465,"Ġcompetit":4466,"Ġdevice":4467,"Ġspent":4468,"cles":4469,"Ġbol":4470,"Ġstudying":4471,"Ġconventional":4472,"Ġinterven":4473,"Ġrelease":4474,"Ġchec":4475,"vey":4476,"ĠPr":4477,"Ġmaximize":4478,"Ġlux":4479,"ounds":4480,"Ġattend":4481,"Ġsymbol":4482,"Ġapproximately":4483,"usivity":4484,"Ġfive":4485,"Ġheavily":4486,"ĠMeanwhile":4487,"ubs":4488,"Ġdeg":4489,"ĠCO":4490,"Ġrecently":4491,"uct":4492,"ils":4493,"Ġincome":4494,"Ġlived":4495,"Ġinfluencing":4496,"Ġmys":4497,"Ġfire":4498,"Ġreading":4499,"neys":4500,"Ġdou":4501,"Ġnorms":4502,"inent":4503,"Ġswe":4504,"Ġsoph":4505,"Ġdesigning":4506,"Ġcorres":4507,"Ġfrequently":4508,"ky":4509,"Ġinstances":4510,"erved":4511,"Ġattemp":4512,"ĠTechniques":4513,"orrow":4514,"Ġbrings":4515,"Ġblog":4516,"Ġlistening":4517,"Ġwitness":4518,"ficial":4519,"Imagine":4520,"Ġtrying":4521,"Ġvoice":4522,"Ġsoon":4523,"Ġopening":4524,"ket":4525,"Ġwhenever":4526,"ĠCommon":4527,"Ġhom":4528,"Ġcapture":4529,"raf":4530,"Ġtechnique":4531,"Ġemployed":4532,"Ġprob":4533,"Ġthoughts":4534,"Ġlens":4535,"Ġbust":4536,"Ġbrid":4537,"Ġadequ":4538,"Ġequipped":4539,"Ġsn":4540,"Ġpopulations":4541,"Ġanalytics":4542,"Ġtransition":4543,"Ġcenter":4544,"Ġteaching":4545,"pper":4546,"mary":4547,"ĠOb":4548,"ĠGl":4549,"Ġfulf":4550,"Ġwide":4551,"Ġfacilities":4552,"ographic":4553,"conn":4554,"Ġvarying":4555,"reed":4556,"Ġadver":4557,"ublish":4558,"rief":4559,"Ġstraight":4560,"Ġsophistic":4561,"pons":4562,"Ġgoes":4563,"Ġintriguing":4564,"}\\":4565,"ison":4566,"ormal":4567,"Ġmemories":4568,"Ġphenomen":4569,"Ġrely":4570,"Ġcontrast":4571,"ĠAccess":4572,"aur":4573,"power":4574,"itement":4575,"oints":4576,"izations":4577,"Ġculinary":4578,"off":4579,"ĠPlay":4580,"Ġillustrate":4581,"ĠSol":4582,"icy":4583,"Ġsuccessfully":4584,"Ġurban":4585,"ull":4586,"Ġgeneral":4587,"Ġparticipation":4588,".'":4589,"Ġestablishing":4590,"Ġcontaining":4591,"Ġbodies":4592,"umbled":4593,"Ġfollowed":4594,"ĠEns":4595,"Ġinput":4596,"Ġinspire":4597,"Ġcurious":4598,"ork":4599,"Ġmanaged":4600,"Ġconsidered":4601,"Ġentities":4602,"Ġwaiting":4603,"Ġoptimize":4604,"Ġcarry":4605,"ĠHappy":4606,"Ġphil":4607,"Ġban":4608,"Ġbelong":4609,"Ġcoop":4610,"Ġperce":4611,"Ġloyalty":4612,"We":4613,"Ġreduces":4614,"Ġflavors":4615,"Ġconnecting":4616,"Ġresolution":4617,"dle":4618,"Ġobstacles":4619,"Ġminimal":4620,"Ġengaged":4621,"aches":4622,"ched":4623,"Ġfine":4624,"ĠInternational":4625,"oll":4626,"Ġconflicts":4627,"Ġunity":4628,"Ġreputation":4629,"ĠHere":4630,"Ġprotocols":4631,"Ġrespective":4632,"ference":4633,"Ġexcitement":4634,"ticism":4635,"Ġperformances":4636,"Ġtracking":4637,"Ġbrands":4638,"lined":4639,"inks":4640,"Ġimages":4641,"Ġdelicate":4642,"ooked":4643,"Ġmetal":4644,"Ġsymptoms":4645,"lig":4646,"Ġframeworks":4647,"Ġsuggests":4648,"Ġfirm":4649,"Ġuses":4650,"Ġresponsibilities":4651,"ections":4652,"Ġhealing":4653,"Ġappearance":4654,"Ġprepared":4655,"Ġstages":4656,"Ġconnected":4657,"Ġdil":4658,"Ġoperational":4659,"bu":4660,"ĠEmb":4661,"Ġholds":4662,"ĠEth":4663,"ĠNational":4664,"ror":4665,"Ġloans":4666,"ellectual":4667,"onents":4668,"Ġmemory":4669,"Ġpromising":4670,"Ġpricing":4671,"wing":4672,"Ġlayers":4673,"ĠAmong":4674,"ĠMax":4675,"Ġagencies":4676,"ĠChallen":4677,"Ġentreprene":4678,"Ġmoving":4679,"ĠFe":4680,"Ġhimself":4681,"irect":4682,"Ġjoy":4683,"Ġtreatments":4684,"Ġconfigur":4685,"Ġschools":4686,"Ġaffected":4687,"Ġoverwhel":4688,"Ġobjects":4689,"ok":4690,"Ġreflecting":4691,"Ġrapidly":4692,"itical":4693,"Ġpic":4694,"Ġexercises":4695,"esus":4696,"ĠUse":4697,"Ġcriteria":4698,"Ġstunning":4699,"overs":4700,"Ġtaste":4701,"Ġmusical":4702,"ĠVis":4703,"lim":4704,"Ġacknowledging":4705,"aves":4706,"Ġdiscovery":4707,"Ġnurturing":4708,"Ġpivotal":4709,"Ġincred":4710,"Ġexperts":4711,"ĠExploring":4712,"Ġlayer":4713,"ums":4714,"apeu":4715,"Ġunp":4716,"Ġperhaps":4717,"Ġpersist":4718,"ĠNor":4719,"Ġvisitors":4720,"Ġrh":4721,"Ġinclusive":4722,"Ġcredibility":4723,"Ġtheory":4724,"eyond":4725,"Ġelectric":4726,"ĠPe":4727,"Ġexecution":4728,"anship":4729,"Ġgar":4730,"Ġgoverning":4731,"Ġrelax":4732,"Ġoutd":4733,"ching":4734,"met":4735,"na":4736,"Ġlifesty":4737,"Ġnuances":4738,"enders":4739,"Ġequation":4740,"Ġblood":4741,"inc":4742,"Ġimmediate":4743,"Ġexpert":4744,"att":4745,"ĠPractical":4746,"Ġinten":4747,"ĠExp":4748,"Ġword":4749,"ĠApplications":4750,"rative":4751,"Ġprices":4752,",'":4753,"Ġnoticed":4754,"Ġdeveloped":4755,"Ġorganizational":4756,"Ġhalf":4757,"Ġoperation":4758,"Ġende":4759,"Ġconflict":4760,"Ġlibr":4761,"Ġnearby":4762,"Ġdepart":4763,"Ġpractition":4764,"Ġovers":4765,"Ġdetermination":4766,"Ġcultivate":4767,"eries":4768,"rix":4769,"Ġvehicle":4770,"book":4771,"Ġhabits":4772,"Ġhyd":4773,"Ġdistinc":4774,"Ġquite":4775,"verage":4776,"Ġcher":4777,"Ġsigns":4778,"Ġsupply":4779,"Ġtemperature":4780,"Ġdetermining":4781,"Ġfacilitating":4782,"esis":4783,"Ġbonds":4784,"Ġbustling":4785,"Ġwid":4786,"flow":4787,"Ġcrow":4788,"Ġpreventing":4789,"Ġassign":4790,"Ġwild":4791,"ĠLever":4792,"Ġmyself":4793,"Ġprotecting":4794,"Ġparents":4795,"Ġtrade":4796,"Ġcoll":4797,"ĠJesus":4798,"Ġmemorable":4799,"working":4800,"Ġmarg":4801,"ilitary":4802,"tt":4803,"Ġic":4804,"Ġfix":4805,"asp":4806,"Ġroutine":4807,"Ġcloud":4808,"used":4809,"Ġregions":4810,"bles":4811,"Ġwhose":4812,"Ġvisibility":4813,"iers":4814,"Ġanyone":4815,"very":4816,"isions":4817,"Ġopin":4818,"ulture":4819,"Ġcancer":4820,"Ġfocuses":4821,"Ġchances":4822,"Ġmort":4823,"ams":4824,"ieties":4825,"Ġstore":4826,"Ġevolution":4827,"Ġadopting":4828,"ĠAssess":4829,"Ġaccept":4830,"Ġshows":4831,"Ġevaluate":4832,"Ġactual":4833,"Ġinvestors":4834,"Ġlisten":4835,"Ġemergency":4836,"ana":4837,"ĠPublic":4838,"ĠGe":4839,"Ġanimals":4840,"Ġelement":4841,"ĠAfric":4842,"Ġstumbled":4843,"ĠLook":4844,"Ġscr":4845,"Ġexempl":4846,"Ġexpenses":4847,"Ġfiles":4848,"ĠConsiderations":4849,"Ġinteresting":4850,"Re":4851,"rial":4852,"Ġerrors":4853,"Ġheritage":4854,"ults":4855,"Ġtrig":4856,"_{":4857,"Ġancient":4858,"Ġreflection":4859,"Ġfuel":4860,"Ġholistic":4861,"Ġstands":4862,"Ġwhite":4863,"Ġutilize":4864,"ading":4865,"ĠImplementing":4866,"rid":4867,"Ġample":4868,"Ġdepend":4869,"Ġestim":4870,"reet":4871,"Ġgrad":4872,"Ġtut":4873,"Ġrecommendations":4874,"efits":4875,"Ġhoriz":4876,"connected":4877,"If":4878,"iation":4879,"ĠSur":4880,"Ġcultivating":4881,"Ġunderscores":4882,"owned":4883,"Ġlost":4884,"Ġcommercial":4885,"elihood":4886,"Ġregularly":4887,"Ġsong":4888,"Ġsou":4889,"umes":4890,"Ġconvenience":4891,"ck":4892,"ĠAb":4893,"Ġthanks":4894,"Ġappealing":4895,"Ġinspired":4896,"Ġamount":4897,"lessly":4898,"Ġinterview":4899,"ĠUnder":4900,"Ġcombined":4901,"ĠHar":4902,"Ġindeed":4903,"Ġgeneration":4904,"Ġsites":4905,"Ġdistribut":4906,"Ġactively":4907,"Ġelim":4908,"Ġexplored":4909,"Ġseamlessly":4910,"ersonal":4911,"Ġrelev":4912,"manship":4913,"Ġexplicit":4914,"Ġeasier":4915,"Ġflavor":4916,"osphere":4917,"Ġpracticing":4918,"ĠWell":4919,"Ġraw":4920,"Ġcharm":4921,"ĠHistorical":4922,"ĠStates":4923,"odies":4924,"Ġunn":4925,"Ġsusp":4926,"ĠDem":4927,"Ġclassic":4928,"Ġapplied":4929,"inf":4930,"Ġadversity":4931,"Ġinterventions":4932,"',":4933,"Ġworksh":4934,"ensity":4935,"Ġrecovery":4936,"Ġengineering":4937,"oles":4938,"ĠProper":4939,"Ġchemical":4940,"ĠPart":4941,"Ġcognitive":4942,"ocking":4943,"apeutic":4944,"Ġarise":4945,"rant":4946,"Ġhair":4947,"Ġcompar":4948,"Ġvig":4949,"Ġhosp":4950,"ĠNet":4951,"igital":4952,"roduce":4953,"ordinary":4954,"Example":4955,"ĠProcess":4956,"Ġsubsequent":4957,"Ġcompetitors":4958,"atur":4959,"Ġdecre":4960,"Ġsubs":4961,"50":4962,"eterm":4963,"Despite":4964,"tor":4965,"ley":4966,"Ġwel":4967,"Ġmel":4968,"Ġemerged":4969,"ĠFuture":4970,"Ġemploying":4971,"Ġcollaborative":4972,"ĠAv":4973,"Ġexpanding":4974,"Ġwear":4975,"Ġpoly":4976,"ĠConf":4977,"ashion":4978,"ffee":4979,"Ġpopularity":4980,"Ġmist":4981,"Ġscene":4982,"ague":4983,"Ġadvice":4984,"Ġstrict":4985,"}}":4986,"Ġfile":4987,"Ġsex":4988,"Ġwhereas":4989,"Ġdishes":4990,"Ġtransactions":4991,"Ġheavy":4992,"ĠBack":4993,"Ġfigures":4994,"agers":4995,"Ġunfor":4996,"Ġreinfor":4997,"Ġextensive":4998,"Ġalter":4999,"lean":5000,"Ġenforcement":5001,"osoph":5002,"Ġhear":5003,"ceptions":5004,"Ġcryptocurr":5005,"Ġaccessible":5006,"Ġextraordinary":5007,"Ġmaster":5008,"ĠOut":5009,"Ġbeloved":5010,"Ġdelight":5011,"Ġproceed":5012,"Ġmanufacturers":5013,"ĠSaf":5014,"ĠBar":5015,"Ġclinical":5016,"Ġcour":5017,"Ġinclusivity":5018,"Ġcommunic":5019,"Ġembark":5020,"ĠSince":5021,"Ġaccurately":5022,"Ġvehicles":5023,"ompl":5024,"Ġarticle":5025,"iant":5026,"outs":5027,"ĠEncourage":5028,"Ġinsight":5029,"Ġchance":5030,"ĠAppro":5031,"Ġcivil":5032,"ounting":5033,"Ġrise":5034,"iven":5035,"Ġsaw":5036,"Ġcommitted":5037,"Ġaffect":5038,"Ġevaluation":5039,"Ġinjuries":5040,"ĠFact":5041,"asion":5042,"Ġhyp":5043,"uting":5044,"Ġconcent":5045,"ĠFinally":5046,"Ġpurchasing":5047,"ederal":5048,"bit":5049,"urd":5050,"ĠGu":5051,"Ġaesthetics":5052,"tising":5053,"Ġpreparation":5054,"Pro":5055,"ĠWar":5056,"Ġgetting":5057,"Ġexplained":5058,"Ġthr":5059,"Ġannoun":5060,"Ġcandidates":5061,"Ġblend":5062,"ĠVal":5063,"Ġserved":5064,"roup":5065,"Ġallowed":5066,"Ġfees":5067,"What":5068,"Ġwonder":5069,"unately":5070,"ferences":5071,"Ġaccompl":5072,"down":5073,"Ġbatter":5074,"Ġpractitioners":5075,"Ġharmon":5076,"Ġling":5077,"Ġpassage":5078,"ĠState":5079,"Ġinjury":5080,"Ġboost":5081,"Ġotherwise":5082,"Ġbreaking":5083,"Ġmaximum":5084,"Ġheld":5085,"Ġsix":5086,"ĠJam":5087,"Ġatmosphere":5088,"Ġsurv":5089,"known":5090,"unte":5091,"Ġoptimization":5092,"Ġcauses":5093,"ĠInv":5094,"Ġalignment":5095,"Ġlocations":5096,"(\\":5097,"mon":5098,"rad":5099,"Ġdefine":5100,"App":5101,"Ġshowcasing":5102,"Ġdental":5103,"Ġhers":5104,"Ġworry":5105,"Ġsurprise":5106,"Throughout":5107,"Ġpublish":5108,"lected":5109,"Ġadequate":5110,"ĠRelations":5111,"Ġintegral":5112,"Ġactually":5113,"Ġreceived":5114,"bal":5115,"Ġisol":5116,"Ġaren":5117,"Ġsector":5118,"Ġrelevance":5119,"Ġparticipating":5120,"nings":5121,"Ġentertainment":5122,"ightly":5123,"Ġreminder":5124,"ĠMin":5125,"Ġinterconnected":5126,"Ġlaun":5127,"Ġcoverage":5128,"ĠCap":5129,"ĠUniversity":5130,"lamm":5131,"Ġzero":5132,"Ġintim":5133,"Ġstring":5134,"AR":5135,"Ġintellectual":5136,"ĠLit":5137,"ĠDiscuss":5138,"Ġpet":5139,"aching":5140,"Ġversion":5141,"ĠTechnology":5142,"Ġscholars":5143,"Ġlic":5144,"Ġcomplement":5145,"solving":5146,"Ġlatest":5147,"Ġreplace":5148,"Ġcommunicate":5149,"Ġaccounts":5150,"Ġremote":5151,"Ġreports":5152,"Ġrule":5153,"ĠSign":5154,"ara":5155,"Ġwanted":5156,"Ġglance":5157,"Ġfreed":5158,"ĠLearning":5159,"Ġgrapp":5160,"Ġdatab":5161,"ville":5162,"Ġple":5163,"Ġstrive":5164,"Ġpromotes":5165,"Ġblockchain":5166,"Ġavailability":5167,"Ġtit":5168,"Ġrefine":5169,"Ġcaptivating":5170,"Ġcentered":5171,"Ġfunds":5172,"Ġche":5173,"andom":5174,"key":5175,"Ġlooked":5176,"Ġgas":5177,"ĠPractices":5178,"Ġreaching":5179,"Ġgaming":5180,"Ġsour":5181,"Ġfarm":5182,"otes":5183,"Ġcorner":5184,"Ġtherapeutic":5185,"Ġ18":5186,"Ġuns":5187,"Ġexplo":5188,"Ġdimensions":5189,"ĠMet":5190,"Ġpu":5191,"Ġindependent":5192,"Ġmathematical":5193,"Ġtradition":5194,"ĠMany":5195,"Ġshifts":5196,"Ġhop":5197,"tification":5198,"Ġvariables":5199,"Ġdesigners":5200,"ĠSee":5201,"Ġtask":5202,"Ġdurability":5203,"ĠUtilizing":5204,"Ġreporting":5205,"ĠBenefits":5206,"Ġthrive":5207,"Ġmal":5208,"inu":5209,"ĠAut":5210,"Ġready":5211,"Ġsubject":5212,"Ġwritten":5213,"Ġmitigate":5214,"Ġdark":5215,"Ġstatement":5216,"ĠTogether":5217,"Ġreviews":5218,"Ġwon":5219,"Ġwealth":5220,"Ġshapes":5221,"points":5222,"Ġforeign":5223,"Ġtransformative":5224,"Ġpoor":5225,"Ġsounds":5226,"co":5227,"Ġimpl":5228,"Ġplant":5229,"Ġtargeting":5230,"ented":5231,"Ġexcessive":5232,"ĠApplying":5233,"ĠImpro":5234,"ĠCommunity":5235,"Ġauthenticity":5236,"Un":5237,"Em":5238,"ĠOnline":5239,"Ġinfluences":5240,"Ġschem":5241,"Ġinvestments":5242,"Ġstrengthen":5243,"âĤ":5244,"Ġtargeted":5245,"ĠNon":5246,"Ġlon":5247,"Ġexists":5248,"Ġinstitution":5249,"Ġdilig":5250,"))":5251,"Ġinnovations":5252,"ĠChallenges":5253,"Ġsevere":5254,"Ġcomprehension":5255,"ĠNavigating":5256,"//":5257,"Ġdiscussed":5258,"Ġdelves":5259,"Ġpaths":5260,"====":5261,"anation":5262,"Ġchain":5263,"Ġprop":5264,"ĠEmbracing":5265,"Ġunits":5266,"Ġglass":5267,"Ġthoughtfully":5268,"asm":5269,"irms":5270,"ĠIndia":5271,"Ġtexture":5272,"udes":5273,"agues":5274,"Ġintroduced":5275,"Ġrelying":5276,"Ġseasoned":5277,"Ġherself":5278,"Ġlikelihood":5279,"Ġinvestigation":5280,"ĠAmerica":5281,"Ġwait":5282,"Ġleave":5283,"Ġmastering":5284,"Ġleverage":5285,"And":5286,"Â²":5287,"Ġincreases":5288,"Ġcharacterized":5289,"Ġstruggle":5290,"Ġversatile":5291,"ĠServices":5292,"Ġbrain":5293,"Ġtransforming":5294,"Ġtopic":5295,"Ġscreen":5296,"Ġneighbor":5297,"yl":5298,"Ġdistance":5299,"Ġdu":5300,"Ġtimely":5301,"house":5302,"Ġconnect":5303,"antly":5304,"Ġsleep":5305,"Ġminutes":5306,"ronic":5307,"era":5308,"ĠRecogn":5309,"dit":5310,"Ġmedicine":5311,"Ġweeks":5312,"son":5313,"Ġimmense":5314,"Ġmilitary":5315,"olding":5316,"oding":5317,"ĠCoun":5318,"prof":5319,"ĠCity":5320,"Ġtruth":5321,"Ġinvolvement":5322,"Ġdocuments":5323,"Ġcatering":5324,"Ġnotice":5325,"Ġliterature":5326,"overn":5327,"lining":5328,"Ġemotion":5329,"tial":5330,"Ġbooks":5331,"Ġaid":5332,"oting":5333,"Ġcontract":5334,"Ġdish":5335,"Ġfigure":5336,"tific":5337,"ĠDep":5338,"ĠMeas":5339,"Ġfinance":5340,"ĠRespons":5341,"Ġeveryday":5342,"Ġcohes":5343,"Ġentails":5344,"Ġeventually":5345,"Ġweaknesses":5346,"ann":5347,"Ġextended":5348,"Ġparticipate":5349,"pers":5350,"Ġbir":5351,"Ġseparate":5352,"Ġrevolution":5353,"NA":5354,"Ġveget":5355,"Ġviolence":5356,"ĠThom":5357,"Ġpursuing":5358,"Ġresidents":5359,"Ġdisapp":5360,"ographics":5361,"Ġpressing":5362,"apping":5363,"Ġdating":5364,"ĠSouth":5365,"Ġmeals":5366,"Ġagreed":5367,"Ġextre":5368,"ourses":5369,"gg":5370,"free":5371,"Ġpand":5372,"Ġtheore":5373,"Ġpersonnel":5374,"ww":5375,"Ġproactive":5376,"Ġessence":5377,"ĠEnh":5378,"ĠSystems":5379,"Ġrewards":5380,"ĠModern":5381,"Ġabsor":5382,"Ġhandle":5383,"Ġasking":5384,"Ġsquare":5385,"eters":5386,"Ġpun":5387,"ĠSw":5388,"Ġprecise":5389,"Ġpair":5390,"Ġmanual":5391,"ographical":5392,"Ġmotivation":5393,"Ġempowers":5394,"Ġgrand":5395,"Ġpsychological":5396,"Ġpromises":5397,"oe":5398,"Ġdog":5399,"Ġmonitor":5400,"ĠCB":5401,"struc":5402,"Ġforth":5403,"Ġmusicians":5404,"fac":5405,"Ġtangible":5406,"ĠLife":5407,"Ġroad":5408,"Ġpreviously":5409,"Ġcategories":5410,"apy":5411,"Ġassessment":5412,"anges":5413,"ecessary":5414,"Ġderived":5415,"unction":5416,"rt":5417,"ĠSub":5418,"Ġobtain":5419,"Ġuncover":5420,"Ġphilosoph":5421,"vis":5422,"Ġimmediately":5423,"ĠIdentifying":5424,"Ġsolving":5425,"Ġmessaging":5426,"iled":5427,"dis":5428,"Ġhit":5429,"Ġcentury":5430,"Ġadherence":5431,"Ġ($":5432,"ello":5433,"Ġprecision":5434,"ibl":5435,"related":5436,"Ġworkshops":5437,"Ġspot":5438,"Ġscenario":5439,"Ġpersever":5440,"Ġdeath":5441,"otive":5442,"rust":5443,"otor":5444,"Ġaccomp":5445,"ĠSEO":5446,"aters":5447,"Ġexpressions":5448,"Ġremaining":5449,"Ġcleaning":5450,"Ġviews":5451,"ĠTravel":5452,"ont":5453,"Ġwent":5454,"Ġcompromising":5455,"ĠArts":5456,"Ġaudio":5457,"Ġsavings":5458,"Ġselling":5459,"ĠProm":5460,"osition":5461,"ĠMonit":5462,"Ġbelow":5463,"CA":5464,"Ġownership":5465,"Ġpushing":5466,"Ġvigil":5467,"Ġcoffee":5468,"Ġelect":5469,"Ġcatch":5470,"rovers":5471,"ively":5472,"Ġleast":5473,"tire":5474,"ĠEffective":5475,"Ġpolicym":5476,"iveness":5477,"uman":5478,"letes":5479,"Ġwood":5480,"leg":5481,"Ġease":5482,"ĠRuss":5483,"Ġinner":5484,"Ġcontrac":5485,"Ġstriking":5486,"oys":5487,"Ġsubtle":5488,"Ġthing":5489,"Ġapplicable":5490,"Ġlimits":5491,"PS":5492,"ĠPot":5493,"Ġresonate":5494,"ĠLaw":5495,"ĠControl":5496,"Next":5497,"igration":5498,"Ġadjustments":5499,"ĠUp":5500,"ĠEuropean":5501,"Ġproducing":5502,"iate":5503,"arian":5504,"Ġcos":5505,"Ġcomposition":5506,"fol":5507,"VID":5508,"Ġexperiencing":5509,"Ġhappened":5510,"Ġcooperation":5511,"aul":5512,"ĠBalancing":5513,"Ġliqu":5514,"Ġorganic":5515,"Ġgenerating":5516,"Ġtrend":5517,"Ġemphasizes":5518,"Ġaesthetic":5519,"Ġpray":5520,"Ġinspiring":5521,"Ġeleg":5522,"venues":5523,"Ġloan":5524,"Ġmedium":5525,"Ġsuppor":5526,"Ġtheoretical":5527,"Ġlighting":5528,"Ġpreparing":5529,"ĠDeveloping":5530,"Ġextends":5531,"erie":5532,"Ġ12":5533,"Ġfinally":5534,"Ġmember":5535,"ishes":5536,"ĠLim":5537,"Ġlocated":5538,"Ġacquis":5539,"Ġparty":5540,"Ġfaster":5541,"ĠStudents":5542,"Ġroots":5543,"Ġprofici":5544,"Ġsudden":5545,"Ġdry":5546,"och":5547,"Ġprospects":5548,"Ġcorporate":5549,"Ġinternet":5550,"oly":5551,"Ġoutput":5552,"Ġ199":5553,"Ġgovernance":5554,"irus":5555,"Ġamounts":5556,"umn":5557,"Ġstruggles":5558,"water":5559,"Ġcarbon":5560,"Ġreflects":5561,"yd":5562,"ĠSecond":5563,"faceted":5564,"Ġbackgrounds":5565,"Ġtravelers":5566,"Ġreputable":5567,"Ġsave":5568,"Ġminor":5569,"ĠDi":5570,"Ġbed":5571,"Ġformation":5572,"ĠNever":5573,"orship":5574,"Ġpoll":5575,"Ġoneself":5576,"Ġtutorial":5577,"Ġtiss":5578,"Ġemerge":5579,"ives":5580,"ĠRegularly":5581,"Ġincident":5582,"tedly":5583,"Ġbelieve":5584,"Ġrepresenting":5585,"Ġinteract":5586,"Ġplants":5587,"Ġarrangements":5588,"ĠBre":5589,"ountain":5590,"eath":5591,"here":5592,"Ġpitch":5593,"ĠKnow":5594,"Ġprofit":5595,"Ġsuppl":5596,"Ġhes":5597,"illed":5598,"inder":5599,"Ġreliability":5600,"Ġformat":5601,"Ġanswer":5602,"ĠAssoci":5603,"Ġcomplexities":5604,"Ġentrepreneurs":5605,"ĠYet":5606,"word":5607,"Ġscienti":5608,"Ġtension":5609,"uests":5610,"Ġsecuring":5611,"ĠSecurity":5612,"Ġtip":5613,"Ġskilled":5614,"Ġconduct":5615,"PA":5616,"ĠRet":5617,"Ġperceived":5618,"Ġlifestyle":5619,"Ġsuggested":5620,"such":5621,"Ġgem":5622,"ek":5623,"Ġfront":5624,"omestic":5625,"Ġsupports":5626,"onomic":5627,"Ġsophisticated":5628,"Ġrenowned":5629,"Ġversatility":5630,"Ġplaces":5631,"ĠFr":5632,"Ġworkers":5633,"Ġformula":5634,"Ġupcoming":5635,"lections":5636,"://":5637,"Ġdang":5638,"uis":5639,"gevity":5640,"ĠDon":5641,"ĠDigital":5642,"Ġprofiles":5643,"Ġsought":5644,"Ġpick":5645,"Ġbeneficial":5646,"Ġargue":5647,"Ġpayment":5648,"igen":5649,"taking":5650,"oving":5651,"ĠProduc":5652,"mathb":5653,"Ġactors":5654,"oral":5655,"MS":5656,"Ġachievements":5657,"Sc":5658,"Ġneu":5659,"Ġagg":5660,"Ġpersonalized":5661,"Ġcollaborations":5662,"estim":5663,"Ġtaught":5664,"Ġalthough":5665,"Ġacts":5666,"idity":5667,"Ġsizes":5668,"Ġvisually":5669,"ounters":5670,"Ġtrip":5671,"ycl":5672,"Ġintroduce":5673,"Ġemployee":5674,"ĠSupp":5675,"Ġspecies":5676,"ĠCri":5677,"Ġgenerated":5678,"Ġavoiding":5679,"Ġdisorders":5680,"Ġfan":5681,"Ġfant":5682,"plom":5683,"pection":5684,"Ġhelped":5685,"Ġformal":5686,"Ġlaugh":5687,"Ġblack":5688,"Ġcomfortable":5689,"Ġtips":5690,"opping":5691,"Ġscal":5692,"Ġsacri":5693,"Ġfem":5694,"Ġsuitable":5695,"ĠForm":5696,"Ġstanding":5697,"Ġinterested":5698,"Ġaf":5699,"Ġbott":5700,"Ġattending":5701,"Ġgot":5702,"ailing":5703,"inding":5704,"Ġaverage":5705,"asy":5706,"Ġvill":5707,"Ġresol":5708,"Ġrati":5709,"Ġenduring":5710,"Ġhosting":5711,"Ġmortg":5712,"erb":5713,"Ġfab":5714,"Ġvolunte":5715,"Ġcouns":5716,"ĠTime":5717,"Ġdeploy":5718,"Ġrot":5719,"ĠConvers":5720,"Ġflexible":5721,"Ġconversion":5722,"Ġmagn":5723,"Ġentry":5724,"Ġseems":5725,"}$":5726,"Ġsupportive":5727,"12":5728,"Ġiconic":5729,"Ġdisrup":5730,"ĠHIV":5731,"Ġextr":5732,"Ġdecades":5733,"ĠEqu":5734,"Ġnotes":5735,"Ġfashion":5736,"found":5737,"Ġreasons":5738,"Ġfitness":5739,"iling":5740,"Ġblue":5741,"onomy":5742,"Ġcollect":5743,"ears":5744,"Ġpor":5745,"Ġbeneath":5746,"Ġhistor":5747,"onding":5748,"ta":5749,"Ġexpected":5750,"Ġvict":5751,"Ġcreations":5752,"Ġstreamline":5753,"ĠBas":5754,"anging":5755,"Ġhardware":5756,"Ġintended":5757,"osed":5758,"estiv":5759,"Ġworked":5760,"Ġcoaches":5761,"Ġhousing":5762,"ĠFactors":5763,"Ġwine":5764,"rie":5765,"Ġpopulation":5766,"Ġlongevity":5767,"Ġnod":5768,"ĠLastly":5769,"Ġassist":5770,"Ġlanguages":5771,"Ġmillion":5772,"OS":5773,"onial":5774,"Ġdivine":5775,"Ġforming":5776,"ĠMusic":5777,"Ġsent":5778,"ĠMul":5779,"Ġarchitecture":5780,"Ġprepare":5781,"Ġfreedom":5782,"Ġmachines":5783,"Ġstatistics":5784,"ĠTimmy":5785,"Ġquanti":5786,"Ġprominent":5787,"Ġmoist":5788,"Ġox":5789,"cipl":5790,"Ġthriving":5791,"ĠJour":5792,"ĠCompar":5793,"Ġsurpris":5794,"Ġreturns":5795,"ĠIdentify":5796,"Ġluxury":5797,"VII":5798,"ĠFollow":5799,"ken":5800,"quis":5801,"riven":5802,"Ġforget":5803,"Ġencountered":5804,"gments":5805,"Ġmolec":5806,"Ġdescribed":5807,"Ġtech":5808,"Ġdelicious":5809,"Ġgrace":5810,"Ġmultifaceted":5811,"Ġrecipe":5812,"Ġgaps":5813,"Ġhomes":5814,"ĠBo":5815,"Ġselect":5816,"Ġdiseases":5817,"ĠLead":5818,"olic":5819,"ĠBet":5820,"Ġoffice":5821,"ĠÎ":5822,"Ġtests":5823,"Ġadoption":5824,"ĠCOVID":5825,"Ġadvertising":5826,"vantages":5827,"ĠWork":5828,"Ġpromp":5829,"Ġmov":5830,"Ġod":5831,"Ġvic":5832,"ĠEnter":5833,"Ġattract":5834,"Ġovercome":5835,"After":5836,"ĠNe":5837,"ĠCur":5838,"ĠPat":5839,"ĠMicro":5840,"Ġreveals":5841,"Ġpal":5842,"Ġsuit":5843,"Ġguests":5844,"ĠPerformance":5845,"Ġserious":5846,"ĠStay":5847,"Ġcareers":5848,"Ġminds":5849,"Ġharmony":5850,"pecting":5851,"ĠLeveraging":5852,"Ġidentified":5853,"Ġsell":5854,"Ġwilling":5855,"Ġcoaching":5856,"uthor":5857,"ĠEl":5858,"Ġusually":5859,"Ġpassed":5860,"Ġviewers":5861,"inter":5862,"Ġrare":5863,"itivity":5864,"uff":5865,"Ġallocation":5866,"Ġcook":5867,"Ġdead":5868,"Ġsweet":5869,"arter":5870,"ĠSum":5871,"ĠPlus":5872,"ĠPost":5873,"anted":5874,"Ġlegis":5875,"Ġband":5876,"Ġlegacy":5877,"ĠExample":5878,"ĠOpportun":5879,"Ġdebates":5880,"Ġuncertainty":5881,"ĠAdap":5882,"Ġintersection":5883,"Ġconscious":5884,"Ġmir":5885,"urring":5886,"Ġconvey":5887,"ruption":5888,"Ġeducators":5889,"ĠImagine":5890,"page":5891,"Ġjourneys":5892,"arking":5893,"worth":5894,"Ġsuperior":5895,"pread":5896,"table":5897,"aunting":5898,"Ġclaims":5899,"Ġjournal":5900,"Ġdirection":5901,"istry":5902,"Ġmotion":5903,"Ġunnecessary":5904,"Ġclarity":5905,"Ġampl":5906,"inity":5907,"ested":5908,"Ġpandemic":5909,"Guid":5910,"Ġdisciplines":5911,"Ġencounters":5912,"Ġdomain":5913,"Ġvulnerable":5914,"Ġvariations":5915,"ĠRo":5916,"ĠPark":5917,"Ġstead":5918,"Ġreactions":5919,"Ġhumanity":5920,"Ġframework":5921,"ponding":5922,"Ġharmonious":5923,"Ġask":5924,"point":5925,"Ġcenters":5926,"Ġreally":5927,"Ġagents":5928,"ĠContext":5929,"Ġpromptly":5930,"hab":5931,"Ġformer":5932,"Ġtackle":5933,"Ġretail":5934,"ĠProfession":5935,"ĠDra":5936,"ĠEnviron":5937,"Ġfunding":5938,"Ġnecessitates":5939,"Ġcourses":5940,"Ġapproached":5941,"Ġvisiting":5942,"Ġdiam":5943,"aker":5944,"Ġattach":5945,"AT":5946,"erves":5947,"ĠDif":5948,"Ġerror":5949,"ĠIniti":5950,"Ġstim":5951,"ĠRob":5952,"Ġcombat":5953,"Ġsurfaces":5954,"Ġequity":5955,"Ġbit":5956,"Ġpuzz":5957,"Ġnormal":5958,"ĠWeb":5959,"theless":5960,"Ġallev":5961,"Ġcomputing":5962,"ES":5963,"estry":5964,"Ġsections":5965,"Ġintegrated":5966,"Ġbond":5967,"uctu":5968,"ĠProgram":5969,"sp":5970,"ried":5971,"Ġtwist":5972,"Ġtransformed":5973,"ĠGiven":5974,"Ġequitable":5975,"Ġfirms":5976,"Ġadaptation":5977,"nov":5978,"Ġnothing":5979,"Ġaccompan":5980,"Ġphone":5981,"Ġpeers":5982,"Ġhumans":5983,"Ġentirely":5984,"Ġpremium":5985,"Ġmark":5986,"Ġsequence":5987,"ĠEarth":5988,"Ġtast":5989,"ĠIT":5990,"Ġexpansion":5991,"Ġvideos":5992,"ĠPriv":5993,"Ġrandom":5994,"Ġdisput":5995,"Ġconstantly":5996,"ava":5997,"Ġblocks":5998,"Ġgovernments":5999,"ĠâĪ":6000,"Ġathletes":6001,"Ġperseverance":6002,");":6003,"road":6004,"Ġdefin":6005,"Ġshowcases":6006,"idespread":6007,"nab":6008,"Ġcalls":6009,"oking":6010,"ĠBest":6011,"ixt":6012,"itam":6013,"Ġbill":6014,"Ġske":6015,"ĠAct":6016,"Ġproposed":6017,"Ġdestination":6018,"Ġsem":6019,"Ġfluid":6020,"Ġgent":6021,"Ġsides":6022,"Ġpage":6023,"ĠSupport":6024,"Ġtraveling":6025,"Ġprecious":6026,"Ġrooted":6027,"Ġrestrictions":6028,"Ġgenerally":6029,"Ġeco":6030,"bl":6031,"Ġgoods":6032,"apan":6033,"Ġapps":6034,"ĠImplications":6035,"Ġemployment":6036,"arad":6037,"Ġdocumentation":6038,"Ġgrasp":6039,"Ġattributes":6040,"ĠNorth":6041,"tra":6042,"Ġagency":6043,"Ġaccomplish":6044,"ĠReview":6045,"Ġmindfulness":6046,"Ġenjoying":6047,"Ġpolicymakers":6048,"Ġfer":6049,"Ġgard":6050,"Al":6051,"Ġmanif":6052,"ĠMedia":6053,"Ġdram":6054,"Ġcombination":6055,"ĠTypes":6056,"Ġconfid":6057,"Ġexhibit":6058,"eta":6059,"Ġcha":6060,"Ġunderst":6061,"Ġmeal":6062,"Ġholding":6063,"Ġdiscourse":6064,"entral":6065,"Ġrecognized":6066,"Ġwidespread":6067,"Ġintu":6068,"Ġbuyers":6069,"ĠGroup":6070,"Ġcomplic":6071,"Ġscre":6072,"Ġmeets":6073,"Ġmarginal":6074,"Beyond":6075,"Ġsummary":6076,"rete":6077,"Ġidentities":6078,"Ġturning":6079,"anting":6080,"Ġdefined":6081,"Ġprime":6082,"Ġreceiving":6083,"Ġempowering":6084,"Ġolder":6085,"Ġhaz":6086,"asive":6087,"Ġattacks":6088,"Ġconv":6089,"Ġnation":6090,"ĠEven":6091,"Ġgeographical":6092,"Ġmilest":6093,"Ġplot":6094,"ashing":6095,"Ġago":6096,"Ġartificial":6097,"Ġvolume":6098,"Ġeconomy":6099,"Ġinequ":6100,"Ġamongst":6101,".âĢĿ":6102,"Ġcraftsmanship":6103,"ino":6104,"Ġpul":6105,"inning":6106,"Ġnewfound":6107,"Ġremained":6108,"'.":6109,"Ġconcl":6110,"Ġincidents":6111,"urrent":6112,"Ġmagical":6113,"ship":6114,"Ġrecipes":6115,"qrt":6116,"Ġ2018":6117,"Ġnetworking":6118,"Ġtemperatures":6119,"Ġfollows":6120,"Ġathle":6121,"ĠAre":6122,"Ġcontrovers":6123,"Ġversus":6124,"Ġborrow":6125,"Ġrhyth":6126,")$":6127,"Ġdoors":6128,"Ġannual":6129,"Ġaccessories":6130,"pet":6131,"ĠCultural":6132,"stone":6133,"Ġpicture":6134,"angle":6135,"rooms":6136,"Ġwhe":6137,"Ġinteg":6138,"Ġflour":6139,"Ġanything":6140,"Ġheightened":6141,"Ġrecre":6142,"ĠTwo":6143,"AC":6144,"Ġelevate":6145,"Ġpromise":6146,"Ġelectronic":6147,"ĠEnglish":6148,"ĠTip":6149,"Ġroll":6150,"Ġsunny":6151,"Ġhighlighted":6152,"estern":6153,"Ġven":6154,"Ġraised":6155,"Ġcompens":6156,"Ġbalanced":6157,"ĠAddressing":6158,"Ġclasses":6159,"Ġmeticulous":6160,"Ġneighborhood":6161,"ĊĠĠĠĠ":6162,"Ġfluctu":6163,"ttps":6164,"Ġchronic":6165,"Ġoccurs":6166,"ocation":6167,"Ġharmful":6168,"Ġmodifications":6169,"Ġauthorities":6170,"Ġinteractive":6171,"Ġindicators":6172,"ER":6173,"Ġgathering":6174,"Ġobserv":6175,"ĠJamie":6176,"Ġnewly":6177,"Ġprofile":6178,"Ġpreserve":6179,"Ġbalancing":6180,"Ġanimal":6181,"Ġtourism":6182,"eds":6183,"Ġextend":6184,"Ġoverlooked":6185,"enities":6186,"Ġassessments":6187,"Ġfru":6188,"Ġtex":6189,"Ġaffordable":6190,"Ġendeavors":6191,"Ġâ":6192,"Ġcommonly":6193,"Ġprospective":6194,"ĠGrow":6195,"Ġopt":6196,"ĠMo":6197,"araderie":6198,"Ġharnessing":6199,"Ġaccel":6200,"ĠNevertheless":6201,"parts":6202,"enty":6203,"Ġadventures":6204,"zy":6205,"Ġschedules":6206,"gers":6207,"Ġthous":6208,"Ġawa":6209,"Ġagreements":6210,"Ġmillions":6211,"Ġpredic":6212,"Ac":6213,"Ġinstructions":6214,"words":6215,"Ġoptimizing":6216,"Ġvictim":6217,"Ġyields":6218,"Hello":6219,"ocol":6220,"ĠFound":6221,"Ġcritically":6222,"Ġcamaraderie":6223,"Ġdeal":6224,"Ġphotograph":6225,"Ġreplied":6226,"under":6227,"Ġconfidently":6228,"aver":6229,"erate":6230,"Ġspeaking":6231,"Ġfailure":6232,"oning":6233,"Ġsilver":6234,"ĠClear":6235,"Ġcrisis":6236,"ĠJapan":6237,"Ġedge":6238,"Ġexplicitly":6239,"Ġperfectly":6240,"Ġimmersive":6241,"cip":6242,"top":6243,"Ġvoices":6244,"ĠAir":6245,"utive":6246,"discipl":6247,"roph":6248,"Ġeffect":6249,"Ġ15":6250,"Ġprol":6251,"ĠInves":6252,"Ġroof":6253,"Ġsafeguarding":6254,"16":6255,"Ġregim":6256,"Ġcards":6257,"Ġreward":6258,"ĠEmploy":6259,"Ġexcited":6260,"Ġsectors":6261,"ĠAust":6262,"ĠLegal":6263,"Ġstatements":6264,"erative":6265,"ĠGovern":6266,"Ġhesit":6267,"Ġmarvel":6268,"anged":6269,"ĠII":6270,"Ġillum":6271,"ĠCommunication":6272,"ĠSafety":6273,"Ġgaining":6274,"aph":6275,"Ġrelaxation":6276,"Cons":6277,"Ġgently":6278,"Ġpurchase":6279,"agon":6280,"Ġtargets":6281,"ĠOpen":6282,"ĠEd":6283,"Ġconstructive":6284,"ĠInf":6285,"ĠManufact":6286,"Ġvacc":6287,"Ġdrawn":6288,"ĠYork":6289,"Ġexcer":6290,"ematic":6291,"Ġguiding":6292,"Ġadhering":6293,"Ġice":6294,"ĠEast":6295,"15":6296,"Ġmarked":6297,"Ġconducting":6298,"Ġpages":6299,"Ġtalents":6300,"oga":6301,"Ġcounterparts":6302,"date":6303,"Ġdomestic":6304,"Ġvulnerability":6305,"piec":6306,"ette":6307,"Ġthread":6308,"ĠDist":6309,"Ġtraum":6310,"party":6311,"Ġinstallation":6312,")^":6313,"enn":6314,"Ġpayments":6315,"Ġroutines":6316,"SS":6317,"Ġload":6318,"obal":6319,"irec":6320,"Ġoccup":6321,"Ġlinked":6322,"Of":6323,"Ġtrou":6324,"Ġpredict":6325,"Ġshifting":6326,"board":6327,"Ġlinear":6328,"ĠOpportunities":6329,"ĠStep":6330,"Ġexclusive":6331,"Ġdetailed":6332,"cons":6333,"ourage":6334,"ĠClass":6335,"ii":6336,"Ġtraits":6337,"Ġequally":6338,"Ġemissions":6339,"Ġconstitutes":6340,"Ġskincare":6341,"esp":6342,"Ġgives":6343,"breaking":6344,"ĠLo":6345,"Ġguarantees":6346,"Ġcorresponding":6347,"ĠLily":6348,"itchen":6349,"ĠEvery":6350,"Ġcopy":6351,"Ġdefense":6352,"Ġ30":6353,"ĠFost":6354,"Ġpresentation":6355,"iology":6356,"Ġtun":6357,"level":6358,"Ġreduction":6359,"ĠSchool":6360,"scale":6361,"18":6362,"Ġdance":6363,"Ġnoting":6364,"Ġcolleagues":6365,"Ġpassionate":6366,"aid":6367,"iform":6368,"Ġincredible":6369,"ĠPotential":6370,"Ġ[":6371,"ĠColle":6372,"Ġdiscrim":6373,"Ġraises":6374,"Ġign":6375,"Ġorganized":6376,"pirit":6377,"riting":6378,"vent":6379,"Ġrock":6380,"Ġcharge":6381,"ĠExperience":6382,"ictures":6383,"ĠCost":6384,"Ġcurve":6385,"Ġvariety":6386,"Ġmatrix":6387,"Ġsteel":6388,"Ġslightly":6389,"economic":6390,"Ġterrit":6391,"Ġrestaur":6392,"Ġrecon":6393,"Ġcuis":6394,"Ġexplores":6395,"Ġmatches":6396,"Ġbrief":6397,"Ġphase":6398,"ED":6399,"Ġscale":6400,"Ġgratitude":6401,"Ġtree":6402,"ighter":6403,"Ġgenres":6404,"Ġversions":6405,"Ġprevention":6406,"Ġemphasis":6407,"Ġshowcase":6408,"ĠChristianity":6409,"ĠEurope":6410,"tify":6411,"ĠInformation":6412,"tors":6413,"usions":6414,"Ġcurric":6415,"Ġtapestry":6416,"Ġhealthier":6417,"ĠEmpower":6418,"Ġcompeting":6419,"ĠExamination":6420,"stream":6421,"rown":6422,"Ġauthority":6423,"Ġbolst":6424,"Ġmyster":6425,"Ġmuscle":6426,"Ġdiplom":6427,"Ġupdated":6428,"Ġnuanced":6429,"Ġregulation":6430,"Ġobject":6431,"Ġopinions":6432,"Ġoutlined":6433,"ĠCor":6434,"ĠStand":6435,"Ġpainting":6436,"Ġmanagers":6437,"ĠSte":6438,"Ġbright":6439,"box":6440,"Ġreached":6441,"Ġboard":6442,"tile":6443,"Ġprovider":6444,"Ġtransitions":6445,"Ġprotein":6446,"ĠChina":6447,"There":6448,"Ġenthusiasm":6449,"Ġrecommended":6450,"Ġemphasize":6451,"Ġacadem":6452,"ĠUpon":6453,"disciplinary":6454,"pens":6455,"Ġacquisition":6456,"Ġrace":6457,"unch":6458,"Ġwaters":6459,"Ġtiny":6460,"Ġautomotive":6461,"Ġpositioning":6462,"ogen":6463,"Ġprincip":6464,"Ġclearly":6465,"iblical":6466,"ĠContinu":6467,"ĠService":6468,"rings":6469,"Ġadministration":6470,"Ġfruit":6471,"Ġperm":6472,"roll":6473,"Ġ2017":6474,"Ġdegree":6475,"ĠOf":6476,"azing":6477,"Ġdifferenti":6478,"Guideline":6479,"Ġsufficient":6480,"Ġdatas":6481,"otic":6482,"Ġimper":6483,"Ġera":6484,"Ġrefining":6485,"Ġunt":6486,"ĠIndust":6487,"Ġmathematics":6488,"Ġcovered":6489,"Ġdisparate":6490,"Ġmeetings":6491,"Ġgentle":6492,"rees":6493,"oub":6494,"Ġwalk":6495,"ĠHome":6496,"ube":6497,"ĠChristians":6498,"Ġthoroughly":6499,"Ġgradually":6500,"ued":6501,"ML":6502,"Ġcontains":6503,"Ġsin":6504,"pson":6505,"ĠPlatform":6506,"Ġrelative":6507,"Ġinclusion":6508,"Ġclub":6509,"Ġunus":6510,"Ġclar":6511,"Ġinviting":6512,"Ġautomated":6513,"ecurity":6514,"Ġretention":6515,"ĠHistory":6516,"AS":6517,"IS":6518,"tingu":6519,"Ġarray":6520,"Ġstrike":6521,"Ġcoin":6522,"Ġap":6523,"Ġintroducing":6524,"yle":6525,"Ġbul":6526,"Ġparalle":6527,"Ġdefensive":6528,"Ġoverwhelming":6529,"ĠLocal":6530,"Ġstructural":6531,"Ġindicates":6532,"Ġnames":6533,"Ġappears":6534,"Ġschedul":6535,"ĠCBD":6536,"ĠÃ":6537,"Ġfat":6538,"ĠGra":6539,"Ġcherished":6540,"ĠBeh":6541,"Ġwondered":6542,"ĠStudies":6543,"Ġunlock":6544,"Ġoutdoor":6545,"Ġmotor":6546,"Ġnations":6547,"Ġexpressed":6548,"Ġtreas":6549,"ĠSetting":6550,"emed":6551,"Ġexcerpt":6552,"epth":6553,"Ġinterpretation":6554,"ĠFamiliar":6555,"mm":6556,"ĠBrand":6557,"Ġ2019":6558,"load":6559,"ĠPay":6560,"ĠDoc":6561,"Ġrevealing":6562,"ĠVisual":6563,"Ġveter":6564,"ĠCreating":6565,"Ġchecks":6566,"Ġdetection":6567,"Ġpictures":6568,"Ġpartner":6569,"ha":6570,"ĠExc":6571,"izz":6572,"Ġsat":6573,"Ġoutcome":6574,"Ġdomains":6575,"lets":6576,"Ġdear":6577,"Ġscientists":6578,"Ġoral":6579,"tw":6580,"Ġamenities":6581,"Ps":6582,"Ġpra":6583,"ĠBel":6584,"riptions":6585,"ĠIndian":6586,"Ġdouble":6587,"Ġyouth":6588,"Ġadvocacy":6589,"Ġspeech":6590,"aint":6591,"Ġfirsthand":6592,"Ġcryst":6593,"Ġfabric":6594,"Ġteachers":6595,"Ġcities":6596,"Ġsocio":6597,"Ġturns":6598,"Ġcontracts":6599,"Â°":6600,"ĠThen":6601,"En":6602,"rate":6603,"Ġcas":6604,"Ġmeditation":6605,"ĠTom":6606,"ĠTer":6607,"ĠNF":6608,"Ġoblig":6609,"ĠFinancial":6610,"ĠScience":6611,"cos":6612,"ĠParticip":6613,"Ġgenetic":6614,"Ġproficiency":6615,"Ġoccasion":6616,"Ġpriorities":6617,"Ġthousands":6618,"ĠInnov":6619,"Ġindustrial":6620,"arsh":6621,"ĠFoot":6622,"Ġtensions":6623,"Ġcash":6624,"Ġtom":6625,"Ġtrading":6626,"Ġcenturies":6627,"Ġgear":6628,"Ġoperate":6629,"ĠHuman":6630,"Ġdaunting":6631,"driven":6632,"otion":6633,"ĠMake":6634,"PR":6635,"Ġmaximizing":6636,"Ġappoint":6637,"Ġpose":6638,"Ġfish":6639,"Ġphenomenon":6640,"Ġformed":6641,"Ġ2016":6642,"Ġtestament":6643,"field":6644,"Ġbank":6645,"soft":6646,"Ġsensitivity":6647,"Ġspending":6648,"Ġnutrition":6649,"Ġprayer":6650,"Ġconsists":6651,"Ġkids":6652,"Ġexcellence":6653,"Ġbus":6654,"ĠPractice":6655,"Ġinterpersonal":6656,"Ġaspirations":6657,"Ġsession":6658,"Ġformats":6659,"Ġ2021":6660,"Ġsugar":6661,"Ġplaced":6662,"ĠComb":6663,"ĠCollege":6664,"Ġresid":6665,"Ġquiet":6666,"Ġmagic":6667,"forward":6668,"Ġsubjects":6669,"Ġtreating":6670,"egin":6671,"Ġserver":6672,"Ġsignals":6673,"Ġavenues":6674,"bra":6675,"ĠSpirit":6676,"rupt":6677,"Ġraising":6678,"mers":6679,"ĠBlack":6680,"raft":6681,"Ġadults":6682,"Ġbran":6683,"Ġexistence":6684,"Ġgains":6685,"ĠUtilize":6686,"tes":6687,"Ġsett":6688,"Ġfederal":6689,"ĠTest":6690,"ĠMethod":6691,"These":6692,"Ġaligned":6693,"Ġgenre":6694,"Ġintense":6695,"Ġimplemented":6696,".)":6697,"bing":6698,"Ġast":6699,"Ġshares":6700,"Ġdemographics":6701,"ĠEnergy":6702,"Ġsport":6703,"Ġobserved":6704,"oted":6705,"Ġinflamm":6706,"Ġcombines":6707,"ĠGerm":6708,"ressed":6709,"ĠStrategy":6710,"Ġpursuit":6711,"ĠSelf":6712,"orse":6713,"ancies":6714,"ĠIndeed":6715,"Ġwoman":6716,"Ġmouth":6717,"Ġpercent":6718,"Ġindul":6719,"Ġagric":6720,"ooting":6721,"ĠConversely":6722,"ĠGreen":6723,"Ġknows":6724,"Ġworkflow":6725,"Ġcustomized":6726,"atches":6727,"Ġdin":6728,"acerb":6729,"ĠMore":6730,"Ġdemocratic":6731,"Ġpaid":6732,"11":6733,"Here":6734,"ĠFace":6735,"Ġswitch":6736,"Ġsand":6737,"Ġprogression":6738,"Ġrelief":6739,"Ġdone":6740,"Ġcoast":6741,"Ġencry":6742,"iances":6743,"Ġdining":6744,"Ġcrafted":6745,"Sh":6746,"Ġrend":6747,"Ġshown":6748,"Ġcombinations":6749,"Ġexacerb":6750,"ĠGame":6751,"Ġcollaborate":6752,"Ġdebate":6753,"Ġwatching":6754,"Ġvariable":6755,"umph":6756,"Ġvector":6757,"Ġwrong":6758,"uming":6759,"Ġdistingu":6760,"inates":6761,"BA":6762,"fast":6763,"Ġmand":6764,"Ġcomplications":6765,"ĠAnalyzing":6766,"PIs":6767,"ĠLittle":6768,"Ġsolar":6769,"Ġelig":6770,"Ġendless":6771,"Ġmood":6772,"Ġincluded":6773,"Ġhospit":6774,"ĠPort":6775,"Ġpassing":6776,"ĠCompan":6777,"Ġinterviews":6778,"ĠTyp":6779,"pled":6780,"Ġdeepen":6781,"Ġstringent":6782,"ĠCraf":6783,"Ġpreval":6784,"ĠBackground":6785,"lements":6786,"Ġparameters":6787,"Ġcomparing":6788,"Ġincenti":6789,"Ġhappens":6790,"Ġtimeless":6791,"Ġimportantly":6792,"Ġpersonality":6793,"Ġfriendly":6794,"Ġcorrectly":6795,"rap":6796,"Ġfol":6797,"step":6798,"Ġsymbols":6799,"Ġfacilitates":6800,"Ġsurve":6801,"Ġunusual":6802,"Ġaccum":6803,"Ġwebpage":6804,"Ġaffordability":6805,"Ġcriminal":6806,"Ġdistinctive":6807,"Ġleaves":6808,"Ġperpet":6809,"Ġscores":6810,"Ġfoods":6811,"ĠTeam":6812,"kings":6813,"Ġschemes":6814,"urm":6815,"Ġadopt":6816,"Ġech":6817,"Ġsignal":6818,"using":6819,"gery":6820,"uli":6821,"inger":6822,"Ġcaught":6823,"=\\":6824,"Ġsam":6825,"Ġsecret":6826,"Ġtrusted":6827,"ellow":6828,"Ġowners":6829,"Ġpartnership":6830,"Ġobjective":6831,"gn":6832,"ada":6833,"olitical":6834,"Ġcream":6835,"Ġposed":6836,"umptions":6837,"Ġofficials":6838,"Ar":6839,"Ġnodded":6840,"uris":6841,"Ġsocieties":6842,"Ġarticles":6843,"atin":6844,"Ġinvent":6845,"Ġfruits":6846,"Ġdro":6847,"ĠPhys":6848,"Ġbringing":6849,"Col":6850,"through":6851,"left":6852,"otypes":6853,"titudes":6854,"ĠWill":6855,"Ġdesire":6856,"Ġmeant":6857,"rig":6858,"Ġrain":6859,"ĠEss":6860,"Ġdisparities":6861,"Ġaware":6862,"uce":6863,"tible":6864,"Ġweigh":6865,"ĠLike":6866,"ĠOper":6867,"Ġscenes":6868,"ports":6869,"Ġunderstood":6870,"Ġgeomet":6871,"edding":6872,"Ġconservation":6873,"ĠThroughout":6874,"cultural":6875,"Ġwhis":6876,"ĠMat":6877,"Ġinterface":6878,"Ġdeter":6879,"RM":6880,"ĠAltern":6881,"Ġimmune":6882,"ĠApproach":6883,"Ġwidely":6884,"Ġaftern":6885,"DA":6886,"Ġstic":6887,"Ġindicate":6888,"Ġcertific":6889,"ĠExploration":6890,"Effective":6891,"ĠCul":6892,"Ġfinancing":6893,"Ġearth":6894,"ĠBefore":6895,"Ġchat":6896,"Ġuniform":6897,"Ġcelebrating":6898,"ĠPrior":6899,"brid":6900,"Ġalb":6901,"Ġstem":6902,"ateral":6903,"ĠReddit":6904,"ĠMem":6905,"Ġadvances":6906,"Ġphotography":6907,"coin":6908,"most":6909,"ws":6910,"Ġcycle":6911,"Ġlosses":6912,"ĠCollaboration":6913,"ĠThompson":6914,"phones":6915,"Ġsolve":6916,"\\_{":6917,"Ġstraightforward":6918,"Ġteeth":6919,"ĠUnlike":6920,"gi":6921,"gettable":6922,"Ġadapting":6923,"ĠInstit":6924,"Ġconfigurations":6925,"Ġrac":6926,"Ġdism":6927,"Ġmechanical":6928,"ranch":6929,"Ġaddresses":6930,"Ġmeticulously":6931,"commer":6932,"commerce":6933,"Ġadvancing":6934,"Ġcoming":6935,"Ġadvocating":6936,"Ġtailor":6937,"Ġpenal":6938,"Ġchamp":6939,"Ġlean":6940,"Ġtraject":6941,"Ġfaces":6942,"paralle":6943,"Ġidentification":6944,"ĠHol":6945,"Ġfeels":6946,"ĠProfessional":6947,"Ġwaves":6948,"Ph":6949,"vision":6950,"ulting":6951,"Ġderiv":6952,"60":6953,"Ġprow":6954,"Ġfacets":6955,"Ġgathered":6956,"Ġbridge":6957,"ĠMc":6958,"Ġposts":6959,"Ġassessing":6960,"Ġ#":6961,"Ġupgra":6962,"Ġmobility":6963,"Ġtexts":6964,"Ġbreathtaking":6965,"CO":6966,"unt":6967,"Ġtheme":6968,"Ġportfol":6969,"Ġstret":6970,"Ġcommand":6971,"----------":6972,"Ġordinary":6973,"Ġlesson":6974,"Ġencompasses":6975,"Ġdreams":6976,"Ġcalculate":6977,"ĠEngine":6978,"fortunately":6979,"Ġspirituality":6980,"Ġkitchen":6981,"Ġ198":6982,"ĠEarly":6983,"Ġpresenting":6984,"Ġprowess":6985,"You":6986,"Ġassumptions":6987,"Ġsegment":6988,"Ġju":6989,"itting":6990,"Ġspark":6991,"Why":6992,"ĠAutom":6993,"lor":6994,"Ġmissing":6995,"Ġclo":6996,"EM":6997,"ĠAud":6998,"ĠRequ":6999,"ĠInvestig":7000,"ĠAdop":7001,"Ġtrials":7002,"Ġobserve":7003,"Ġacceptance":7004,"Ġmindset":7005,"ĠSignific":7006,"char":7007,"Ġresili":7008,"Ġtale":7009,"tish":7010,"Ġsample":7011,"ĠJack":7012,"antic":7013,"ask":7014,"Ġaccommodations":7015,"Ġpool":7016,"eting":7017,"Ġstone":7018,"Ġcycles":7019,"30":7020,"ĠOrig":7021,"Ġdemanding":7022,"ĠManufacturing":7023,"Ġcin":7024,"14":7025,"Ġautomation":7026,"Ġingredient":7027,"Ġtriumph":7028,"Ġsuggesting":7029,"Ġopponents":7030,"Ġnoise":7031,"Ġfrequency":7032,"osis":7033,"Ġconducive":7034,"wood":7035,"org":7036,"ĠIP":7037,"Ġgradu":7038,"ĠCompanies":7039,"ĠAtt":7040,"Ġcourt":7041,"Ġgems":7042,"Ġ>":7043,"Ġdate":7044,"Ġprotective":7045,"Ġpreferred":7046,"paralleled":7047,"ij":7048,"estled":7049,"ĠQuality":7050,"ĠCenter":7051,"Ġarmed":7052,"Ġcontrols":7053,"ker":7054,"Ġtrain":7055,"Ġfulfill":7056,"CC":7057,"Ġsparked":7058,"resent":7059,"Ġconducted":7060,"Ġsearching":7061,"Ġevolve":7062,"tirement":7063,"Ġ100":7064,"ĠDesc":7065,"Ġresist":7066,"Ġembodies":7067,"Ġbat":7068,"iforn":7069,"Ġfixed":7070,"ĠBri":7071,"Ġchaos":7072,"Ġped":7073,"roc":7074,"ascular":7075,"Ġjoint":7076,"Ġmarginalized":7077,"ID":7078,"Ġcriticism":7079,"ĠMulti":7080,"Ġunparalleled":7081,"Ġtow":7082,"Ġjoining":7083,"Ġecosystems":7084,"Ġparent":7085,"Ġrevel":7086,"ĠArti":7087,"Ġengines":7088,"Ġstruggling":7089,"ĠGrowth":7090,"ĠDirect":7091,"ipe":7092,"Ġinfluential":7093,"Ġgroundbreaking":7094,"Ġcelebrate":7095,"Ġcannab":7096,"Ġpassions":7097,"Ġuseful":7098,"ĠOptim":7099,"ĠTraining":7100,"etes":7101,"ault":7102,"azon":7103,"sqrt":7104,")\\":7105,"Ġstop":7106,"Ġaccep":7107,"ĠAng":7108,"Ġutilization":7109,"Ġswift":7110,"Ġstrengthening":7111,"plicity":7112,"####":7113,"Ġbattery":7114,"Ġnative":7115,"aways":7116,"racy":7117,"Ġfewer":7118,"Ġperception":7119,"Ġcollecting":7120,"Ġsea":7121,"oven":7122,"Ġlisting":7123,"Ġ14":7124,"Ġproduced":7125,"ĠFirstly":7126,"Ġstere":7127,"ĠWind":7128,"Ġdepends":7129,"Ġtemporary":7130,"ĠDo":7131,"ĠVar":7132,"rolog":7133,"ĠContent":7134,"elong":7135,"ĠAfrican":7136,"Ġspanning":7137,"ĠIde":7138,"itim":7139,"Ġcreators":7140,"Ġorganizing":7141,"ĠEmily":7142,"Ġtrees":7143,"Ġperceptions":7144,"ĠDeep":7145,"Ġescal":7146,"Ġquan":7147,"Ġpets":7148,"ĠMaterial":7149,"ĠAvoid":7150,"Ġbirth":7151,"omial":7152,"ĠCharacter":7153,"Ġrom":7154,"Ġforg":7155,"Ġshaped":7156,"ĠPolicy":7157,"tious":7158,"Ġexperim":7159,"Ġcuisine":7160,"Ġeffic":7161,"Ġaligns":7162,"Furthermore":7163,"Ġtheories":7164,"Ġobserving":7165,"Ġwarmth":7166,"evolving":7167,"ae":7168,"Ġ50":7169,"Ġcreatures":7170,"uted":7171,"Ġmoisture":7172,"ĠTraditional":7173,"urisd":7174,"Our":7175,"ĠRather":7176,"rench":7177,"Ġspecified":7178,"Ġcovering":7179,"Ġinstruments":7180,"Ġafternoon":7181,"Ġleader":7182,"Ġphr":7183,"Ġmaybe":7184,"Ġdispos":7185,"Ġlocally":7186,"year":7187,"Ġacid":7188,"Ġmarketers":7189,"Ġindicating":7190,".).":7191,"Ġdiscipline":7192,"Ġrevealed":7193,"Ġskep":7194,"Ġsubmit":7195,"mic":7196,"Ġstock":7197,"Ġexpressing":7198,"urious":7199,"ĠEnsuring":7200,"ĠProtection":7201,"ĠCross":7202,"ĠSer":7203,"Ġtransmission":7204,"brace":7205,"nic":7206,"Ġlinks":7207,"Ġcompris":7208,"ĠDet":7209,"----------------------------":7210,"Ġfilter":7211,"Ġnecessitating":7212,"Ġkn":7213,"Ġtight":7214,"ĠLess":7215,"Ġdiscoveries":7216,"ĠSolutions":7217,"Ġmethodologies":7218,"Ġdestinations":7219,"ĠGlobal":7220,"paced":7221,"entist":7222,"Ġcompromise":7223,"Ġunforgettable":7224,"pre":7225,"Ġrent":7226,"exts":7227,"Ġmastery":7228,"Ġcustomization":7229,"Ġhob":7230,"Ġgets":7231,"Ġspl":7232,"awareness":7233,"Ġfoundational":7234,"omy":7235,"ĠWord":7236,"imming":7237,"thern":7238,"Ġattor":7239,"ĠPrepar":7240,"Ġdetermined":7241,"Ġmechanics":7242,"fers":7243,"coh":7244,"eping":7245,"Ġdiscovering":7246,"ĠMaria":7247,"amb":7248,"entially":7249,"ĠEstablishing":7250,"uding":7251,"Ġlimiting":7252,"AM":7253,"fl":7254,"Ġmeasuring":7255,"Ġnarrow":7256,"ĠAnalyze":7257,"ĠCaliforn":7258,"ĠDay":7259,"Ġintros":7260,"Ġorigins":7261,"Ġhyper":7262,"Ġprobability":7263,"Ġsenti":7264,"Ġabuse":7265,"efined":7266,"Ġpowers":7267,"Ġscore":7268,"Ġrepair":7269,"Ġdecor":7270,"ĠInvest":7271,"igenous":7272,"ĠFacebook":7273,"ĠMich":7274,"That":7275,"Ġrecruit":7276,"Ġteachings":7277,"Ġnone":7278,"Ġbow":7279,"ĠKing":7280,"Ġextreme":7281,"Ġdefining":7282,"Ġunfamiliar":7283,"Ġshopping":7284,"Ġvulnerabilities":7285,"PC":7286,"Ġequations":7287,"Ġhabit":7288,"Ġsti":7289,"Ġbold":7290,"Ġregist":7291,"Ġtooth":7292,"aven":7293,"ycle":7294,"Ġprosper":7295,"ĠFootball":7296,"lers":7297,"cean":7298,"Ġincons":7299,"marks":7300,"Ġevolved":7301,"ĠMicrosoft":7302,"agram":7303,"ĠAssociation":7304,"Ġsetup":7305,"Ġfilms":7306,"actively":7307,"rier":7308,"Ġlingu":7309,"isely":7310,"ensional":7311,"Ġefficacy":7312,"Ġwalls":7313,"Ġrecording":7314,"Ġanswers":7315,"atings":7316,"ĠSignificance":7317,"He":7318,"Ġwider":7319,"ĠUnderstand":7320,"Ġrequest":7321,"oubtedly":7322,"ĠTake":7323,"riad":7324,"Ġfestiv":7325,"Ġstood":7326,"Ġselected":7327,"Ġdefinition":7328,"Ġcategory":7329,"ĠSuccessful":7330,"PU":7331,"Ġviewing":7332,"Ġpackages":7333,"Ġhousehold":7334,"ressions":7335,"ĠEnsure":7336,"17":7337,"Ġbutter":7338,"azz":7339,"ifts":7340,"Ġdelightful":7341,"Ġstable":7342,"Ġstars":7343,"Ġmistakes":7344,"Ġchurch":7345,"roud":7346,"Ġrelatively":7347,"Ġautonomy":7348,"ĠPresident":7349,"Ġtastes":7350,"rators":7351,"omfort":7352,"Ġgap":7353,"ĠEmphas":7354,"Ġtheology":7355,"inese":7356,"ĠMia":7357,"Ġsecre":7358,"irable":7359,"ĠTreat":7360,"Ġsummer":7361,"mod":7362,"ĠBit":7363,"ĠFort":7364,"Ġdietary":7365,"Ġachieved":7366,"Ġbaking":7367,"Ġexcel":7368,"Ġdebt":7369,"ĠFood":7370,"Ġattempts":7371,"Ġuncon":7372,"atching":7373,"ĠArmed":7374,"tified":7375,"aution":7376,"Ġtoys":7377,"Ġcompensation":7378,"Ġlabel":7379,"ĠWater":7380,"ĠIntegration":7381,"Ġscrut":7382,"ĠAlways":7383,"Ġreinforcing":7384,"Ġinequality":7385,"Ġdeals":7386,"Ġreform":7387,"Ġattitudes":7388,"ĠMal":7389,"Ġhorizons":7390,"ĠOther":7391,"Ġrever":7392,"Ġtransit":7393,"Ġtissue":7394,"omin":7395,"Ġacting":7396,"Ġattempting":7397,"ĠDiv":7398,"Ġcalculations":7399,"Ġcryptocurrencies":7400,"ĠRead":7401,"Ġfacts":7402,"Ġcoupled":7403,"ints":7404,"ĠDeb":7405,"ĠFil":7406,"Ġsegments":7407,"Ġfamous":7408,"Ġmoves":7409,"stract":7410,"Ġvolumes":7411,"Ġsexual":7412,"eles":7413,"Ġstre":7414,"oses":7415,"https":7416,"Ġthick":7417,"Ġworlds":7418,"Ġmyriad":7419,"Ġpure":7420,"Ġcold":7421,"Cl":7422,"umin":7423,"Ġrealizing":7424,"Ġengineers":7425,"Ġalleviate":7426,"izable":7427,"cast":7428,"Ġring":7429,"Ġcontexts":7430,"Ġraise":7431,"Ġeagerly":7432,"Ġpit":7433,"ĠSym":7434,"Expl":7435,"Ġwise":7436,"Ġconfusion":7437,"Ġmitigating":7438,"Ġdispl":7439,"Ġclassroom":7440,"Ġundoubtedly":7441,"Ġdepartments":7442,"erated":7443,"aming":7444,"Ġstrengthens":7445,"Ġunderm":7446,"Ġoverview":7447,"Ġrecall":7448,"Ġarrived":7449,"ius":7450,"Ġsetbacks":7451,"Ġcars":7452,"Ġceleb":7453,"ĠIncre":7454,"Well":7455,"disc":7456,"aturally":7457,"Ġnotion":7458,"Ġanalytical":7459,"intage":7460,"Ġevening":7461,"Ġnearly":7462,"Ġproteins":7463,"ĠStar":7464,"Ġblending":7465,"Ġencompassing":7466,"ĠPrivacy":7467,"Ġfeet":7468,"ĠChild":7469,"Ġsky":7470,"ulty":7471,"Ġlibrary":7472,"Ġcomplicated":7473,"Ġrecycl":7474,"Ġwire":7475,"etheless":7476,"Ġmanipulation":7477,"Ġdiscrimination":7478,"Ġinconsist":7479,"Ġmixed":7480,"Ġharsh":7481,"ardless":7482,"Ġbrowsing":7483,"Ġmetals":7484,"Ġmoral":7485,"Ġfairness":7486,"ĠPur":7487,"Ġteacher":7488,"Additionally":7489,"nering":7490,"ĠPop":7491,"Ġdiscomfort":7492,"Pl":7493,"Ġhinder":7494,"Ġsubsc":7495,"Ġprioritizing":7496,"ĠCustomer":7497,"Ġretain":7498,"Ġcarries":7499,"Ġelectrical":7500,"Is":7501,"min":7502,"Ġfootpr":7503,"Ġegg":7504,"ĠCalifornia":7505,"Ġbiases":7506,"CT":7507,"Ġindis":7508,"Ġtypical":7509,"Ġinterpre":7510,"Ġsuffering":7511,"ĠMedic":7512,"Ġimplies":7513,"Ġpark":7514,"Ġtravels":7515,"Ġlisteners":7516,"Ġvegetables":7517,"Ġtire":7518,"Ġvend":7519,"Ġrealistic":7520,"ĠSoft":7521,"ham":7522,"Ġtick":7523,"Ġcontributed":7524,"verse":7525,"ltimate":7526,"uge":7527,"Ġreass":7528,"puts":7529,"Ġ16":7530,"ĠDev":7531,"Ġsaying":7532,"ĠSuper":7533,"ĠSpecial":7534,"Ġrequests":7535,"Ġreference":7536,"falls":7537,"Ġscope":7538,"Ġbuying":7539,"ĠWest":7540,"Ġinitiative":7541,"Ġsatisfying":7542,"25":7543,"depth":7544,"Ġrepresented":7545,"Ġcodes":7546,"Ġaffili":7547,"Ġspecializing":7548,"Ġsurroundings":7549,"Ġstriving":7550,"Ġ2020":7551,"Ġdatabases":7552,"pensable":7553,"Ġproud":7554,"ĠUsers":7555,"Ġattractive":7556,"spec":7557,"ĠWestern":7558,"Ġasset":7559,"ĠSelection":7560,"made":7561,"onym":7562,"Ġcast":7563,"icks":7564,"Ġartwork":7565,"Ġspect":7566,"forming":7567,"Ġfailures":7568,"Ġsold":7569,"CD":7570,"Ġaging":7571,"Ġjudgment":7572,"avering":7573,"Ġunderp":7574,"ĠJava":7575,"Ġsafer":7576,"mentation":7577,"ĠMid":7578,"Ġcamera":7579,"ĠAustral":7580,"ĠSal":7581,"ĠCamp":7582,"Ġpeak":7583,"Ġrenewed":7584,"Ġbelonging":7585,"uses":7586,"ĠEconom":7587,"Ġsolace":7588,"Ġconvenient":7589,"Ġtransparent":7590,"Ġattack":7591,"cure":7592,"Ġclubs":7593,"Ġcorresp":7594,"ĠTrust":7595,"Ġwalking":7596,"Ġaccommodate":7597,"raw":7598,"Ġexemplifies":7599,"Ġclothing":7600,"ser":7601,"ractions":7602,"anks":7603,"ulum":7604,"ĠMag":7605,"Ġurg":7606,"Ġembarking":7607,"Ġcoordination":7608,"Ġreported":7609,"Ġguarantee":7610,"Ġpersistent":7611,"Ġjurisd":7612,"ĠSometimes":7613,"Ġlosing":7614,"Ġclick":7615,"Ġvalued":7616,"Ġutilized":7617,"Ġcompletion":7618,"Ġcyber":7619,"Ġinterpretations":7620,"Ġparad":7621,"Ġutility":7622,"Ġinflammation":7623,"Ġmac":7624,"ĠVer":7625,"Ġdegrees":7626,"Ġunwavering":7627,"Ġfulfilling":7628,"*:":7629,"Ġmountain":7630,"ĠPsych":7631,"Ġscript":7632,"Ġconfidential":7633,"Wor":7634,"ĠTop":7635,"Ġfluctuations":7636,"Ġdiscl":7637,"Ġorigin":7638,"Ġventure":7639,"Ġindispensable":7640,"Comm":7641,"ĠChinese":7642,"Ġupdate":7643,"Ġvitam":7644,"oval":7645,"Ġlegitim":7646,"Ġremin":7647,"otional":7648,"Ġhumility":7649,"ĊĠĠ":7650,"Ġwriters":7651,"author":7652,"Ġcoding":7653,"icken":7654,"sin":7655,"Ġbiblical":7656,"Ġcontinuity":7657,"Ġangle":7658,"Ġpublished":7659,"imp":7660,"Ġoffensive":7661,"ĠAmazon":7662,"ĠChe":7663,"ĠGold":7664,"ĠFrench":7665,"gebra":7666,"Ġinterplay":7667,"aper":7668,"Ġlifelong":7669,"Ġmedications":7670,"Ġphenomena":7671,"mind":7672,"imal":7673,"Ġschedule":7674,"front":7675,"ician":7676,"Ġexperimentation":7677,"Ġgau":7678,"ulties":7679,"Ġdrivers":7680,"BT":7681,"Ġoffic":7682,"Ġbacter":7683,"Ġtransaction":7684,"Ġagreement":7685,"ĠChoosing":7686,"ĠRecognizing":7687,"CS":7688,"Ġdisputes":7689,"Ġcrime":7690,"Ġnavigation":7691,"utter":7692,"Ġposes":7693,"Ġlaughter":7694,"Rec":7695,"Ġround":7696,"cil":7697,"amily":7698,"ĠThough":7699,"ĠWithin":7700,"Ġliteracy":7701,"Ġtherm":7702,"Ġdrives":7703,"Ġobligations":7704,"ĠBr":7705,"elfare":7706,"Ġparticles":7707,"Ġstreams":7708,"Ġepis":7709,"My":7710,"Ġmiscon":7711,"Ġmorning":7712,"itations":7713,"Ġax":7714,"Ġrenewable":7715,"building":7716,"urdles":7717,"ĠChurch":7718,"Ġconsent":7719,"Ġconfront":7720,"Ġdepression":7721,"Ġconfiguration":7722,"ĠPlanning":7723,"Ġhappen":7724,"Ġadverse":7725,"ĠPeople":7726,"Ġlicens":7727,"empt":7728,"rolling":7729,"Ġsuscep":7730,"Ġtalented":7731,"Ġbeginning":7732,"ocolate":7733,"ĠPaul":7734,"ĠEnvironmental":7735,"Ġglobally":7736,"Ġreferred":7737,"Ġviewpoints":7738,"Ġartistry":7739,"night":7740,"Ġgir":7741,"ĠUser":7742,"Ġmilestones":7743,"itter":7744,"ĠCompreh":7745,"ĠPolitical":7746,"Tim":7747,"Ġdomin":7748,"Tr":7749,"Ġreleases":7750,"Ġzones":7751,"Ġstatistical":7752,"ĠSan":7753,"ĠCry":7754,"ĠTher":7755,"Ġopens":7756,"Ġbegins":7757,"Ġhearts":7758,"Ġmortgage":7759,"overing":7760,"Ġunfold":7761,"Ġcardi":7762,"align":7763,"Ġdriven":7764,"ĠSkills":7765,"ĠMedical":7766,"position":7767,"alg":7768,"ĠMor":7769,"Ġsimplicity":7770,"ĠComple":7771,"Ġkindness":7772,"ĠRev":7773,"Ġcompounds":7774,"Ġ2015":7775,"ĠTour":7776,"ĠFund":7777,"Ġconcrete":7778,"ierarch":7779,"Ġpride":7780,"Ġarchitectural":7781,"ĠStory":7782,"ĠBased":7783,"Ġbug":7784,"Ġcaution":7785,"Ġbot":7786,"ste":7787,"bersecurity":7788,"ĠEmpowerment":7789,"Ġcharges":7790,"AP":7791,"Ġhurdles":7792,"umber":7793,"Ġpursuits":7794,"Ġyoga":7795,"iam":7796,"Ġaccident":7797,"Ġinfluenced":7798,"Ġlayout":7799,"Ġtempl":7800,"phone":7801,"state":7802,"Ġintroduction":7803,"ĠEmbrace":7804,"From":7805,"ĠObjec":7806,"Ġ25":7807,"Ġacquiring":7808,"Ġfalls":7809,"ĠSil":7810,"prises":7811,"Ġsacrific":7812,"Ġeating":7813,"Ġlibraries":7814,"Ġnuc":7815,"Ġstruck":7816,"Ġvacation":7817,"Ġhiring":7818,"Ġdoor":7819,"Ġnegotiations":7820,"Ġrol":7821,"ĠArch":7822,"ĠShare":7823,"Ġstones":7824,"vals":7825,"ĠLong":7826,"Ġequality":7827,"rants":7828,"Ġcontempl":7829,"Ġmother":7830,"vy":7831,"ĠJohnson":7832,"Ġattendees":7833,"Ġarising":7834,"Ġresponding":7835,"Ġlocals":7836,"embly":7837,"Ġwarrant":7838,"gue":7839,"alian":7840,"Ġinfluenc":7841,"ĠPlan":7842,"Ġpackage":7843,"Ġcompare":7844,"Ġdiagnostic":7845,"Ġobservations":7846,"Ġseeing":7847,"notch":7848,"Rem":7849,"Ġpin":7850,"Ġlooks":7851,"Ġquarter":7852,"Ġequals":7853,"Ġappreciating":7854,"Ġpromotional":7855,"Ġtales":7856,"Ġfeatured":7857,"tely":7858,"inery":7859,"ĠRest":7860,"Ġsongs":7861,"ĠTitle":7862,"Ġproperly":7863,"Ġautomatically":7864,"metic":7865,"ders":7866,"Ġtelev":7867,"Ġfavorable":7868,"Ġhazards":7869,"Ġtrauma":7870,"Ġarom":7871,"ĠFocus":7872,"yses":7873,"Ġbrush":7874,"erts":7875,"Ġneck":7876,"Ġ$(":7877,"ĠMaya":7878,"Ġshad":7879,"Fi":7880,"Ġbelievers":7881,"Ġspots":7882,"Ġconfident":7883,"Ġnaturally":7884,"Ġstored":7885,"ĠDav":7886,"ĠApple":7887,"ximity":7888,"abetes":7889,"ĠRich":7890,"cd":7891,"Ġtestim":7892,"ĠMental":7893,"Ġbuildings":7894,"Ġce":7895,"Ġfranch":7896,"Ġproven":7897,"Ġpropor":7898,"Ġdimin":7899,"Ġcommunications":7900,"Ġcaters":7901,"Ġpurs":7902,"Ġcourage":7903,"Ġ$$":7904,"Ġcontrolled":7905,"Over":7906,"Ġdual":7907,"Ġgrew":7908,"Ġdoub":7909,"elcome":7910,"ĠMa":7911,"Ġowner":7912,"ython":7913,"Ġannounce":7914,"bed":7915,"la":7916,"ventional":7917,"uthentic":7918,"Ġ:":7919,"Ġruns":7920,"Ġholid":7921,"ĠCentral":7922,"throp":7923,"Ġtum":7924,"rome":7925,"Ġtold":7926,"mathbb":7927,"Ġencryption":7928,"Ġborders":7929,"Ġguided":7930,"Ġarguments":7931,"kers":7932,"Ġaccidents":7933,"Ġtrial":7934,"Ġpaying":7935,"arn":7936,"Ġvel":7937,"ĠHouse":7938,"--------------------":7939,"Ġpurchases":7940,"ĠDiffer":7941,"uous":7942,"},":7943,"Ġadhere":7944,"Ġequival":7945,"Ġduration":7946,"Ġcohesive":7947,"cohol":7948,"Ġsacrificing":7949,"iff":7950,"ĠAdm":7951,"Ġfunctionalities":7952,"medi":7953,"Ġthrow":7954,"Ġabstract":7955,"Ġrefresh":7956,"Ġdiet":7957,"Ġmotivations":7958,"ulent":7959,"Ġfollowers":7960,"Ġethics":7961,"ĠNeed":7962,"Ġuph":7963,"Ġsmiled":7964,"13":7965,"ĠSou":7966,"uter":7967,"Ġitem":7968,"Ġguest":7969,"Ġ(\"":7970,"dim":7971,"Ġrush":7972,"ET":7973,"ĠMark":7974,"weight":7975,"ĠJames":7976,"Ġwelfare":7977,"entials":7978,"ĠChoose":7979,"Ġur":7980,"istan":7981,"ĠTV":7982,"Ġencaps":7983,"arc":7984,"Ġcombine":7985,"ĠDiscussion":7986,"ĠDefining":7987,"Ġchecking":7988,"Ġconfirm":7989,"Ġchildhood":7990,"Ġadjusting":7991,"Ġmonthly":7992,"Ġsurvival":7993,"Ġneuro":7994,"entralized":7995,"netic":7996,"Ġtextures":7997,"Ġtranslate":7998,"Ġcryptocurrency":7999,"Ġliquid":8000,"Ġindependence":8001,"Ġbelieved":8002,"ĠHand":8003,"rime":8004,"emy":8005,"Ġcues":8006,"Ġuniversities":8007,"can":8008,"Ġcustoms":8009,"alse":8010,"Ġconfron":8011,"Ġinsu":8012,"Ġ2014":8013,"Ġaffects":8014,"Ġstreaming":8015,"Ġrewarding":8016,"edia":8017,"aping":8018,"ideo":8019,"authorized":8020,"makers":8021,"Ġjump":8022,"Ġelectron":8023,"Ġsunlight":8024,"Ġwash":8025,"Ġnumer":8026,"Ġimagery":8027,"ĠPrioriti":8028,"uls":8029,"Ġinterior":8030,"ĠCreate":8031,"Ġphilosophy":8032,"Ġmanifest":8033,"Ġinventory":8034,"Ġreminded":8035,"ĠBetween":8036,"uk":8037,"Ġboxes":8038,"Ġreminisc":8039,"Ġexchanges":8040,"Consider":8041,"Ġcozy":8042,"Ġcertainly":8043,"umps":8044,"ĠÃĹ":8045,"ĠBra":8046,"ĠBud":8047,"Ġcircle":8048,"Ġcompletely":8049,"Ġfeas":8050,"aimed":8051,"Ġwinning":8052,"Ġelegance":8053,"Am":8054,"Ġtraction":8055,"uing":8056,"etry":8057,"Ġsequences":8058,"ĠEff":8059,"Ġsoil":8060,"obile":8061,"ergies":8062,"Ġnecessarily":8063,"Ġdescriptions":8064,"Ġimaging":8065,"Ġobtaining":8066,"Ġ197":8067,"Ġstores":8068,"Ġtherapies":8069,"Ġattractions":8070,"Ġcontrolling":8071,"ĠEvaluate":8072,"Ġtitles":8073,"Ġsucceed":8074,"Ġintegrate":8075,"Ġcomment":8076,"Ġpeer":8077,"Ġminimum":8078,"Ġindependently":8079,"ĠPlatforms":8080,"Ġrendering":8081,"Ġpreservation":8082,"Ġphysically":8083,"Ġdenotes":8084,"Ġconcentr":8085,"200":8086,"Ġmodeling":8087,"Ġstated":8088,"Ġrough":8089,"Ġdialogues":8090,"Ġly":8091,"Ġshowing":8092,"Ġflo":8093,"Ġobservation":8094,"Ġstepping":8095,":*":8096,"Ġpod":8097,"Ġproactively":8098,"Ġimmun":8099,"Ġcompleting":8100,"Ġbeautifully":8101,"Ġslic":8102,"wardship":8103,"ielding":8104,"Ġcandidate":8105,"Ġpleas":8106,"Ġsignifies":8107,"Ġaccounting":8108,"Ġwrite":8109,"pace":8110,"alities":8111,"Ġremove":8112,"Ġtall":8113,"apped":8114,"Ġuniversal":8115,"Ġservers":8116,"Ġembed":8117,"SD":8118,"Ġreleased":8119,"Ġpursue":8120,"Ġadvocate":8121,"Ġangles":8122,"Ġtried":8123,"Ġcrises":8124,"Ġelectricity":8125,"Ġcomplementary":8126,"Ġpressures":8127,"do":8128,"Ġcong":8129,"Ġfrequent":8130,"Ġsmoothly":8131,"Ġmanufacturer":8132,"Ġgrappling":8133,"Ġreliance":8134,"ĠSoci":8135,"Ġediting":8136,"Ġintrospection":8137,"Ġguess":8138,"Ġsafely":8139,"Ġenjoyable":8140,"Ġsaving":8141,"Ġneut":8142,"Ġplanet":8143,"Ġwonders":8144,"Ġinterfaces":8145,"Ġsupported":8146,"ĠFeatures":8147,"Ġindex":8148,"overty":8149,"Ġresonates":8150,"Chapter":8151,"ĠDri":8152,"Ġmarks":8153,"Ġdifficulties":8154,"Ġfemale":8155,"ĠItalian":8156,"Ġvolati":8157,"dy":8158,"Ġkeeps":8159,"Ġcalm":8160,"Ġpromotion":8161,"ĠAfrica":8162,"Ġdismiss":8163,"ĠTools":8164,"Ġcurrently":8165,"Ġproposition":8166,"ĠComprehensive":8167,"Ġrelies":8168,"Ġauthentication":8169,"Ġsubstit":8170,"hear":8171,"}^":8172,"Ġ24":8173,"Ġsubstances":8174,"Ġhelpful":8175,"Ġdelving":8176,"Ġprecisely":8177,"Ġfishing":8178,"Ġcolumn":8179,"ĠWho":8180,"Ġentering":8181,"Ġtoler":8182,"ells":8183,"ĠConsult":8184,"ĠProviding":8185,"ĠMaking":8186,")=":8187,"Ġbreast":8188,"tiqu":8189,"Ġlegislation":8190,"col":8191,"zed":8192,"Ġdifferently":8193,"rec":8194,"Ġrub":8195,"ticians":8196,"ords":8197,"ĠAdvanced":8198,"Ġenriching":8199,"Ġprofitability":8200,"Ġflat":8201,"Ġsharp":8202,"cal":8203,"Ġanalyses":8204,"Ġprinciple":8205,"ĠHot":8206,"Ġhumor":8207,"Ġfrag":8208,"ĠRussia":8209,"Se":8210,"Ġglobe":8211,"Ġquantities":8212,"ĠDive":8213,"Ġcannabis":8214,"IT":8215,"ĠIntegrating":8216,"Reg":8217,"ept":8218,"Ġ13":8219,"Ġprolong":8220,"cont":8221,"Ġphotos":8222,"Ġhun":8223,"iders":8224,"Ġvoc":8225,"illa":8226,"Ġrepresentations":8227,"Ġsynth":8228,"Ġenjoyment":8229,"Ġunderscore":8230,"ravel":8231,"Ġstereotypes":8232,"Meanwhile":8233,"rustration":8234,"Ġaccompanied":8235,"titive":8236,"Ġfiction":8237,"Ġplacing":8238,"ĠVol":8239,"Ġdisplays":8240,"Ġretirement":8241,"apers":8242,"ĠRen":8243,"Ġsocioeconomic":8244,"ĠBritish":8245,"Ġhappiness":8246,"ĠNonetheless":8247,"gon":8248,"ĠNext":8249,"Ġfunctioning":8250,"Ġwindow":8251,"Ġfraud":8252,"quisite":8253,"Ġshall":8254,"SA":8255,"mates":8256,"Ġauthors":8257,"Ġcrowd":8258,"Ġbolster":8259,"Ġratio":8260,"Ġtoy":8261,"ĠHT":8262,"Ġsanc":8263,"Ġappar":8264,"Ġcritics":8265,"Ġvintage":8266,"Ġplastic":8267,"Ġpsychology":8268,"ĠLuc":8269,"nomial":8270,"ĠCollaborative":8271,"Ġmovie":8272,"cel":8273,"rew":8274,"atial":8275,"exp":8276,"Ġcollected":8277,"During":8278,"ologists":8279,"ĠProject":8280,"minded":8281,"ĠUnfortunately":8282,"Ġlinguistic":8283,"orem":8284,"ĠElectr":8285,"Ġfilling":8286,"Ġvigilant":8287,"ĠIndustry":8288,"Ġprosperity":8289,"Ġeight":8290,"Ġunauthorized":8291,"Ġplug":8292,"Ġsubstance":8293,"ĠMaintain":8294,"Ġworkflows":8295,"ĠOld":8296,"Ġpolice":8297,"Ġteamwork":8298,"ĠLessons":8299,"ĠWhy":8300,"Ġgrounded":8301,"QL":8302,"rab":8303,"Ġyes":8304,"ointed":8305,"iture":8306,"Ġseeds":8307,"Ġalbum":8308,"Ġsystemic":8309,"Ġfloor":8310,"ĠSun":8311,"ora":8312,"Ġdiscrep":8313,"ĠAllow":8314,"Ġpackaging":8315,"Ġadvis":8316,"ĠPal":8317,"`,":8318,"Ġmap":8319,"abil":8320,"pha":8321,"De":8322,"ĠSharing":8323,"oti":8324,"Ġhistories":8325,"ĠTrends":8326,"Ġprint":8327,"irtual":8328,"Ġadorn":8329,"Ġmanager":8330,"Ġundergo":8331,"Ġedges":8332,"Ġplacement":8333,"ĠEvolution":8334,"Ġprompting":8335,"Ġdatasets":8336,"Ġcasting":8337,"Ġjobs":8338,"Ġcarrying":8339,"Ġcounseling":8340,"Ġalmost":8341,"ĠBi":8342,"ipher":8343,"Ġimpacting":8344,"Ref":8345,"iat":8346,"eseen":8347,"Ġabund":8348,"ama":8349,"osit":8350,"pliance":8351,"Ġresponsibly":8352,"Ġabsol":8353,"Ġcasual":8354,"Ġexceed":8355,"Ġresidential":8356,"Ġactionable":8357,"Ġuniverse":8358,"Ġultimate":8359,"uster":8360,"Ġbasket":8361,"Ġexecuting":8362,"Ġroute":8363,"Ġincentives":8364,"orge":8365,"Ġamazing":8366,"Inter":8367,"omb":8368,"Ġadministrative":8369,"Ġslowly":8370,"Ġvictory":8371,"ione":8372,"ĠHealthcare":8373,"ĠComparison":8374,"Ġpenalties":8375,"Ġinsufficient":8376,"Ġconsiderable":8377,"Ġcollections":8378,"Ġhygi":8379,"Ġacknowledge":8380,"Ġwildlife":8381,"ĠValue":8382,"Ġtourists":8383,"Ġspend":8384,"Ġachievement":8385,"ĠPoli":8386,"Ġsurgery":8387,"piece":8388,"Ġscheduling":8389,"Ġcompact":8390,"'d":8391,"reek":8392,"ĠSales":8393,"Ġfamiliarity":8394,"Ġremoving":8395,"}(":8396,"Ġbear":8397,"ĠNeg":8398,"Ġdesignated":8399,"Ġemployers":8400,"Ġconstructing":8401,"Ġcalculated":8402,"Ġnecessitate":8403,"Ġintuitive":8404,"Cre":8405,"erce":8406,"Ġenterprises":8407,"Ġhierarch":8408,"ĠMonitoring":8409,"Ġvess":8410,"uddenly":8411,"Ġdatabase":8412,"www":8413,"Ġpond":8414,"ĠUk":8415,"Ġattracting":8416,"()":8417,"nger":8418,"raction":8419,"ĠExamining":8420,"Ġorders":8421,"OI":8422,"Ġmedication":8423,"Ġhumble":8424,"ĠColor":8425,"ĠAdminist":8426,"Ġvirus":8427,"Ġ40":8428,"Ġmachinery":8429,"Ġyounger":8430,"ĠInters":8431,"Ġhotel":8432,"ĠFac":8433,"discovery":8434,"ĠChange":8435,"Ġexpanded":8436,"ĠMost":8437,"Ġvisits":8438,"ĠEthical":8439,"lands":8440,"Ġfrustration":8441,"Ġproof":8442,"Ġstrategically":8443,"Ġopenness":8444,"Unit":8445,"Ġecho":8446,"Ġpreced":8447,"Ġclosed":8448,"ĠProvide":8449,"ĠCurrent":8450,"Ġconsulting":8451,"Ġalgebra":8452,"Ġsafeguard":8453,"Ġgun":8454,"Ġunwanted":8455,"Sec":8456,"pi":8457,"Ġhur":8458,"ĠSustain":8459,"Ġmeaningfully":8460,"Ġmechanism":8461,"itigation":8462,"Ġcontinuously":8463,"Ġsustained":8464,"Ġsuggestions":8465,"Ġdecreased":8466,"men":8467,"Ġdoll":8468,"idation":8469,"Ġprevalent":8470,"Ġweap":8471,"Ġassume":8472,"Ġfulfillment":8473,"ien":8474,"Ġinstruction":8475,"Ġrealize":8476,"Ġmiddle":8477,"ĠWal":8478,"orph":8479,"Ġscatter":8480,"Ġdistress":8481,"ĊĠĠĠĠĠĠĠ":8482,"Ġdw":8483,"Ġrecruitment":8484,"Ġinfection":8485,"Ġsmoother":8486,"eras":8487,"Ġannounced":8488,"nam":8489,"ban":8490,"ygen":8491,"ĠDeterm":8492,"ĠReduc":8493,"Ġ.":8494,"Ġdemographic":8495,"reach":8496,"Ġsecondary":8497,"Ġrestric":8498,"Ġperpetu":8499,"Ġties":8500,"Ġtitle":8501,"ĠConstruc":8502,"thetic":8503,"Ġbias":8504,"Ġupl":8505,"ĠAnother":8506,"ĠOnly":8507,"Ġisolation":8508,"Ġtelevision":8509,"Ġencouraged":8510,"Ġliterary":8511,"Ġcataly":8512,"ĠBitcoin":8513,"Ġcomments":8514,"Ġmomentum":8515,"essor":8516,"Ġforec":8517,"Ġremoval":8518,"anguage":8519,"Ġsourcing":8520,"Ġembedded":8521,"Ġtough":8522,"Ġwinter":8523,"Ġchains":8524,"eu":8525,"lin":8526,"Ġstrain":8527,"aby":8528,"Ġwouldn":8529,"sum":8530,"Ġdisorder":8531,"Ġmodes":8532,"Ġstreets":8533,"Ġexh":8534,"Ġopposing":8535,"illy":8536,"ĠHR":8537,"Ġexpensive":8538,"Ġinvestigate":8539,"Ġsen":8540,"Ġrooms":8541,"Ġshowed":8542,"Ġconventions":8543,"roid":8544,"ĠActiv":8545,"Ġgatherings":8546,"Ġunforeseen":8547,"ÏĢ":8548,"Ġthin":8549,"atable":8550,"ĠLa":8551,"ĠRegardless":8552,"Ġdissem":8553,"ĠMaintaining":8554,"Ġemails":8555,"Ġdrawbacks":8556,"ĠInstagram":8557,"Ġreturned":8558,"Ġmilk":8559,"Ġmuscles":8560,"Ġwedding":8561,"fficiency":8562,"Man":8563,"Ġfusion":8564,"Ġgast":8565,"ulates":8566,"Ġfeeding":8567,"Ġinstitutional":8568,"vement":8569,"Ġcapturing":8570,"cedented":8571,"Ġsummar":8572,"Ġhonest":8573,"ĠPhysical":8574,"Ġmes":8575,"Ġvivid":8576,"Ġcoping":8577,"Ġadj":8578,"Ġimmerse":8579,"Ġdrugs":8580,"Ġworkplace":8581,"ĠEmerg":8582,"Ġcycl":8583,")/":8584,"ĠMath":8585,"Ġrevol":8586,"Ġbath":8587,"ĠGeneral":8588,"ĠMonitor":8589,"Ġorient":8590,"Ġdesires":8591,"unctional":8592,"rest":8593,"Ġpoverty":8594,"Ġbad":8595,"Ġgrid":8596,"Ġallocate":8597,"Ġmolecular":8598,"Ġster":8599,"rict":8600,"mark":8601,"Ġburn":8602,"ounted":8603,"ĠResources":8604,"Ġmysterious":8605,"avior":8606,"Ġproving":8607,"anish":8608,"riage":8609,"ĠMechan":8610,"Ġtrail":8611,"Ġ17":8612,"Ġplenty":8613,"ĠList":8614,"Ġedit":8615,"ĠCloud":8616,"Ġnegatively":8617,"amps":8618,"lick":8619,"ĠAdjust":8620,"Ġmisunder":8621,"Ġbottom":8622,"ovascular":8623,"rick":8624,"Ġtranscends":8625,"Ġshop":8626,"tigious":8627,"ĠExplanation":8628,"Ġreminding":8629,"Ġprocedure":8630,"chron":8631,"Ġupdating":8632,"========":8633,"ĠFollowing":8634,"ato":8635,"Ġstreet":8636,",âĢĿ":8637,"Ġillness":8638,"Ġincredibly":8639,"Ġunpre":8640,"Ġsupplies":8641,"Ġcelebration":8642,"market":8643,"Ġuniqu":8644,"Ġunprecedented":8645,"dens":8646,"oil":8647,"Ġconferences":8648,"Ġmultipl":8649,"Ġillustrating":8650,"Ġreligion":8651,"Ġ2023":8652,"Ġpotent":8653,"Ġbiology":8654,"ĠConnection":8655,"ĠJew":8656,"ateful":8657,"Ġrising":8658,"Ġpollution":8659,"ĠCultiv":8660,"ĠClean":8661,"Ġemotionally":8662,"Ġbanks":8663,"Ġlights":8664,"exic":8665,"Ġembod":8666,"Cont":8667,"Ġresearching":8668,"isure":8669,"ĠGreat":8670,"Ġeffortlessly":8671,"gence":8672,"ĠHy":8673,"ĠOl":8674,"away":8675,"Ġgrab":8676,"Ġacquired":8677,"Ġtells":8678,"Ġvigilance":8679,"Ġpec":8680,"ĠTal":8681,"ĠTur":8682,"Ġench":8683,"Ġpharm":8684,"Ġdistances":8685,"Ġdescription":8686,"elp":8687,"Ġsuddenly":8688,"ĠSecondly":8689,"World":8690,"Ġchose":8691,"Ġintertw":8692,"ĠAlso":8693,"ĠIsra":8694,"Ġdefinitions":8695,"Ġdetect":8696,"Ġpolynomial":8697,"Ġvictims":8698,"Ġdentist":8699,"Ġseeks":8700,"Ġwish":8701,"da":8702,"ths":8703,"Ġprestigious":8704,"Ġfriendship":8705,"Ġchef":8706,"Ġcorrec":8707,"Ġuniversity":8708,"Ġadministrators":8709,"ref":8710,"Ġpip":8711,"Ġrental":8712,"ĠMast":8713,"ĠObjectives":8714,"dimensional":8715,"Ġnestled":8716,"ĠSched":8717,"ĠTarget":8718,"Ġboast":8719,"Ġreb":8720,"earing":8721,"Ġmarketplace":8722,"ĠUnion":8723,"Ġspeakers":8724,"Ġportfolio":8725,"ĠIntersection":8726,"Ġwall":8727,"Ġbrill":8728,"Ġdisruptions":8729,"IN":8730,"tique":8731,"Ġstruggled":8732,"Ġsteep":8733,"Just":8734,"Ġreplacement":8735,"`.":8736,"inely":8737,"ĠBay":8738,"Ġsurge":8739,"Ġappropriately":8740,"Ġsimplify":8741,"Ġdistributed":8742,"Ġcharming":8743,"Ġdisplayed":8744,"Ġaiming":8745,"Ġpitfalls":8746,"80":8747,"Ġintensity":8748,"ĠRights":8749,"Ġworthy":8750,"Ġelections":8751,"Ġkeywords":8752,"Ġcomputers":8753,"ĠHarm":8754,"Ġdecide":8755,"Ġestablishment":8756,"rium":8757,"ĠLeadership":8758,"Ġads":8759,"Ġsoccer":8760,"Ġpow":8761,"ĠGre":8762,"Ġplanned":8763,"ropri":8764,"Ġintimate":8765,"Ġgauge":8766,"Ġwave":8767,"terior":8768,"Ġ11":8769,"Ġdescribe":8770,"Ġgraphics":8771,"ĠMind":8772,"ixture":8773,"ugh":8774,"Ġcovers":8775,"Ġroutes":8776,"Ġthrilling":8777,"reast":8778,"Ġexquisite":8779,"Ġcybersecurity":8780,"Ġempir":8781,"Ġtalking":8782,"ossible":8783,"CE":8784,"Ġseas":8785,"atoes":8786,"ucture":8787,"Ġcompetencies":8788,"Ġhistoric":8789,"Ġturb":8790,"Ġtakeaways":8791,"Ġfears":8792,"duct":8793,"ĠSummary":8794,"Ġrespecting":8795,"(-":8796,"Ġpairs":8797,"Ġhoning":8798,"ĠEnhanced":8799,"Ġregister":8800,"Ġdecl":8801,"Ġprevents":8802,"Ġtaxes":8803,"ĠPrin":8804,"Ġexpon":8805,"Ġaddressed":8806,"ĠLeague":8807,"kin":8808,"Ġrepeated":8809,"Ġregistration":8810,"ĠStrength":8811,"\")":8812,"log":8813,"itude":8814,"iral":8815,"Ġrepresentatives":8816,"orter":8817,"Ġalt":8818,"Ġwillingness":8819,"Ġmenu":8820,"Ġproved":8821,"ention":8822,"ressure":8823,"Ġoverwhelmed":8824,"Ġconve":8825,"ooth":8826,"Ġrapport":8827,"Ġcompositions":8828,"Ġeld":8829,"Ġtea":8830,"ricket":8831,"ĠComponents":8832,"Ġneighbors":8833,"profit":8834,"ĠIss":8835,"uary":8836,"Ġdisag":8837,"aked":8838,"Ġexposed":8839,"ĠCounty":8840,"Ġevid":8841,"Remember":8842,"Ġglean":8843,"ĠDirec":8844,"Ġperformers":8845,"entical":8846,"ĠNote":8847,"jected":8848,"Ġverify":8849,"ka":8850,"ona":8851,"Ġelection":8852,"Ġrej":8853,"ado":8854,"unk":8855,"ĠMary":8856,"Ġpoised":8857,"ĊĠĠĠĠĠĠĠĠ":8858,"ĠConsum":8859,"Ġcategor":8860,"Ġproximity":8861,"Ġalcohol":8862,"Ġstrange":8863,"ĠMove":8864,"ĠBlue":8865,"Ġreminiscent":8866,"Ġassociations":8867,"Ġecological":8868,"Ġclarify":8869,"âĢĵ":8870,"ĠPartners":8871,"Ġspons":8872,"Ġcontinuing":8873,"Ġstructured":8874,"Ġchanged":8875,"Ġequips":8876,"Ġcompleted":8877,"ĠPhot":8878,"ĠCrafts":8879,"itarian":8880,"entity":8881,"Ġhing":8882,"Ġsupplement":8883,"ĠOrganizations":8884,"ya":8885,"Ġtempor":8886,"Ġdesirable":8887,"Ġenjoyed":8888,"Ġcrisp":8889,"Ġcompassionate":8890,"Ġreplic":8891,"ĠLog":8892,"\",":8893,"SO":8894,"Ġfle":8895,"ĠRis":8896,"Ġevoke":8897,"Ġsourced":8898,"owed":8899,"Ġstewardship":8900,"Ġjoined":8901,"rogen":8902,"Ġrational":8903,"Ġiter":8904,"Ġbreaks":8905,"Ġprovision":8906,"Ġletters":8907,"Ġpercentage":8908,"itative":8909,"ĠFunction":8910,"ĠJake":8911,"ĠDynam":8912,"Ġtracks":8913,"Ġtherefore":8914,"redict":8915,"Ġstarts":8916,"Ġmarine":8917,"ĠQues":8918,"Ġcompatible":8919,"Ġbag":8920,"Ġhypo":8921,"Ġupper":8922,"Ġstain":8923,"ĠAuthentic":8924,"amic":8925,"ĠRoman":8926,"eal":8927,"ĠSl":8928,"ĠCour":8929,"Ġunknown":8930,"Ġneither":8931,"Ġcompanions":8932,"Ġfilters":8933,"Ġanticipate":8934,"Ġmetab":8935,"Ġmeasurements":8936,"ĠEvaluating":8937,"Ġhygiene":8938,"ilib":8939,"Ġadopted":8940,"Ġtiming":8941,"ĠOffering":8942,"Ġcauti":8943,"Ġextending":8944,"ĠIndividual":8945,"ĠOffer":8946,"Ġopinion":8947,"ĠNetwork":8948,"idating":8949,"ĠExt":8950,"ostalg":8951,"Ġidentical":8952,"Ġearn":8953,"Ġhorizon":8954,"DF":8955,"acle":8956,"Ġaccomplishments":8957,"ifting":8958,"Ġportion":8959,"Ġdiagnosis":8960,"ĠRelationships":8961,"ĠPan":8962,"opolitical":8963,"Ġworship":8964,"Ġevident":8965,"Ġdivide":8966,"ĠCulture":8967,"Ġexplor":8968,"Ġpresc":8969,"Ġearning":8970,"Ġ2013":8971,"ĠAcad":8972,"Ġlabels":8973,"ares":8974,"Ġchocolate":8975,"Ġdiligent":8976,"ĠCam":8977,"lective":8978,"Ġsmile":8979,"Ġmaintains":8980,"Based":8981,"icking":8982,"Ġsecrets":8983,"Ġtheater":8984,"stery":8985,"Ġlists":8986,"ĠStart":8987,"otherapy":8988,"Ġreminders":8989,"Ġcouple":8990,"Ġcollectively":8991,"anqu":8992,"Ġbread":8993,"Ġresolve":8994,"})":8995,"Ġcontam":8996,"Ġreflective":8997,"Ġforever":8998,"Ġmode":8999,"Ġprofessionally":9000,"ĠFostering":9001,"Ġfell":9002,"ĠFire":9003,"Ġpregn":9004,"ĠCheck":9005,"Ġeliminating":9006,"onn":9007,"Ġrepeat":9008,"Ġdemocracy":9009,"oric":9010,"Ġcircles":9011,"Ġpicturesque":9012,"rin":9013,"Ġclassical":9014,"Ġsolidarity":9015,"aser":9016,"Ġdiabetes":9017,"Ġbillion":9018,"RL":9019,"ĠImproved":9020,"ĠSyn":9021,"Ġabreast":9022,"Ġconnectivity":9023,"Ġethnic":9024,"ĠPeriod":9025,"ĠMac":9026,"ĠVideo":9027,"ĠJapanese":9028,"erning":9029,"ĠRiver":9030,"Ġsymmet":9031,"Ġdivision":9032,"ĠAnalytics":9033,"Ġintake":9034,"Ġinfin":9035,"Ġsensory":9036,"oxid":9037,"Ġmassive":9038,"Ġdinner":9039,"tier":9040,"Ġhappy":9041,"-\\":9042,"Ġride":9043,"ĠGood":9044,"Ġresilient":9045,"oom":9046,"ĠEnd":9047,"Ġoperators":9048,"Ġgrass":9049,"Ġcomprehend":9050,"Ġtrigger":9051,"Ġqueries":9052,"Ġpersonally":9053,"Ġsolidifying":9054,"ĠSing":9055,"Ġfinished":9056,"Ġbiological":9057,"ĠCred":9058,"Ġanticipation":9059,"Ġenterprise":9060,"Ġgest":9061,"Ġric":9062,"Ġseven":9063,"unctions":9064,"Ġluxurious":9065,"Ġsad":9066,"rices":9067,"Ġopened":9068,"ĠDocument":9069,"Ġlap":9070,"xic":9071,"itual":9072,"Ġfoundations":9073,"Applying":9074,"AA":9075,"pired":9076,"ĠLight":9077,"Ġfinish":9078,"Ġgarden":9079,"Ġracial":9080,"IP":9081,"aze":9082,"iological":9083,"Ġradio":9084,"Ġbreathing":9085,"Ġdensity":9086,"Ġguides":9087,"Ġranges":9088,"ilibrium":9089,"ĠPati":9090,"ĠBrid":9091,"Ġleague":9092,"ishment":9093,"Ġburden":9094,"ĠCanada":9095,"Ġchemicals":9096,"Script":9097,"Ġtackling":9098,"Welcome":9099,"ĠÂ":9100,"Ġcheese":9101,"Ġinteger":9102,"stones":9103,"Int":9104,"Ġpreference":9105,"40":9106,"Ġcameras":9107,"ĠLink":9108,"Ġsurg":9109,"Ġrhythm":9110,"Ġupholding":9111,"angers":9112,"Ġdriver":9113,"ael":9114,"Ġmigration":9115,"drop":9116,"geoning":9117,"trigu":9118,"Ġprotagon":9119,"Ġsalt":9120,"Ġpathways":9121,"Ġsoul":9122,"Ġlaunch":9123,"Fe":9124,"Ġintentional":9125,"ĠJournal":9126,"Ġ...":9127,"Ġcorruption":9128,"Ġrural":9129,"ĠSen":9130,"ĠConsist":9131,"Ġlawy":9132,"Ġvalidation":9133,"Ġhospital":9134,"Acc":9135,"Ġdepic":9136,"Ġâī":9137,"BC":9138,"Ġlush":9139,"ĠMexic":9140,"Ġuncom":9141,"ĠGal":9142,"Ġagent":9143,"Navigating":9144,"ensus":9145,"osc":9146,"Ġexped":9147,"Ġperformed":9148,"Ġburgeoning":9149,"Ġescape":9150,"omic":9151,"estingly":9152,"Ġelsewhere":9153,"uded":9154,"Ġvisible":9155,"Ġaligning":9156,"itz":9157,"Ġphysics":9158,"Ġdestruc":9159,"Ġintentions":9160,"Ġhoping":9161,"Ġappointments":9162,"Ġempirical":9163,"ella":9164,"Ġdeveloper":9165,"Ġpeculi":9166,"Ġ}":9167,"Ġmetaph":9168,"Ġspeeds":9169,"Ġdile":9170,"Ġhence":9171,"Ġaddiction":9172,"Ġcrystal":9173,"Ġlie":9174,"Ġoils":9175,"Ġmirr":9176,"ĠGr":9177,"ĠKore":9178,"uel":9179,"Ġbite":9180,"Ġpave":9181,"aj":9182,"Ġfiber":9183,"ari":9184,"Ġdowntime":9185,"ĠTrump":9186,"Sim":9187,"Ġmeat":9188,"Ġwindows":9189,"ĠPrograms":9190,"Ġdivided":9191,"Ġmild":9192,"specific":9193,"ĠIncl":9194,"Ġadaptive":9195,"Per":9196,"ĠDan":9197,"ĠManaging":9198,"Ġevidenced":9199,"itious":9200,"Ġestablishments":9201,"ĠMrs":9202,"Ġcup":9203,"artment":9204,"ĠCompany":9205,"Ġunlike":9206,"Ġhighest":9207,"Ġcooling":9208,"AD":9209,"Ġaug":9210,"Ġmig":9211,"Ġliability":9212,"Ġsnow":9213,"Ġflaw":9214,"Ġends":9215,"ĠSmall":9216,"ĠVirtual":9217,"ĠBenny":9218,"Ġpeculiar":9219,"Ġfalse":9220,"ĠShow":9221,"Ġmuse":9222,"ĠCritical":9223,"ĠFamiliarize":9224,"Ġbatt":9225,"Ġappeared":9226,"Ġradiation":9227,"bor":9228,"Ġgifts":9229,"Ġseasons":9230,"ĠSoftware":9231,"ĠSy":9232,"ĠFamily":9233,"ĠComputer":9234,"Ġiron":9235,"otyp":9236,"Ġfacility":9237,"Ġletter":9238,"Ġcontinually":9239,"Ġmini":9240,"Ġscalability":9241,"Ġunconventional":9242,"NS":9243,"olf":9244,"Ġquest":9245,"Ġfather":9246,"Ġnutrients":9247,"ĠNar":9248,"Ġbench":9249,"ĠBeing":9250,"Ġfib":9251,"ander":9252,"ĠNig":9253,"ĠProduct":9254,"erals":9255,"ĠCer":9256,"Ġleisure":9257,"Ġimposed":9258,"Ġarm":9259,"Ġdiscerning":9260,"Ġsurgical":9261,"cy":9262,"Ġdrop":9263,"iration":9264,"trum":9265,"ĠJan":9266,"Ġpuzzle":9267,"RP":9268,"ancer":9269,"Ġgolden":9270,"Ind":9271,"Ġcab":9272,"Ġballs":9273,"Ġstems":9274,"Ġeconomies":9275,"Ġqualified":9276,"Ġimpar":9277,"ailed":9278,"Ġconcise":9279,"TP":9280,"Ġdeployment":9281,"range":9282,"Ġfurn":9283,"osh":9284,"------------------------------------":9285,"Ġmeasurement":9286,",\\":9287,"ME":9288,"Ġyellow":9289,"Ġwalked":9290,"Ġfr":9291,"eding":9292,"Ġheights":9293,"Ġmainstream":9294,"Ġcoe":9295,"iating":9296,"Ġmaps":9297,"ĠAdapt":9298,"Ġauto":9299,"ĠTwitter":9300,"Ġdeadlines":9301,"Ġmanageable":9302,"ĠIncreased":9303,"Ġfram":9304,"Ġeste":9305,"atigue":9306,"Ġequip":9307,"Ġdegra":9308,"Ġarbit":9309,"Ġasser":9310,"Ġphotographs":9311,"pass":9312,"Ġritual":9313,"Ġspoke":9314,"Ġfalling":9315,"Ġtrajectory":9316,"Ġtermin":9317,"Ġmentors":9318,"Ġpace":9319,"Ġbags":9320,"Ġmodify":9321,"Ġdiscern":9322,"Ġpaint":9323,"Ġchannel":9324,"Ġpeaceful":9325,"Ġconvert":9326,"Ġvectors":9327,"onymous":9328,"Ġresponsive":9329,"Ġfascinated":9330,"offs":9331,"raine":9332,"Ġ(-":9333,"Ġdogs":9334,"Ġvillage":9335,"ĠPolitics":9336,"'m":9337,"Ġchicken":9338,"Ġcollaborating":9339,"ĠEmp":9340,"Ġzone":9341,"Ġsnipp":9342,"Ġcoc":9343,"iter":9344,"Ġbuck":9345,"everal":9346,"ĠCompe":9347,"Ġeliminate":9348,"Ġoxygen":9349,"Sarah":9350,"ache":9351,"oper":9352,"Ġheated":9353,"Ġcommitting":9354,"Ġsurrounded":9355,"Ġinvestigations":9356,"AI":9357,"Ġcommunal":9358,"undane":9359,"Ġculm":9360,"Ġgall":9361,"Ġaband":9362,"ĠInsurance":9363,"ĠOptions":9364,"Ġprolonged":9365,")(":9366,"Ġmindful":9367,"matic":9368,"ĠPrep":9369,"Ġassured":9370,"ĠStructure":9371,"Ġexplaining":9372,"Ġconference":9373,"ĠAdvantages":9374,"Ġsauce":9375,"Ġimmersion":9376,"Ġcounsel":9377,"gin":9378,"ano":9379,"Ġmundane":9380,"Ġstorm":9381,"ploys":9382,"Ġelusive":9383,"cdot":9384,"Ġequilibrium":9385,"Ġhappening":9386,"Ġambigu":9387,"Ġdecentralized":9388,"Ġmathematic":9389,"Ġcurriculum":9390,"ĊĠ":9391,"ĠPresent":9392,"Ġwheel":9393,"ĠSqu":9394,"ĠDue":9395,"Ġdesk":9396,"worthy":9397,"Ultimately":9398,"Ġambitious":9399,"Ġdiligently":9400,"tun":9401,"Ġrelate":9402,"Ġcorporations":9403,"gent":9404,"Ġopposition":9405,"Ġsilence":9406,"Ġportray":9407,"Ġcommitments":9408,"Ġlifesp":9409,"ĠBro":9410,"opy":9411,"Ġhearing":9412,"Ġshedding":9413,"Ġpresentations":9414,"Ġearrings":9415,"Ġterrain":9416,"Ġdamaged":9417,"Ġfinger":9418,"Ġreper":9419,"ĠActive":9420,"Ġcounts":9421,"anes":9422,"Ġcomputational":9423,"Ġnamely":9424,"Ġabroad":9425,"ĠPhil":9426,"Ġadvancement":9427,"Ġfacial":9428,"Ġsupporters":9429,"Ġcredentials":9430,"ĠPharmaceutical":9431,"Ġsecurely":9432,"ĠPlayers":9433,"Os":9434,"ki":9435,"Ġexperiential":9436,"Ġromantic":9437,"__":9438,"Ġhour":9439,"Ġstoring":9440,"Ġcolorful":9441,"Ġeligibility":9442,"aying":9443,"ĠWomen":9444,"--------------------------------------------":9445,"ĠSeek":9446,"theta":9447,"ĠBeyond":9448,"ripts":9449,"Ġinstrumental":9450,"rons":9451,"ĠTex":9452,"Ġhomeown":9453,"Ġdisposal":9454,"Ġricher":9455,"ĠAmericans":9456,"Ġtables":9457,"Ġocean":9458,"ecutive":9459,"uten":9460,"formance":9461,"rary":9462,"olism":9463,"Ġinvites":9464,"Ġapproval":9465,"Ġlogistics":9466,"Ġwra":9467,"ĠEr":9468,"Ġinflation":9469,"tifying":9470,"ĠGuide":9471,"ĠTherapy":9472,"Ġveloc":9473,"jud":9474,"Ġboun":9475,"Ġdust":9476,"ĠWhite":9477,"ĠSpace":9478,"}{\\":9479,"Ġconcentration":9480,"ĠNFL":9481,"atever":9482,"Ġorth":9483,"blesh":9484,"ĠAdopting":9485,"Ġrival":9486,"advantages":9487,"ĠProduction":9488,"Ġstreamlining":9489,"ĠClin":9490,"Ġmerch":9491,"Ġapparent":9492,"Ġdisagree":9493,"trigued":9494,"Ġempt":9495,"Ġpaving":9496,"Ġbone":9497,"pectively":9498,"Ġspatial":9499,"Ġnuclear":9500,"Ġtone":9501,"Ġmoved":9502,"Ġinstant":9503,"Ġodd":9504,"Ġhospitality":9505,"ĠThink":9506,"ĠNature":9507,"ĠNatural":9508,"Ġentries":9509,"ĠMer":9510,"Ġsimplifies":9511,"Ġoversight":9512,"Ġcohesion":9513,"mathbf":9514,"Ġesteemed":9515,"Ġpump":9516,"Ġconsuming":9517,"which":9518,"Ġdurable":9519,"Ġcapitalize":9520,"Ġmanipulate":9521,"Ġdividing":9522,"EC":9523,"Ġhorm":9524,"Ġscoring":9525,"Ġ\\(":9526,"Ġfamiliarize":9527,"Ġpanels":9528,"Ġadult":9529,"Ġtends":9530,"Ġtender":9531,"Ġhouses":9532,"Ġfootprint":9533,"Ġriver":9534,"ĠFree":9535,"Ġfantastic":9536,"itely":9537,"Ġargument":9538,"ĠFortunately":9539,"Ġattempt":9540,"Ġpoliticians":9541,"Ġelegant":9542,"unic":9543,"Ġrecreational":9544,"athe":9545,"pling":9546,"ĠClub":9547,"Ġrankings":9548,"Ġble":9549,"Ġconsume":9550,"ĠRele":9551,"ĠBehind":9552,"Ġlose":9553,"endant":9554,"Ġappreciated":9555,"Ġtransformations":9556,"ĠEvaluation":9557,"Ġcommunicating":9558,"ica":9559,"change":9560,"Ġindirect":9561,"Ġworkforce":9562,"ĠAccessibility":9563,"Ġow":9564,"Ġratios":9565,"tha":9566,"ĠBig":9567,"jective":9568,"Ġmonetary":9569,"Ġdirections":9570,"ĠAlternatively":9571,"Ġtranqu":9572,"Ġearned":9573,"Ġgreatly":9574,"infty":9575,"Ġgift":9576,"ĠLanguage":9577,"Ġemergencies":9578,"rect":9579,"Ġune":9580,"Trans":9581,"AN":9582,"ĠJane":9583,"Ġsteady":9584,"expression":9585,"band":9586,"ĠUK":9587,"Ġconstitu":9588,"eff":9589,"liness":9590,"rical":9591,"ĠID":9592,"Ġtrick":9593,"Ġaggressive":9594,"gal":9595,"Ġaffairs":9596,"fect":9597,"Ġnegotiation":9598,"Ġtransmit":9599,"Ġdisaster":9600,"Ġhybrid":9601,"Ġcontrasting":9602,"Str":9603,"ini":9604,"Ġconstitute":9605,"rosion":9606,"onials":9607,"100":9608,"ĠMach":9609,"Ġindigenous":9610,"standings":9611,"class":9612,"raced":9613,"Ġseverity":9614,"Ġopenly":9615,"ĠPolic":9616,"Ġcoastal":9617,"Ġinterdisciplinary":9618,"Ġevaluations":9619,"ĠWindows":9620,"Ġoccurred":9621,"Ġofficers":9622,"Ġdiscrepancies":9623,"uit":9624,"utional":9625,"Ġsheds":9626,"ĠUN":9627,"Ġvertical":9628,"craf":9629,"ĠLove":9630,"Ġexpend":9631,"Ġsatisfied":9632,"ĠSelecting":9633,"Ġoperates":9634,"Ġstandout":9635,"Ġlogic":9636,"Ġrespectively":9637,"Ġanticipated":9638,"ĠCorpor":9639,"oids":9640,"Ġul":9641,"Ġanc":9642,"Ġemploys":9643,"Bu":9644,"Ġvan":9645,"Ġreturning":9646,"Ġbasis":9647,"Ġmentorship":9648,"ago":9649,"Ġreferences":9650,"ĠDemoc":9651,"Ġdict":9652,"ribe":9653,"emost":9654,"keeping":9655,"Ġmodules":9656,"Ġsensors":9657,"Ġquestioning":9658,"ĠJourney":9659,"Eng":9660,"Ġcorners":9661,"Ġaccommodation":9662,"Ġfantasy":9663,"Ġrestaurants":9664,"ĠST":9665,"Ġshot":9666,"Ġsamples":9667,"real":9668,"Ġbird":9669,"Ġquart":9670,"------------------------":9671,"Ġunrelated":9672,"overeign":9673,"books":9674,"ĠPass":9675,"Ġlargest":9676,"ĠMeasures":9677,"ida":9678,"Ġbolstering":9679,"ĠEconomic":9680,"Ġcardiovascular":9681,"Ġfatigue":9682,"ulatory":9683,"igned":9684,"FA":9685,"US":9686,"Ġagility":9687,"ĠIdentity":9688,"Ġnostalg":9689,"Ġmixing":9690,"ĠAssessment":9691,"Ġ60":9692,"ĠTreatment":9693,"Back":9694,"Ġcuts":9695,"ĠAD":9696,"ppers":9697,"Ġsight":9698,"Ġreaction":9699,"idable":9700,"Ġoutline":9701,"ĠReflection":9702,"isons":9703,"Ġelectronics":9704,"âĪĴ":9705,"Ġinterpreting":9706,"Ġgro":9707,"ĠMel":9708,"Ġwellness":9709,"prov":9710,"Cs":9711,"iner":9712,"Ġrichness":9713,"Ġtendencies":9714,"Ġnerv":9715,"anding":9716,"ĠStrong":9717,"Ġprivile":9718,"Ġtags":9719,"Ġalleg":9720,"Ġkeys":9721,"They":9722,"Ġnutritional":9723,"Ġwines":9724,"Ġmiles":9725,"Ġcontribution":9726,"Ġbrighter":9727,"ĠCrypt":9728,"eren":9729,"Ġinhib":9730,"outing":9731,"Ġdiges":9732,"Ġperman":9733,"Ġseparation":9734,"Ġconsciousness":9735,"ĠKnowledge":9736,"osure":9737,"ĠContinuous":9738,"arks":9739,"Ġtrails":9740,"Ġsophistication":9741,"Ġenchanting":9742,"Ġhip":9743,"Ġtriggers":9744,"Ġderivative":9745,"Ġholiday":9746,"ĠAdministration":9747,"asters":9748,"Ġillust":9749,"Ġunpredict":9750,"ĠInnovation":9751,"Ġstig":9752,"urable":9753,"Ġalle":9754,"Su":9755,"Ġmanually":9756,"acious":9757,"Ġplain":9758,"Ġimproves":9759,"Ġarrangement":9760,"Ġtranscend":9761,"Ġintention":9762,"Ġtrips":9763,"ĠEvent":9764,"Ġratings":9765,"Ġtele":9766,"ĠIslam":9767,"Ġcaptured":9768,"Ġrevelation":9769,"Ġmisunderstandings":9770,"emade":9771,"Ġrestore":9772,"Ġcrypto":9773,"Ġguit":9774,"Ġinnoc":9775,"Ġendeavor":9776,"Ġplate":9777,"Ġsucc":9778,"Ġparks":9779,"Ġsuppliers":9780,"thetical":9781,"Ġequivalent":9782,"ĠSally":9783,"Ġpersu":9784,"Ġprofits":9785,"Ġapplicants":9786,"Ġdisappoint":9787,"ĠJewelry":9788,"ĠAction":9789,"ĠFoundation":9790,"Ġscrutiny":9791,"Ass":9792,"RI":9793,"Ġsheer":9794,"Ġantib":9795,"Ġantioxid":9796,"Ġimagination":9797,"Ġresulted":9798,"Ġsacred":9799,"Ġfold":9800,"Ġcanc":9801,"Ġvaried":9802,"Ġbuilds":9803,"Ġextrem":9804,"Ġinhab":9805,"Ġranks":9806,"etermined":9807,"ĠGreek":9808,"Ġdamages":9809,"Ġreinforce":9810,"Ġbattle":9811,"ĠDavid":9812,"Data":9813,"oma":9814,"Ġshipping":9815,"ĠPromoting":9816,"ĠSmith":9817,"Ġmounting":9818,"ĠPic":9819,"Ġprotected":9820,"Ġwisely":9821,"ford":9822,"Ġbaseball":9823,"Ġlenders":9824,"Ġoverlook":9825,"Ġobtained":9826,"emption":9827,"ĠCD":9828,"ĠContemporary":9829,"SL":9830,"anger":9831,"Ġminerals":9832,"Ġhotels":9833,"Ġheating":9834,"Ġacquire":9835,"Ġarrival":9836,"Ġdates":9837,"ĠConcepts":9838,"Ġautomatic":9839,"Ġflowers":9840,"boards":9841,"Ġdisturb":9842,"Ġgravity":9843,"Ġterror":9844,"Ġcrimes":9845,"Ġtapping":9846,"Ġkid":9847,"Ġtwice":9848,"ĠMaybe":9849,"ĠGovernment":9850,"asis":9851,"Ġviable":9852,"ĠDNA":9853,"Ġ2022":9854,"ĠPreparation":9855,"Ġrice":9856,"Ġlistened":9857,"ĠPos":9858,"Ġcurated":9859,"Ġpasseng":9860,"Ġflows":9861,"Ġgave":9862,"akistan":9863,"ĠEquipment":9864,"Ġresolving":9865,"ĠObs":9866,"ondon":9867,"Ġwherein":9868,"undred":9869,"ĠRecently":9870,"Ġprogressive":9871,"Ġproves":9872,"riction":9873,"Ġfaculty":9874,"ĠIsrael":9875,"Ġformidable":9876,"}^{":9877,"Ġdiver":9878,"ola":9879,"ĠFederal":9880,"Ġbehavioral":9881,"ĠExperiences":9882,"ĠAssessing":9883,"Ġreconc":9884,"ĠEssentially":9885,"Ġinduc":9886,"Ġstation":9887,"ĠTri":9888,"emble":9889,"ĠRad":9890,"ĠRepresent":9891,"Ġgenuinely":9892,"Ġmissed":9893,"umen":9894,"ensively":9895,"ĠAsian":9896,"ĠEngland":9897,"Ġswiftly":9898,"gy":9899,"ĠCouncil":9900,"ĠCard":9901,"pections":9902,"Ġrespectful":9903,"pret":9904,"aylor":9905,"Ġassembly":9906,"Ġneighboring":9907,"ĠAug":9908,"Ġsignature":9909,"ĠDepartment":9910,"Ġquantity":9911,"ĠAPI":9912,"Ġsurprising":9913,"Ġlegisl":9914,"ĠOften":9915,"Ġwoven":9916,"ĠFrame":9917,"Ġtirelessly":9918,"ĠIll":9919,"Ġspices":9920,"Ġexperimenting":9921,"aith":9922,"dem":9923,"Ġsignaling":9924,"ĠPerspective":9925,"ĠIssues":9926,"ĠOrganization":9927,"Ġbasketball":9928,"verages":9929,"ĠMaster":9930,"ĠAccount":9931,"edy":9932,"ĠBible":9933,"Ġoverhead":9934,"Ġconverting":9935,"ĠRussian":9936,"ĠDrawing":9937,"Ġvendors":9938,"Î¸":9939,"Ġtimelines":9940,"ĠAnn":9941,"ĠIntellig":9942,"Reflecting":9943,"Ġhall":9944,"Ġbreaches":9945,"fe":9946,"iking":9947,"Ġfriendships":9948,"Ġwarmly":9949,"Ġsleek":9950,"Ġrolling":9951,"eded":9952,"Ġexplanation":9953,"information":9954,"Ġastr":9955,"ĠFlor":9956,"Tube":9957,"Ġrul":9958,"Ġlesser":9959,"Ġlarg":9960,"ĠPlace":9961,"Ġspeak":9962,"ĠFranc":9963,"Ġathletic":9964,"Ġcertifications":9965,"HC":9966,"Ġbands":9967,"Ġbeat":9968,"Ġbeings":9969,"ĠDou":9970,"Ġintermedi":9971,"Ġdie":9972,"Ġaside":9973,"aluable":9974,"ĠSmart":9975,"ĠPlayer":9976,"urers":9977,"ĠAp":9978,"Ġcloth":9979,"ĠGerman":9980,"Ġacids":9981,"Ġgran":9982,"Ġtreats":9983,"Ġdys":9984,"Ġimpressions":9985,"ĠEstate":9986,"Ġtolerance":9987,"Ġcro":9988,"ĠSearch":9989,"Ġrelent":9990,"comp":9991,"conf":9992,"ĠMedicine":9993,"rog":9994,"Ġbeans":9995,"illance":9996,"Ġfinances":9997,"ait":9998,"base":9999,"mouth":10000,"aining":10001,"Ġsale":10002,"ĠSpecific":10003,"Ġscreens":10004,"Ġcontroversial":10005,"ĠMart":10006,"Ġshots":10007,"Ġparallels":10008,"gar":10009,"Ġtheft":10010,"acent":10011,"ĠArab":10012,"Ġarrive":10013,"Ġcru":10014,"ĠFeed":10015,"conscious":10016,"Ġbusy":10017,"Ġrecycling":10018,"ĠWriting":10019,"Ġembarked":10020,"ĠInsights":10021,"22":10022,"rated":10023,"vation":10024,"ĠVers":10025,"placement":10026,"Ġassignments":10027,"Ġrestaurant":10028,"Ġaugment":10029,"?âĢĿ":10030,"Ġtied":10031,"Ġaqu":10032,"opic":10033,"racking":10034,"Ġlargely":10035,"Ġshel":10036,"ĠEmotional":10037,"ĠCommission":10038,"Ġappearances":10039,"ospher":10040,"Ġconsisting":10041,"Ġpassive":10042,"ĠIsland":10043,"ĠModel":10044,"Ġtreasures":10045,"Ġhypothetical":10046,"Ġbiod":10047,"Ġhone":10048,"Ġunless":10049,"Ġconstruct":10050,"Ġmortgages":10051,"impse":10052,"ĠLine":10053,"Ġphases":10054,"Ġtactical":10055,"anda":10056,"Ġspring":10057,"Ġbranches":10058,"Ġelder":10059,"vas":10060,"Ġinstalled":10061,"pes":10062,"uity":10063,"writing":10064,"ĠPack":10065,"Ġfeasible":10066,"ĠSuddenly":10067,"ĠHear":10068,"Ġdeciding":10069,"ĠPerforming":10070,"Â®":10071,"ĠDown":10072,"Ġintroduces":10073,"Ġirrit":10074,"Ġpromotions":10075,"Bl":10076,"Ġpays":10077,"Ġhards":10078,"ĠCall":10079,"ikes":10080,"Ġmovies":10081,"Res":10082,"Ġreasoning":10083,"Ġdistinguish":10084,"ĠInstitute":10085,"Ġrelation":10086,"onies":10087,"usively":10088,"Ġagricultural":10089,"Ġpione":10090,"Ġforums":10091,"ĠRock":10092,"Ġconsol":10093,"Ġdangerous":10094,"Ġsurveys":10095,"Ġtag":10096,"Ġshock":10097,"reshold":10098,"Ġpolar":10099,"Ġdevast":10100,"Ġduties":10101,"bling":10102,"rif":10103,"ĠIng":10104,"Ġlifetime":10105,"Ġinstallations":10106,"profile":10107,"Ġfrustr":10108,"kins":10109,"Ġmale":10110,"changing":10111,"ĠLondon":10112,"Ġflash":10113,"Ġmultim":10114,"ĠSchedule":10115,"Mod":10116,"first":10117,"Ġweren":10118,")}":10119,"estic":10120,"Ġpermit":10121,"Ġreleasing":10122,"Ġimpactful":10123,"ĠSpanish":10124,"Ġputting":10125,"Ġmolecules":10126,"Ġtemplates":10127,"Ġessentially":10128,"Ġcalling":10129,"Ġadaptable":10130,"OT":10131,"chool":10132,"Ġtrained":10133,"Ġemphasized":10134,"Ġmatching":10135,"Ġagriculture":10136,"Ġimpossible":10137,"Ġsuccesses":10138,"Ġpartnering":10139,"ĠExplore":10140,"habilit":10141,"Ġhind":10142,"Ġretaining":10143,"tains":10144,"Ġbasics":10145,"Ġexecute":10146,"Ġgrapple":10147,"begin":10148,"Ġquir":10149,"Ġminimizes":10150,"sm":10151,"Ġdeliber":10152,"Ġsmartphones":10153,"Ġfier":10154,"Ġtours":10155,"Ġimmigration":10156,"iscal":10157,"Ġenriches":10158,"ĠClearly":10159,"Ġeggs":10160,"Upon":10161,"Ġopting":10162,"Ġfundament":10163,"Ġinteracting":10164,"titative":10165,"Ġgeopolitical":10166,"Ġseasonal":10167,"Ġhoney":10168,"Ġpert":10169,"Ġstandardized":10170,"uminum":10171,"urities":10172,"elled":10173,"Ġinstability":10174,"Ġmarriage":10175,"Ġodds":10176,"Ġdiplomacy":10177,"ĠUkraine":10178,"Ġlib":10179,"ulus":10180,"ĠHead":10181,"ĠAsia":10182,"Ġencouragement":10183,"ĠAdvoc":10184,"Ġinev":10185,"Ġhues":10186,"Ġexploit":10187,"ĠSociety":10188,"Mr":10189,"Ġforest":10190,"ĠTax":10191,"ĠSci":10192,"ĠPet":10193,"Ġeluc":10194,"Ġingen":10195,"ĠDifferent":10196,"bur":10197,"Ġexterior":10198,"ĠAff":10199,"ĠPython":10200,"Ġtissues":10201,"van":10202,"Ġstays":10203,"Ġforced":10204,"asted":10205,"Ġscholar":10206,"Ġwelcoming":10207,"Ġconclusions":10208,"ĠCode":10209,"Ġflood":10210,"ĠMaintenance":10211,"Ġhundred":10212,"Ġrelatable":10213,"ĠStandard":10214,"Ġsigh":10215,"Ġliber":10216,"mmas":10217,"Sp":10218,"Ġsending":10219,"Ġadorned":10220,"Ġabsolute":10221,"gl":10222,"Ġswimming":10223,"Ġreviewing":10224,"Ġgraphic":10225,"effective":10226,"Ġguard":10227,"Ġanalog":10228,"Ġcorrosion":10229,"Ġwitnessed":10230,"ĠGeorge":10231,"Ġforemost":10232,"Ġinterval":10233,"Ġprinting":10234,"Ġcookies":10235,"Ġconfidentiality":10236,"Ġorientation":10237,"berg":10238,"ĠConc":10239,"ĠShould":10240,"ĠType":10241,"ĠMiddle":10242,"crafted":10243,"Ġheads":10244,"Ġhomemade":10245,"annel":10246,"ĠLar":10247,"Ġscul":10248,"Ġsettle":10249,"vable":10250,"writ":10251,"usc":10252,"Ġtransfers":10253,"Ġflu":10254,"Ġcritic":10255,"Ġcontainer":10256,"Ġhonesty":10257,"ĠResponse":10258,"bi":10259,"ĠBeach":10260,"Ġinvestigating":10261,"Ġsentiment":10262,"ught":10263,"bies":10264,"functional":10265,"ĠAge":10266,"osity":10267,"Ġrepairs":10268,"ĠGener":10269,"Ġcorrespond":10270,"Ġnumerical":10271,"Ġdifficulty":10272,"Ġdistribute":10273,"ĠFrance":10274,"ĠCong":10275,"ĠCath":10276,"ĠLG":10277,"ĠLab":10278,"Ġbroken":10279,"Ġbreakthrough":10280,"24":10281,"tibility":10282,"Ġla":10283,"Ġboards":10284,"ĠYouTube":10285,"Ġelevating":10286,"Ġtransitioning":10287,"Ġcourts":10288,"ĠCourt":10289,"Ġson":10290,"ĠHoly":10291,"Ġarc":10292,"Ġparallel":10293,"Ġpermission":10294,"PE":10295,"casts":10296,"Ġsend":10297,"ĠElements":10298,"ĠRight":10299,"Ġsuited":10300,"ĠUr":10301,"ĠItaly":10302,"ĠAmid":10303,"Ġhosts":10304,"Ġphrases":10305,"source":10306,"Ġpredefined":10307,"Ġradical":10308,"ĠMeasuring":10309,"23":10310,"Ġwants":10311,"Ġhaven":10312,"ĠTre":10313,"Ġwearing":10314,"Ms":10315,"Ġvocal":10316,"ĠPakistan":10317,"onent":10318,"Ġinputs":10319,"ĠExamine":10320,"Ġcleaner":10321,"Ġfailed":10322,"ĠComplex":10323,"Ġintervals":10324,"Ġbackdrop":10325,"Ġperiodic":10326,"Ġannually":10327,"21":10328,"Ġtab":10329,"oters":10330,"Ġoutlining":10331,"Ġsynchron":10332,"Ġpanel":10333,"Ġfur":10334,"ĠStream":10335,"auses":10336,"ĠWithout":10337,"ĠEastern":10338,"Ġreproduc":10339,"Ġapproaching":10340,"Ġspeaks":10341,"Hey":10342,"Ġadmin":10343,"Ġintrigued":10344,"Ġirre":10345,"Ġextraction":10346,"Ġarms":10347,"ĠâĢĺ":10348,"Ġmystery":10349,"Ġglimpse":10350,"ĠDirections":10351,"Ġtwists":10352,"tee":10353,"Ġstro":10354,"rian":10355,"Ġconsensus":10356,"Ġ2010":10357,"Ġnecessity":10358,"Ġtemp":10359,"Ġfuels":10360,"WS":10361,"ns":10362,"ĠGrand":10363,"ikely":10364,"Ġexpansive":10365,"Ġhinges":10366,"Ġneural":10367,"Ġexecutive":10368,"Ġburdens":10369,"Ġdecrease":10370,"Ġproceedings":10371,"Ġmathematicians":10372,"autions":10373,"Ġrab":10374,"Ġbuzz":10375,"ĠUnl":10376,"Ġdigit":10377,"aneous":10378,"Ġaccountable":10379,"Ġrefreshing":10380,"ectious":10381,"ĠBec":10382,"ĠEU":10383,"ĠAgain":10384,"Ġfarmers":10385,"Ġcaf":10386,"Ġdisrupt":10387,"Ġdesigner":10388,"Ġdistant":10389,"RT":10390,"ĠTheory":10391,"Ġmagnetic":10392,"Ġdramatic":10393,"Ġempty":10394,"Dr":10395,"Ġborn":10396,"ĠMad":10397,"osting":10398,"Ġrestoration":10399,"Ġventures":10400,"inflamm":10401,"ĠLimited":10402,"ĠJewish":10403,"Ġque":10404,"Ġalgorithm":10405,"Design":10406,"Ġthermal":10407,"urrently":10408,"ĠSpe":10409,"90":10410,"Ġmining":10411,"ĠURL":10412,"Ġelevated":10413,"Ben":10414,"Ġfueling":10415,"Ġfight":10416,"Ġlitigation":10417,"formed":10418,"herence":10419,"ĠCombining":10420,"HA":10421,"DS":10422,"MA":10423,"Ġbases":10424,"Ġ2012":10425,"Ġexecuted":10426,"ĠAdapting":10427,"Ġchampion":10428,"oors":10429,"ulf":10430,"ega":10431,"Ġrefuge":10432,"ĠLevel":10433,"Ġmediums":10434,"ĠExcited":10435,"Ġpret":10436,"Ġtourist":10437,"Ġtestimonials":10438,"aple":10439,"ĠCompliance":10440,"ye":10441,"ĠMs":10442,"Ġcustomizable":10443,"Ġaudit":10444,"ĠApply":10445,"Ġpenet":10446,"+\\":10447,"LS":10448,"rays":10449,"Ġrow":10450,"Ġdefenses":10451,"Ġ\\*":10452,"Ġfootage":10453,"Second":10454,"Ġaward":10455,"Ġembody":10456,"Ġmentions":10457,"ĠRepublic":10458,"Ġexhibits":10459,"lasting":10460,"Ġlending":10461,"eming":10462,"Ġinspections":10463,"Ġlively":10464,"Ġgrants":10465,"ĠCommit":10466,"emical":10467,"rank":10468,"tism":10469,"Mon":10470,"RS":10471,"Ã¡":10472,"ila":10473,"etting":10474,"ĠBob":10475,"No":10476,"ictional":10477,"Ġconting":10478,"ĠBank":10479,"Ġbackup":10480,"Ġtor":10481,"alley":10482,"Ġexcitedly":10483,"Ġmorale":10484,"ĠAustralia":10485,"ĠPrinciples":10486,"Ġcricket":10487,"Ġinches":10488,"Ġentered":10489,"Ġpatrons":10490,"Ġneutral":10491,"NC":10492,"VIII":10493,"fall":10494,"Ġlad":10495,"Ġdelay":10496,"rammar":10497,"Ġcertification":10498,"ĠBasic":10499,"Ġmixture":10500,"Ġvine":10501,"Ġconserv":10502,"ĠExerc":10503,"umble":10504,"ĠConflic":10505,"Ġreap":10506,"ĠStyle":10507,"Ġbirds":10508,"Ġbottle":10509,"kens":10510,"fortable":10511,"Ġjar":10512,"Ġclock":10513,"Ġsynthetic":10514,"Ġpiqu":10515,"ĠAz":10516,"ĠLay":10517,"Ġgenerates":10518,"ĠSkin":10519,"ĠPath":10520,"Ġdele":10521,"Ġstudio":10522,"Ġhonor":10523,"Ġdescribes":10524,"ĠLu":10525,"ventive":10526,"ĠProperty":10527,"RA":10528,"rise":10529,"Ġgri":10530,"Ġshine":10531,"Ġpublicly":10532,"Ġretrie":10533,"ĠInstall":10534,"Ġattached":10535,"Ġvenues":10536,"ĠDescription":10537,"ĠHarmony":10538,"Ġenhancement":10539,"Ġreflected":10540,"ĠTexas":10541,"Ġvelocity":10542,"Ġglow":10543,"ĠYes":10544,"Ġexclusively":10545,"Ġattorneys":10546,"list":10547,"urally":10548,"Ġrings":10549,"agog":10550,"Ġbeach":10551,"ĠNur":10552,"Ġquad":10553,"Ġheroes":10554,"Ġnodes":10555,"Ġvarieties":10556,"Ġsitting":10557,"Ġinfluencers":10558,"Ġrealities":10559,"Ġannouncement":10560,"requ":10561,"ĠLED":10562,"ĠDelving":10563,"Ġentity":10564,"mas":10565,"Ġthreshold":10566,"Ġbranding":10567,"ĠTeams":10568,"ĠThomas":10569,"Com":10570,"Ġlegend":10571,"Ġunderstands":10572,"eeing":10573,"Ġretreat":10574,"Ġdivis":10575,"ĠHave":10576,"Ġoutstanding":10577,"Ġchemistry":10578,"Ġlyrics":10579,"onut":10580,"rot":10581,"Ġtrace":10582,"Ġaccessing":10583,"ĠDefine":10584,"ĠTransport":10585,"ĠCalc":10586,"Ġrefinement":10587,"Ġvenue":10588,"Ġstainless":10589,"ĠHam":10590,"ĠGD":10591,"Ġinvested":10592,"imm":10593,"ria":10594,"Ġcommands":10595,"Ġpossibility":10596,"Ġobscure":10597,"Ġgreenhouse":10598,"ĠSeeing":10599,"Ġindulge":10600,"Ġhub":10601,"ĠCy":10602,"Ġinstalling":10603,"Ġspreading":10604,"Ġawait":10605,"Ġexperiments":10606,"Ġconfronted":10607,"ĠAddress":10608,"ouring":10609,"Ġwooden":10610,"ĠCiv":10611,"Ġshooting":10612,"Ġscaling":10613,"Ġbenefiting":10614,"Ġdegrad":10615,"ĠPen":10616,"Ġroster":10617,"ĠEmer":10618,"Ġtriangle":10619,"Ġabsorption":10620,"Ġlaid":10621,"umbers":10622,"Ġrect":10623,"Ġaccepting":10624,"Ġparadig":10625,"bleshooting":10626,"uration":10627,"Ġgrown":10628,"Ġbacked":10629,"ĠParty":10630,"no":10631,"Ġparking":10632,"Ġscrolling":10633,"Ġisolated":10634,"Ġsovereign":10635,"Ġprovisions":10636,"Ġ\\\\":10637,"Ġaccepted":10638,"Ġaltogether":10639,"ĠHall":10640,"Ġrecurring":10641,"Ġcontainers":10642,"Ġabandon":10643,"Ġcontents":10644,"Ġjazz":10645,"Ġmaintained":10646,"Ġfinds":10647,"Ġ2011":10648,"Ġdimension":10649,"Ġtranslates":10650,"ĠPolicies":10651,"lace":10652,"mat":10653,"zym":10654,"Ġinfectious":10655,"comm":10656,"ĠQuestions":10657,"ĠHaving":10658,"ĠLoc":10659,"Ġelectro":10660,"ortion":10661,"erson":10662,"ĠPosition":10663,"Ġdebris":10664,"Ġmotif":10665,"ĠEnhancing":10666,"ĠPrioritize":10667,"Ġsummarize":10668,"Me":10669,"Ġstark":10670,"Ġspin":10671,"ĠCollection":10672,"ĠCareer":10673,"ockey":10674,"Ġdisplaying":10675,"Ġdepartment":10676,"ĠRequire":10677,"ĠGames":10678,"ĠTranspar":10679,"Ġsuspicious":10680,"Ġtitled":10681,"Ġdegradation":10682,"ecycle":10683,"She":10684,"Ġunable":10685,"Ġgleaned":10686,"Ġowing":10687,"Ġlunch":10688,"Ġcompound":10689,"ĠJud":10690,"ĠJob":10691,"Ġconcerned":10692,"Ġgenetics":10693,"Ġpowder":10694,"Ġmold":10695,"Ġnour":10696,"Ġanch":10697,"Ġvisualization":10698,"Ġreinforces":10699,"Ġvolunteers":10700,"ĠFoster":10701,"ĠArtist":10702,"Ġforum":10703,"ĠEfficiency":10704,"Ġincoming":10705,"Ġabsence":10706,"Ġgamers":10707,"rological":10708,"Alex":10709,"Mar":10710,"ĠSus":10711,"Ġbutton":10712,"ĠAnti":10713,"Ġgrant":10714,"Ġoccurring":10715,"Ġseconds":10716,"Or":10717,"}$.":10718,"itted":10719,"Ġproductive":10720,"Ġmeters":10721,"Ġrestoring":10722,"Ġcentralized":10723,"LC":10724,"Ġisland":10725,"ĠWashing":10726,"Ġinspection":10727,"Ġfreely":10728,"ĠProcesses":10729,"Ġterritories":10730,"income":10731,"Ġdress":10732,"Ġlot":10733,"Ġenlight":10734,"ayment":10735,"Ġdiagn":10736,"Ġclosing":10737,"Ġcurrency":10738,"organ":10739,"Ġreact":10740,"Ġinstrument":10741,"Ġvolunteer":10742,"Ġtomorrow":10743,"Ġhobby":10744,"Ġlegitimate":10745,")$,":10746,"Ġrefined":10747,"Ġvisited":10748,"ĠTechnologies":10749,"Ġcouples":10750,"ĠDemonstr":10751,"tage":10752,"Ġfinite":10753,"ĠRecap":10754,"ĠScript":10755,"Ġabsorb":10756,"ĠGermany":10757,"rite":10758,"Ġbonding":10759,"Ġmotivated":10760,"ĠPopular":10761,"Ġluck":10762,"ĠIran":10763,"Ġimproper":10764,"Ġpasses":10765,"Ġgut":10766,"ĠSports":10767,"ologist":10768,"Ġcarb":10769,"Ġhypoth":10770,"Ġelectoral":10771,"Ġbacteria":10772,"ĠKen":10773,"Ġlightweight":10774,"âĤģ":10775,"RC":10776,"Ġdisabilities":10777,"Ġcampus":10778,"Ġ80":10779,"Ġentrepreneur":10780,"Real":10781,"Ġdilemmas":10782,"FT":10783,"incl":10784,"Ġavid":10785,"ĠHigher":10786,"Ġtouches":10787,"Ġreasonable":10788,"ĠMetrics":10789,"inars":10790,"Ġrose":10791,"ĠEnt":10792,"Ġcharging":10793,"heartedly":10794,"PT":10795,"Since":10796,"ĠCover":10797,"Ġages":10798,"Ġol":10799,"Ġbinary":10800,"ĠBase":10801,"ĠLow":10802,"Ġdenoted":10803,"ĠIntelligence":10804,"inflammatory":10805,"Ġbaby":10806,"Ġgeometric":10807,"Ġexperimental":10808,"users":10809,"Analy":10810,"Ġcornerstone":10811,"Ġripp":10812,"Ġvoters":10813,"ouses":10814,"achel":10815,"Ġfinancially":10816,"Ġrevis":10817,"ĠOffice":10818,"Ġsteadfast":10819,"Ġfranchise":10820,"ĠIngred":10821,"Ġfriction":10822,"ĠAPIs":10823,"person":10824,"Ġbolsters":10825,"Ġpiqued":10826,"Ġking":10827,"arr":10828,"Ġhole":10829,"Ġassum":10830,"blem":10831,"Ġcurricula":10832,"ĠCultivating":10833,"tune":10834,"omal":10835,"idate":10836,"Ġrecover":10837,"ĠPrepare":10838,"BS":10839,"enth":10840,"Ġstack":10841,"Ġrespected":10842,"trans":10843,"Ġwrest":10844,"Ġillustrates":10845,"Ġassigned":10846,"town":10847,"Ġbriefly":10848,"ĠCharacteristics":10849,"plying":10850,"unit":10851,"Ġapples":10852,"ĠOthers":10853,"Ġindividually":10854,"Ġproducers":10855,"Ġweekly":10856,"quad":10857,"Ġverification":10858,"Ġgameplay":10859,"Ġpredictive":10860,"ĠDise":10861,"Ġdecline":10862,"Ġsurveillance":10863,"ropriate":10864,"ĠCredit":10865,"Ġsnippet":10866,"Ġum":10867,"ĠSa":10868,"Ġvoting":10869,"Ġcreatively":10870,"nessing":10871,"Ġcoal":10872,"Ġfinishes":10873,"Ġvisuals":10874,"ĠMichael":10875,"acc":10876,"agen":10877,"ĠLin":10878,"ĠLocation":10879,"ĠLatin":10880,"lectable":10881,"Ġwalks":10882,"Ġadvocates":10883,"Ġbills":10884,"ota":10885,"Ġshorter":10886,"Ġmatrices":10887,"Ġdetailing":10888,"Ġram":10889,"Ġanalysts":10890,"Ġsimilarities":10891,"Ġoccurr":10892,"Ġcoordinate":10893,"Ġdominant":10894,"Feeling":10895,"gering":10896,"Ġresponsiveness":10897,"Ġwholeheartedly":10898,"Ġbatteries":10899,"Ġexploitation":10900,"ĠTaylor":10901,"ĠMass":10902,"Ġgrade":10903,"Ġdraft":10904,"Ġinconsistencies":10905,"ĠJavaScript":10906,"arious":10907,"Ġtoxic":10908,"asions":10909,"ĠSelect":10910,"stor":10911,"Ġinvestor":10912,"Ġtriv":10913,"provoking":10914,"check":10915,"Ġinvaluable":10916,"ashes":10917,"Ġsacrif":10918,"Ġchefs":10919,"Ġtear":10920,"anal":10921,"ĠWi":10922,"Ġcalend":10923,"Ġenthusiast":10924,"Ġepisode":10925,"Press":10926,"from":10927,"Ġfly":10928,"ĠOwn":10929,"Ġdistributions":10930,"Ġresponded":10931,"opes":10932,"ĠDI":10933,"ereum":10934,"ĠLake":10935,"Ġdisability":10936,"Ġbackl":10937,"Ġbridges":10938,"Ġallure":10939,"Ġcomparison":10940,"ĠKnown":10941,"ĠReading":10942,"Ġbugs":10943,"Ġprotagonist":10944,"ĠEmerging":10945,"aired":10946,"ĠIII":10947,"Ġdistractions":10948,"----------------------------------------------------------------":10949,"Pre":10950,"yard":10951,"Ġille":10952,"Ġentail":10953,"Ġassociation":10954,"Ġlifespan":10955,"}.":10956,"orrect":10957,"Ġusual":10958,"weet":10959,"Ġknowledgeable":10960,"Ġdoctr":10961,"ĠRetrie":10962,"ita":10963,"Ġhal":10964,"Ġoutreach":10965,"Ġbiom":10966,"Ġproudly":10967,"ĠWashington":10968,"Ġstreamlined":10969,"Ġforgiveness":10970,"ceived":10971,"ĠSound":10972,"Ġsuppose":10973,"Ġstance":10974,"Ġserene":10975,"Ġpersistence":10976,"RE":10977,"Ġdefe":10978,"Ġphoto":10979,"ependent":10980,"Ġillustrated":10981,"Ġintersect":10982,"Ġvessels":10983,"iced":10984,"urches":10985,"ĠGrad":10986,"rounded":10987,"Ġneeding":10988,"Ġlisted":10989,"Ġemergence":10990,"ranging":10991,"Ġgarlic":10992,"ĠMethods":10993,"Ġfighting":10994,"Ġinnate":10995,"Ġmembership":10996,"ĠEvents":10997,"ĠOptimization":10998,"ĠAnna":10999,"ĠLeverage":11000,"aled":11001,"ĠPC":11002,"Ġintently":11003,"Ġmarbles":11004,"Ġwarning":11005,"zation":11006,"ouds":11007,"ĠCond":11008,"ourcing":11009,"rolled":11010,"Ġpointed":11011,"Ġ2008":11012,"Ġatmospher":11013,"Ġmagnific":11014,"ĠMS":11015,"Ġbroaden":11016,"ĠPerhaps":11017,"Ġstarters":11018,"ĠDecision":11019,"Ġmultimedia":11020,"ĠJen":11021,"jections":11022,"igure":11023,"Ġboy":11024,"ĠSimply":11025,"value":11026,"^{-":11027,"atal":11028,"amel":11029,"Ġasc":11030,"istine":11031,"eph":11032,"ĠOpt":11033,"Ġcompute":11034,"Ġdoctor":11035,"Ġadminister":11036,"ĠFind":11037,"Ġillnesses":11038,"ĠPrem":11039,"Ġrevolutionized":11040,"Ġsentence":11041,"Ġurgent":11042,"Ġmaj":11043,"Ġbigger":11044,"Emb":11045,"Ġcopyright":11046,"Ġhospitals":11047,"Ġwhisper":11048,"Creating":11049,"Ġnostalgia":11050,"nament":11051,"ĠCRM":11052,"ĠYoun":11053,"Ġappliances":11054,"Ġreplacing":11055,"ixtures":11056,"Ġthreads":11057,"Ġsto":11058,"Ġposting":11059,"Ġadaptations":11060,"ĠWood":11061,"Ġrows":11062,"Ġcivic":11063,"ĠLiving":11064,"Ġprotections":11065,"Ġactivism":11066,"Ġskepticism":11067,"Ġvitamins":11068,"sen":11069,"Ġbio":11070,"thew":11071,"chie":11072,"Ġimbal":11073,"Ġarises":11074,"raveling":11075,"Co":11076,"ĠCirc":11077,"ĠEducational":11078,"ĠProducts":11079,"Ġcontroversy":11080,"Ġuntapped":11081,"ĠTem":11082,"ĠCris":11083,"ĠMuse":11084,"Ġpossesses":11085,"Ġpremature":11086,"Ġpassword":11087,"lla":11088,"Ġsimpler":11089,"athetic":11090,"Op":11091,"rance":11092,"roots":11093,"Ġbuff":11094,"ountable":11095,"Ġdownload":11096,"Ġuncomfortable":11097,"net":11098,"Ġsed":11099,"antum":11100,"Ġrituals":11101,"Ġstigma":11102,"born":11103,"Ġlip":11104,"Ġextension":11105,"Ġlifecycle":11106,"ĠImplementation":11107,"Ġscheme":11108,"Ġterritory":11109,"ĠAugust":11110,"ĠAndroid":11111,"Ġeligible":11112,"ĠDynamics":11113,"75":11114,"MD":11115,"uation":11116,"Ġdash":11117,"ĠBlock":11118,"Ġestimates":11119,"Ġentrepreneurship":11120,"Ġdiamond":11121,"Ġexacerbate":11122,"rals":11123,"Ġimpair":11124,"Ġpartial":11125,"ĠVict":11126,"Ġrotation":11127,"Ġdiamonds":11128,"Ġhobbies":11129,"Ġpropri":11130,"ĠBegin":11131,"ĠMix":11132,"Ġdelivered":11133,"Ġcomposed":11134,"Ġdrink":11135,"Ġjurisdictions":11136,"Ġearnings":11137,"Ġspecialists":11138,"Comp":11139,"ĠBody":11140,"angel":11141,"Ġ196":11142,"Ġfro":11143,"Ġimplic":11144,"Ġplag":11145,"Ġexplan":11146,"ĠValley":11147,"Ġwatched":11148,"etic":11149,"Ġdelectable":11150,"Ġelderly":11151,"nes":11152,"Ġresc":11153,"ĠEngagement":11154,"tax":11155,"Ġspectrum":11156,"Ġcontained":11157,"ĠEthereum":11158,"ĠMess":11159,"ĠHence":11160,"Ġreaches":11161,"Ġcompetitiveness":11162,"Ġnursing":11163,"Ġattorney":11164,"Ġpertinent":11165,"ĠCreative":11166,"ĠLucy":11167,"grade":11168,"Ġunlikely":11169,"Ġgirl":11170,"Ġrelentless":11171,"ĠSn":11172,"ĠPeter":11173,"este":11174,"ployment":11175,"Ġdefault":11176,"Ġincorporates":11177,"Ġqualifications":11178,"Ġencountering":11179,"Ġlengths":11180,"Ġsusceptibility":11181,"habilitation":11182,"Ġdiffering":11183,"Ġlock":11184,"Ġdivisions":11185,"ĠPrevention":11186,"ĠHosp":11187,"roducing":11188,"ĠBuild":11189,"Ġcorrel":11190,"ĠNutri":11191,"Ġadmiration":11192,"Ġpredictions":11193,"ĠRelationship":11194,"Ġsculpt":11195,"Del":11196,"Ġrecept":11197,"ims":11198,"ĠBook":11199,"Ġanswering":11200,"Ġ90":11201,"Ġperceive":11202,"Ġbranch":11203,"reflection":11204,"Ġfits":11205,"ĠTesting":11206,"tility":11207,"Ġlicensing":11208,"Ġgal":11209,"ticals":11210,"Ġpristine":11211,"Ġsuffer":11212,"ht":11213,"ĠBrown":11214,"Ġunion":11215,"Ġroads":11216,"Ġfertile":11217,"how":11218,"ario":11219,"Ġembraced":11220,"Ġtherapists":11221,"âĤĤ":11222,"vious":11223,"Ġsighed":11224,"bar":11225,"Ġmim":11226,"Ġpromin":11227,"ĠVir":11228,"Ġcapac":11229,"Ġteammates":11230,"Ġweapons":11231,"ĠLGBT":11232,"car":11233,"ĠInvestment":11234,"Ġsenior":11235,"%.":11236,"Ġpear":11237,"ĠSeries":11238,"ĠStreet":11239,"Ġendorse":11240,"Ġeconomics":11241,"Ġattachment":11242,"Tra":11243,"oice":11244,"Ġtones":11245,"ĠCore":11246,"adata":11247,"ĠEV":11248,"ervice":11249,"Ġenhancements":11250,"}$,":11251,"Ġtub":11252,"Ġstations":11253,"Ġnoted":11254,"Ġrealms":11255,"Ġplane":11256,"inants":11257,"rote":11258,"ĠBill":11259,"Ġusability":11260,"Ġcareg":11261,"Ġorganize":11262,"Ġfitting":11263,"ĠMaterials":11264,"ĠStorytelling":11265,"erse":11266,"Ġintens":11267,"Ġovernight":11268,"Ġsket":11269,"proof":11270,"Ġredemption":11271,"ĠAdvent":11272,"downs":11273,"Ġaged":11274,"Ġwelcome":11275,"Ġaltered":11276,"Ġacademia":11277,"Ġmagnificent":11278,"Ġpig":11279,"ĠCount":11280,"otten":11281,"ĠQue":11282,"Ġwatches":11283,"ĠLearned":11284,"Ġbridging":11285,"izza":11286,"ĠCampaign":11287,"iants":11288,"ĠTech":11289,"Ġdevoid":11290,"Ġhydration":11291,"45":11292,"border":11293,"ĠChanges":11294,"Ġcoex":11295,"Ġnonprofit":11296,"Ġlaunched":11297,"ĠRequirements":11298,"ĠTechnical":11299,"Ġprospect":11300,"Ġinstructors":11301,"ĠLiter":11302,"Ġfarming":11303,"Ġpermanent":11304,"Ġguitar":11305,"'(":11306,"amed":11307,"Ġimpression":11308,"Ġdrinks":11309,"HD":11310,"Ġmas":11311,"oken":11312,"igma":11313,"Ġproductions":11314,"Ġloops":11315,"Ġmaturity":11316,"Ġintegers":11317,"Ġvaccine":11318,"Ġfundamentals":11319,"Ġblank":11320,"$$\\":11321,"Ġcinema":11322,"well":11323,"angles":11324,"Ġloading":11325,"Ġmysteries":11326,"Ġchampions":11327,"Ġadhes":11328,"Ġdesp":11329,"phony":11330,"Ġevenly":11331,"Ġloving":11332,"Ġtheorem":11333,"Ġfoss":11334,"ĠPain":11335,"Ġlifestyles":11336,"Ġscattered":11337,"style":11338,"Ġinterference":11339,"Ġinvite":11340,"Ġconfir":11341,"Ġspecifications":11342,"Ġpoetry":11343,"Ġspeaker":11344,"Ġmelodies":11345,"70":11346,"function":11347,"Ġtrib":11348,"ĠPo":11349,"ĠMobile":11350,"Ġoffense":11351,"ĠAnticip":11352,"Ġjourn":11353,"Ġcoordinating":11354,"Ġgastron":11355,"oves":11356,"Ġpix":11357,"eld":11358,"Ġfinishing":11359,"Ġhandy":11360,"ĠSecure":11361,"Ġsymbolism":11362,"Collabor":11363,"IM":11364,"LA":11365,"bone":11366,"normal":11367,"ĠDental":11368,"Ġupfront":11369,"bound":11370,"Ġtasked":11371,"Ġsavvy":11372,"Ġcertified":11373,"Ġblogs":11374,"ĠBehavior":11375,"Ġhomeowners":11376,"IA":11377,"Ġfats":11378,"ĠWatch":11379,"Ġenabled":11380,"Ġwhatever":11381,"ĠMil":11382,"ospel":11383,"Ġestimate":11384,"Ġrevolves":11385,"ĠLinked":11386,"Ġscales":11387,"pieces":11388,"ĠOrigins":11389,"Sm":11390,"had":11391,"Ġborder":11392,"ĠFlex":11393,"Ġcopper":11394,"Ġintertwined":11395,"Ġpapers":11396,"ĠHim":11397,"Ġmodule":11398,"axis":11399,"ĠScot":11400,"Ġoppos":11401,"Ġviolations":11402,"Ġfolk":11403,"imate":11404,"Ġcharged":11405,"Ġbrace":11406,"Ġutilizes":11407,"Ġbrown":11408,"Ġpublishing":11409,"Ġgate":11410,"ucks":11411,"ĠCooking":11412,"Ġhadn":11413,"Ġmalicious":11414,"%,":11415,"sub":11416,"Ġawards":11417,"idel":11418,"Ġnom":11419,"Ġteeming":11420,"Ġbrilliant":11421,"Gen":11422,"Ġworn":11423,"rying":11424,"Ġarranged":11425,"host":11426,"Ġcaring":11427,"ndrome":11428,"Ġmail":11429,"elia":11430,"ĠAuthor":11431,"Ġroc":11432,"ĠExpect":11433,"Ġnutrient":11434,"Ġgreeted":11435,"Ġprecautions":11436,"Ġsecured":11437,"ston":11438,"ĠThree":11439,"performance":11440,"resented":11441,"Ġinhabit":11442,"uum":11443,"wich":11444,"Ġpil":11445,"Ġfiscal":11446,"ĠEs":11447,"Ġsigning":11448,"ĠUnique":11449,"Ġsheet":11450,"Ġwriter":11451,"Ġattributed":11452,"Ġgracefully":11453,"Ġamplify":11454,"Ġinfinite":11455,"Ġwet":11456,"Ġlinking":11457,"ĠText":11458,"Ġapartment":11459,"ĠFlorida":11460,"99":11461,"PD":11462,"orage":11463,"ĠBer":11464,"ĠJoe":11465,"Ġdelved":11466,"Ġsurvey":11467,"Ġkeen":11468,"Ġpublications":11469,"ĠSymb":11470,"Ġdestruction":11471,"ga":11472,"Ġmic":11473,"ĠES":11474,"obe":11475,"ĠSimultaneously":11476,"Ġbarrier":11477,"Ġcalculation":11478,"Ġclinicians":11479,"Exploring":11480,"ĠUnlocking":11481,"Case":11482,"OC":11483,"inet":11484,"Ġlemon":11485,"Ġmeasured":11486,"Ġcostly":11487,"ĠWorks":11488,"Ġjudicious":11489,"anthrop":11490,"Ġstatic":11491,"Ġcham":11492,"ĠUV":11493,"Ġsimulations":11494,"Ġstrictly":11495,"ĠTerms":11496,"Ġadjacent":11497,"elly":11498,"Ġwithd":11499,"Ġaluminum":11500,"ĠSammy":11501,")]":11502,"ĠTor":11503,"Ġunch":11504,"health":11505,"Ġprocessed":11506,"arming":11507,"Ġflags":11508,"Ġcurrencies":11509,"ĠRoad":11510,"Ġappointment":11511,"ias":11512,"ĠFinal":11513,"Ġoutlets":11514,"Ġcopies":11515,"Ġcounting":11516,"ĠPurpose":11517,"Ġterminology":11518,"rus":11519,"Ġviral":11520,"Ġfee":11521,"Ġagend":11522,"ĠGuideline":11523,"ĠMountain":11524,"ĠWebs":11525,"what":11526,"Ġdenying":11527,"Ġcerem":11528,"ĠLoans":11529,"Custom":11530,"kind":11531,"ecution":11532,"osion":11533,"ĠTeach":11534,"Add":11535,"Ġpas":11536,"Ġenzym":11537,"ĠBow":11538,"Ġresort":11539,"aved":11540,"Ġundert":11541,"Ġblind":11542,"ĠAlign":11543,"insic":11544,"Ġcollectors":11545,"HS":11546,"Ġdign":11547,"ĠScen":11548,"aughter":11549,"Ġtenure":11550,"Ġscreening":11551,"ĠActivities":11552,"Ġjus":11553,"ĠTheology":11554,"worthiness":11555,"ĠChildren":11556,"Ġpregnancy":11557,"Ġalive":11558,"Ġenvironmentally":11559,"Ġlaunching":11560,"Ġdangers":11561,"ĠHotel":11562,"Ġcontest":11563,"Ġmisconceptions":11564,"Follow":11565,"urric":11566,"ĠSM":11567,"risk":11568,"Ġclever":11569,"Ġlogical":11570,"ĠNeeds":11571,"tops":11572,"uro":11573,"ĠSens":11574,"ĠFresh":11575,"Ġequipping":11576,"Ġmultiplying":11577,"Ġmutually":11578,"Ġcelebrated":11579,"ĠBreak":11580,"500":11581,"istical":11582,"sters":11583,"ional":11584,"ĠGard":11585,"needed":11586,"watering":11587,"Ġnorm":11588,"ĠMis":11589,"ĠLandsc":11590,"ailable":11591,"Ġscar":11592,"Ġcircular":11593,"Ġexchanged":11594,"uan":11595,"Ġelic":11596,"Ġstuff":11597,"ĠJustice":11598,"Ġsquad":11599,"Ġcoins":11600,"tian":11601,"ettes":11602,"ĠConcept":11603,"Ġclassrooms":11604,"ĠInternet":11605,"CM":11606,"Ġextent":11607,"Ġincorporated":11608,"ĠDepending":11609,"Ġtokens":11610,"Ġowned":11611,"Ġended":11612,"screen":11613,"Ġfut":11614,"Ġpriority":11615,"ĠRecent":11616,"ĠNews":11617,"Ġbrowser":11618,"Ġoutdated":11619,"ĠVarious":11620,"Ġfif":11621,"Ġtreasure":11622,"Ġmultiplication":11623,"Def":11624,"elt":11625,"Ġtreated":11626,"ĠGoals":11627,"ĠSuppose":11628,"Ġneighborhoods":11629,"espoke":11630,"ĠArchitect":11631,"Ġcompetitions":11632,"regation":11633,"Ġproportion":11634,"isher":11635,"ĠFestiv":11636,"Ġdeepening":11637,"Ġexplanations":11638,"Ġlect":11639,"Ġremoved":11640,"duate":11641,"Ġconversions":11642,"Lear":11643,"Ġhus":11644,"ucked":11645,"Ġactivation":11646,"Ġstartup":11647,"ĠRevolution":11648,"Ġtraders":11649,"ĠPros":11650,"represented":11651,"Ġmasterpiece":11652,"Ġtruths":11653,"auc":11654,"cre":11655,"han":11656,"Ġmaneu":11657,"Ġdraf":11658,"ĠCarl":11659,"ĠHeart":11660,"ĠAmidst":11661,"ester":11662,"Ġbars":11663,"Ġaloud":11664,"Ġreadily":11665,"Ġboosting":11666,"Ġdisasters":11667,"Ġdiplomatic":11668,"def":11669,"Ġinfant":11670,"ĠOvercoming":11671,"Ġrecipients":11672,"ĠSustainable":11673,"name":11674,"Ġlands":11675,"ulas":11676,"According":11677,"Ġbon":11678,"Ġalliances":11679,"comed":11680,"ĠSea":11681,"Ġcomparisons":11682,"missions":11683,"Ġtur":11684,"izers":11685,"Ġkept":11686,"Ġharmoniously":11687,"SEO":11688,"uated":11689,"adium":11690,"ĠMen":11691,"Ġdisruption":11692,"Ġstepped":11693,"ocket":11694,"Ġconditioning":11695,"],":11696,"ĠSit":11697,"Ġ2000":11698,"Ġalleged":11699,"Ġfacet":11700,"Ġsimilarly":11701,"ĠLearn":11702,"References":11703,"haust":11704,"Ġhorizontal":11705,"ĠStore":11706,"Ġpolished":11707,"Ġinfused":11708,"Ġreader":11709,"Ġdamaging":11710,"Ġlandmarks":11711,"Ġpunct":11712,"Ġvolatility":11713,"Ġdevastating":11714,"rane":11715,"itors":11716,"raising":11717,"Ġwireless":11718,"ĠLinkedIn":11719,"Fast":11720,"osa":11721,"astroph":11722,"Ġstrangers":11723,"ieval":11724,"Ġinstill":11725,"Ġsalary":11726,"Ġhistorically":11727,"ĠBoard":11728,"Ġcomprising":11729,"vest":11730,"Ġlatter":11731,"ĠLou":11732,"ediat":11733,"ĠReflect":11734,"Ġvitamin":11735,"Ġrabbit":11736,"*(":11737,"zen":11738,"erating":11739,"Ġanywhere":11740,"appro":11741,"itization":11742,"ĠCoord":11743,"Ġimmersing":11744,"Ġcomparable":11745,"oons":11746,"add":11747,"ĠPrim":11748,"Ġmapping":11749,"Ġherbs":11750,"Ġmenus":11751,"Ġborrowers":11752,"Ġhabitats":11753,"Ġancest":11754,"Ġturm":11755,"orically":11756,"imizing":11757,"Ġexpense":11758,"Ġcolleges":11759,"Ġcellular":11760,"Ġjuice":11761,"Ġmotifs":11762,"ĠAS":11763,"ignant":11764,"iah":11765,"Ġmusician":11766,"Ġproposal":11767,"ationally":11768,"Ġincorrect":11769,"Ġcharacteristic":11770,"ĠStrategic":11771,"Ġstir":11772,"ĠDIY":11773,"Max":11774,"Ġsan":11775,"Ġsod":11776,"Ġdess":11777,"ĠCT":11778,"aints":11779,"Ġcompanion":11780,"ĠShort":11781,"ĠNotably":11782,"ĠFinance":11783,"Ġdespair":11784,"Ġfancy":11785,"Ġham":11786,"owing":11787,"Ġasym":11788,"ĠLive":11789,"Ġinvited":11790,"also":11791,"ĠStatis":11792,"Ġconfines":11793,"ĠAtl":11794,"Ġderivatives":11795,"ĠEmergency":11796,"Ġpromised":11797,"ĠAdditional":11798,"Ġgluten":11799,"Ġreadiness":11800,"Ġbanking":11801,"Ġpropag":11802,"Ġcart":11803,"Ġdough":11804,"utch":11805,"ĠUnivers":11806,"Ġcharts":11807,"Ġkeyword":11808,"Ġviolent":11809,"ĠDog":11810,"ĠVe":11811,"Ġcompetence":11812,"Ġcrack":11813,"oad":11814,"ĠÏ":11815,"Ġelabor":11816,"adian":11817,"odon":11818,"Ġspan":11819,"ĠResource":11820,"Ġdoctors":11821,"ĠRecomm":11822,"ĠSurround":11823,"ĠHarnessing":11824,"Ġjournalists":11825,"ĠLGBTQ":11826,"rais":11827,"Ġresh":11828,"Ġunderestim":11829,"Ġorganisms":11830,"Ġconveying":11831,"Ġbike":11832,"Ġstabil":11833,"Ġexotic":11834,"phi":11835,"Ġhero":11836,"Ġexpose":11837,"Ġmilestone":11838,"Time":11839,"Ġcautious":11840,"Ġlaser":11841,"Ġ21":11842,"Ġteen":11843,"ĠBalance":11844,"ĠApproaches":11845,"Ġdanger":11846,"Ġovercoming":11847,"Ġvictories":11848,"ĠCivil":11849,"ena":11850,"Ġforcing":11851,"ĠCompare":11852,"Ġcycling":11853,"Ġconvergence":11854,"Ġgemstones":11855,"Ġconcentrations":11856,"35":11857,"ÃŃ":11858,"ĠSand":11859,"Ġmyth":11860,"armaceuticals":11861,"Ġlicense":11862,"okes":11863,"ulative":11864,"Ġdisadvantages":11865,"LE":11866,"utting":11867,"ĠHD":11868,"Ġflight":11869,"ĠImm":11870,"Ġshoulder":11871,"beit":11872,"Ġfails":11873,"Ġbattles":11874,"hyd":11875,"irop":11876,"xy":11877,"Ġduty":11878,"Ġforests":11879,"ĠOil":11880,"races":11881,"Ġdescribing":11882,"ĠOperations":11883,"Ġaer":11884,"arms":11885,"ulin":11886,"ĠTele":11887,"Ġinsects":11888,"Ġreposit":11889,"Ġsurviv":11890,"Ġundermine":11891,"awn":11892,"Ġdiag":11893,"Ġpermits":11894,"bec":11895,"Ġrear":11896,"ĠPress":11897,"Ġrespir":11898,"Ġemployer":11899,"ĠProgramming":11900,"Ġsoo":11901,"etric":11902,"Ġredund":11903,"ĠMatters":11904,"Ġlabeled":11905,"Ġreperto":11906,"ĠMuseum":11907,"Ġcolonial":11908,"Ġirres":11909,"ĠWordPress":11910,"Ġramifications":11911,"Ġmissions":11912,"iller":11913,"ĠHard":11914,"Ġprejud":11915,"Ġinvasive":11916,"Ġinstantly":11917,"Ġacceleration":11918,"Ġcolumns":11919,"ĠPositive":11920,"ĠMarch":11921,"Ġdiets":11922,"Ġexception":11923,"Ġwheels":11924,"ĠTestament":11925,"Ġunpredictable":11926,"Personal":11927,"Ġbespoke":11928,"Ġvying":11929,"ĠChic":11930,"Ġsellers":11931,"Ġintuition":11932,"Ġcomprises":11933,"Ġenfor":11934,"Ġcontrad":11935,"ĠIntrigued":11936,"Ġrealization":11937,"Ġcompete":11938,"ĠDeliver":11939,"Ġsuspension":11940,"Ġretailers":11941,"Ġmouthwatering":11942,"Ġpharmac":11943,"Ġcooked":11944,"Ġwhom":11945,"ĠPac":11946,"Ġcustomize":11947,"Ġgrains":11948,"Ġattenti":11949,"Ġmerits":11950,"Ġpleasure":11951,"dx":11952,"that":11953,"ĠField":11954,"Ġappreh":11955,"Ġmultil":11956,"Ġstick":11957,"Ġingenuity":11958,"oT":11959,"irl":11960,"ĠDen":11961,"tainment":11962,"Ġpossession":11963,"ĠSeeking":11964,"ĠInvestigate":11965,"ĠManager":11966,"Ġinjured":11967,"ĠInterest":11968,"Ġalterations":11969,"Ġrevolutionize":11970,"Ġtrajectories":11971,"ĠAudience":11972,"Ġroughly":11973,"olar":11974,"ĠCS":11975,"rous":11976,"bert":11977,"Ġdifferential":11978,"onald":11979,"Ġreceives":11980,"Ġwelcomed":11981,"Secondly":11982,"alpha":11983,"abul":11984,"ematically":11985,"otely":11986,"Ġgluc":11987,"Ġsheets":11988,"ĠRetrieved":11989,"ala":11990,"ĠHidden":11991,"Ġinsurm":11992,"Ġsolo":11993,"Ġphysiological":11994,"=\"":11995,"yan":11996,"ĠIr":11997,"Ġprecon":11998,"oof":11999,"Ġwitnessing":12000,"feed":12001,"Ġtrop":12002,"Ġturnover":12003,"Ġnewslet":12004,"Ġworrying":12005,"Ġinsurmountable":12006,"$)":12007,"Some":12008,"Ġreverse":12009,"ĠCup":12010,"Ġparticipant":12011,"regular":12012,"Ġfossil":12013,"igue":12014,"Ġenvision":12015,"ĠMother":12016,"ĠOS":12017,"Ġinitiating":12018,"ugging":12019,"Ġstylish":12020,"ĠTourism":12021,")$.":12022,"Disc":12023,"ĠMiss":12024,"iki":12025,"Ġdisappointed":12026,"Ġshadows":12027,"ĠConstruction":12028,"Ġprone":12029,"ĠLens":12030,"nex":12031,"Ġpointing":12032,"Ġempowered":12033,"Ġadvertise":12034,"Ġwonderful":12035,"ĠMajor":12036,"matrix":12037,"atomy":12038,"roups":12039,"Ġclouds":12040,"Ġdeserves":12041,"Ġpacked":12042,"Ġtunes":12043,"Ġveterans":12044,"Ġtriumphs":12045,"LT":12046,"Par":12047,"Ġshops":12048,"ĠFour":12049,"ribute":12050,"Ġintelligent":12051,"Ġexclaimed":12052,"Ġcrowded":12053,"Ġsurprises":12054,"Ġrhythms":12055,"Ġalgebraic":12056,"Ġculminating":12057,"Ġpertaining":12058,"Ġgrows":12059,"Ġmusc":12060,"Ġprevailing":12061,"Ġbalances":12062,"Ġwidth":12063,"Ġsweetness":12064,"Ġgeometry":12065,"Ret":12066,"Ġlin":12067,"Ġquery":12068,"Ġkick":12069,"Ġimperf":12070,"Ġfestivals":12071,"idth":12072,"thes":12073,"Ġaltering":12074,"Ġmandatory":12075,"ĠCele":12076,"ogue":12077,"entious":12078,"Ġeverywhere":12079,"Ġendurance":12080,"ĠEmma":12081,"Ġbiodiversity":12082,"LD":12083,"ĠJer":12084,"May":12085,"hire":12086,"Ġstrides":12087,"Ġrecognizes":12088,"Id":12089,"icating":12090,"Ġoutf":12091,"Ġcleans":12092,"ĠSpain":12093,"ĠCoast":12094,"Ġdignity":12095,"Ġhandmade":12096,"Ġbroke":12097,"Ġcomprehending":12098,"Ġlanding":12099,"Ġflourish":12100,"Ġiterations":12101,"Ġconservative":12102,"ingers":12103,"Ġseat":12104,"ĠFilm":12105,"HP":12106,"ami":12107,"iliation":12108,"Ġmirrors":12109,"Ġdisappointment":12110,"Ġhem":12111,"ĠHor":12112,"Ġexaminations":12113,"Ġtwenty":12114,"ĠPast":12115,"Ġtraditionally":12116,"Ġremotely":12117,"Ġconstructed":12118,"Ġlistings":12119,"rates":12120,"Ġdevotion":12121,"Ġmobil":12122,"Ġrubber":12123,"|\\":12124,"inals":12125,"olved":12126,"istant":12127,"Ġregulate":12128,"Ġbooking":12129,"Ġunderpinning":12130,"pressure":12131,"Ġsati":12132,"Ġcups":12133,"Ġbub":12134,"Ġcomply":12135,"Ġagile":12136,"Ġsocially":12137,"ĠLimitations":12138,"Ġmirror":12139,"Ġdifferentiate":12140,"Ġleaned":12141,"Ġupgrades":12142,"Ġdoubt":12143,"ĠHTML":12144,"sers":12145,"Ġworkout":12146,"Ġsituated":12147,"Ġ//":12148,"Ġweighing":12149,"Ġsusceptible":12150,"Ġintent":12151,"Ġlocate":12152,"ĠExperiment":12153,"Ġcatastroph":12154,"ĠProfessor":12155,"Ġunderpin":12156,"win":12157,"ĠPersonalized":12158,"Ġaxis":12159,"facts":12160,"Ġfraction":12161,"icter":12162,"Ġnov":12163,"irs":12164,"ĠMom":12165,"Ġculturally":12166,"Ġcoconut":12167,"Ġhundreds":12168,"}$$":12169,"Ġsonic":12170,"Ġnights":12171,"ĠTrade":12172,"ĠEngage":12173,"Ġdivides":12174,"Ġinterconnectedness":12175,"Ġpicked":12176,"charge":12177,"Ġhouseholds":12178,"ĠRisks":12179,"sized":12180,"Ġlogistical":12181,"Ġapplies":12182,"Ġclientele":12183,"ĠCapital":12184,"Ġgrassroots":12185,"\":":12186,"Ġseaf":12187,"Ġskillsets":12188,"Ġverifying":12189,"Ġgreatest":12190,"Ġnurture":12191,"Yes":12192,"Ġconqu":12193,"tery":12194,"Ġchurches":12195,"Ġfacilitated":12196,"Ġadversaries":12197,"ĠImprovement":12198,"Ġtowering":12199,"rology":12200,"Ġsteeped":12201,"Building":12202,"bel":12203,"Ġaudits":12204,"Ġengagements":12205,"Ġvolunteering":12206,"Ġmarveled":12207,"Ġdiminished":12208,"Ġplus":12209,"ĠAdver":12210,"Ġmerchand":12211,"{(":12212,"ĠSection":12213,"Ġpossibly":12214,"theast":12215,"Ġunden":12216,"Ġsmartphone":12217,"ĠVictor":12218,"orient":12219,"Ġalbeit":12220,"Ġunlocking":12221,"Ġattendance":12222,"Ġpedagog":12223,"Ġrentals":12224,"ĠMovement":12225,"Ġambiguity":12226,"Ġdisagreements":12227,"oul":12228,"Ġripe":12229,"ĠDu":12230,"avy":12231,"Ġapproved":12232,"Ġanymore":12233,"generated":12234,"Ġpermissions":12235,"Ġoccasionally":12236,"ĠTypically":12237,"ĠCatholic":12238,"ubric":12239,"ĠCharl":12240,"Ġfestival":12241,"Ġabundant":12242,"Ġyielding":12243,"ĠLux":12244,"Ġrelates":12245,"Ġaccl":12246,"Ġskillset":12247,"Ġgranted":12248,"ĠYoung":12249,"hi":12250,"Ġoffices":12251,"ohyd":12252,"fficients":12253,"Ġregimen":12254,"Ġaccumulation":12255,"Ġfurniture":12256,"Ġdisplacement":12257,"Ġstricter":12258,"Ġminute":12259,"Ġmetadata":12260,"Ġresidual":12261,"elestial":12262,"ĠDoes":12263,"Ġmodifying":12264,"ĠRobert":12265,"Ġspacious":12266,"------------------":12267,"Ġimmig":12268,"----------------------------------------":12269,"Ġresolutions":12270,"Ġuniqueness":12271,"Ġcoordinates":12272,"Ġdamp":12273,"Ġscripts":12274,"Ġinfections":12275,"Ġregulating":12276,"Ġetched":12277,"Ġconsultation":12278,"Ġrecordings":12279,"za":12280,"Ġq":12281,"Ġerg":12282,"che":12283,"Ġboundary":12284,"Ġscholarly":12285,"Market":12286,"orative":12287,"Ġfare":12288,"Ġho":12289,"ĠPray":12290,"unity":12291,"istas":12292,"Ġsubmission":12293,"ĠAppreci":12294,"Ġoccasions":12295,"holders":12296,"Ġspirits":12297,"Ġargued":12298,"ĠRecognize":12299,"Ġsights":12300,"Ġblow":12301,"idental":12302,"ĠPred":12303,"Ġtranslation":12304,"ribed":12305,"ĠWorking":12306,"Ġreferrals":12307,"Qu":12308,"wear":12309,"ĠAth":12310,"tifications":12311,"speed":12312,"ĠClinical":12313,"ais":12314,"ho":12315,"ĠHaw":12316,"Ġplas":12317,"ĠLand":12318,"Ġpepper":12319,"Ġvoltage":12320,"!)":12321,"irth":12322,"Ġacumen":12323,"aped":12324,"alled":12325,"loads":12326,"Ġpositivity":12327,"ĠMusical":12328,"Ġdollars":12329,"Ġhiking":12330,"ticle":12331,"rowing":12332,"ĠPerspectives":12333,"Ġ2007":12334,"Ġportra":12335,"Ġlegendary":12336,"</":12337,"Ġdisconn":12338,"ĠDoing":12339,"ĠNigeria":12340,"Car":12341,"ĠFinding":12342,"Ġcanvas":12343,"Ġindividuality":12344,"Ġintrigue":12345,"Ġclaimed":12346,"Ġfamilial":12347,"powered":12348,"Ġreassess":12349,"Ġpinpoint":12350,"ani":12351,"omorph":12352,"ĠCancer":12353,"ĠGraph":12354,"portion":12355,"Ġmembr":12356,"Ġfascination":12357,"Ġskeptical":12358,"bled":12359,"astically":12360,"Ġcaps":12361,"tite":12362,"Ġperfection":12363,"ĠCommunities":12364,"Ġlingering":12365,"ĠLord":12366,"Ġestimated":12367,"DE":12368,"Ġeat":12369,"Ġreserv":12370,"orted":12371,"ĠOct":12372,"Ġnotions":12373,"Ġgeographic":12374,"Ġfirmly":12375,"ĠJanuary":12376,"Ġcoexist":12377,"abulary":12378,"Ġfron":12379,"Ġriv":12380,"Ġrum":12381,"ĠMort":12382,"Ġmerit":12383,"Ġdistinctions":12384,"Ġtemporarily":12385,"esteem":12386,"Ġopposite":12387,"mond":12388,"Ġrail":12389,"ĠAw":12390,"Ġnewer":12391,"Ġbrother":12392,"Ġemerges":12393,"Ġtablets":12394,"ĠBasics":12395,"itality":12396,"Ġluc":12397,"Ġnuts":12398,"oping":12399,"Ġrecru":12400,"Ġdevise":12401,"Ġsatisfy":12402,"Ġneglig":12403,"Ġ2009":12404,"Ġdrills":12405,"Ġhazard":12406,"Ġurgency":12407,"Ġmesmer":12408,"Ġconstituents":12409,"\".":12410,"John":12411,"Using":12412,"inator":12413,"oli":12414,"Ġalien":12415,"Ġextensions":12416,"Ġviewed":12417,"Ġresonated":12418,"Ġanxious":12419,"Although":12420,"Ġrepertoire":12421,"with":12422,"Ġgenes":12423,"Ġpassages":12424,"Ġremembered":12425,"Ġhesitated":12426,"Sam":12427,"ighth":12428,"Ġadoles":12429,"urns":12430,"ĠRegulatory":12431,"Ġpaired":12432,"Ġwrestling":12433,"Ġrespiratory":12434,"fare":12435,"uven":12436,"war":12437,"ĠNations":12438,"Ġchallenged":12439,"Ġillegal":12440,"Le":12441,"var":12442,"Ġdefenders":12443,"Ġartifacts":12444,"Ġgrateful":12445,"ĠSettings":12446,"ĠNFT":12447,"Ġquarterback":12448,"Ġeigen":12449,"ĠJos":12450,"ĠConflict":12451,"Ġlod":12452,"Ġproph":12453,"places":12454,"Ġ2006":12455,"Ġduo":12456,"Ġdataset":12457,"Ġstretching":12458,"^(":12459,"ba":12460,"Ins":12461,"Ġdistrict":12462,"Ġpairing":12463,"ĠDistribution":12464,"ogenic":12465,"Ġdifferentiation":12466,"Ġdissemination":12467,"Ġsatur":12468,"Ġconsecutive":12469,"Ġboasting":12470,"ĠKeeping":12471,"Ġconsultations":12472,"ĠDouble":12473,"mega":12474,"yles":12475,"ringe":12476,"boarding":12477,"ometric":12478,"Ġtroubleshooting":12479,"LP":12480,"Ġlenses":12481,"oser":12482,"ĠNBA":12483,"Ġbutt":12484,"Ġprogrammers":12485,"Ġnervous":12486,"Ġlegislative":12487,"ĠDisease":12488,"Learning":12489,"28":12490,"cor":12491,"gu":12492,"Ġpull":12493,"Ġrevenues":12494,"Ġgaze":12495,"Ġprohib":12496,"ira":12497,"ĠTown":12498,"Ġspont":12499,"Ġassurance":12500,"Ġprompts":12501,"Ġhesitate":12502,"Ġgirls":12503,"BM":12504,"Ġbin":12505,"ricing":12506,"Ġsystematic":12507,"Ġadapted":12508,"Ġfueled":12509,"ĠIngredients":12510,"CP":12511,"Ġcov":12512,"ithmetic":12513,"âĢ¢":12514,"Ġcontributors":12515,"isco":12516,"Ġarchitectures":12517,"stein":12518,"ĠTransportation":12519,"âĦ":12520,"ĠStill":12521,"Ġpertains":12522,"ĠVen":12523,"Ġrigid":12524,"ĠTransfer":12525,"Ġsafeguards":12526,"jection":12527,"ura":12528,"Ġcompression":12529,"Ġassuming":12530,"Ġdelays":12531,"ĠVeg":12532,"Ġresonance":12533,"Ġdispute":12534,"Ġ(\\":12535,"Ġplates":12536,"Ġobser":12537,"Ġfictional":12538,"Ġbass":12539,"ĠFail":12540,"Ġstrand":12541,"ĠCollaborating":12542,"Ġlengthy":12543,"Ġproceeding":12544,"lies":12545,"mn":12546,"ĨĴ":12547,"Ġcub":12548,"arrow":12549,"Ġstocks":12550,"Ġphysicians":12551,"Ġstressors":12552,"Ġquantitative":12553,"lywood":12554,"Ġrid":12555,"Ġmanner":12556,"ĠExplain":12557,"Ġbreakfast":12558,"ĠReput":12559,"Ġmistake":12560,"ĠPattern":12561,"27":12562,"ogene":12563,"ĠLi":12564,"Ġvaries":12565,"Ġessay":12566,"Ġformations":12567,"Ġcollaboratively":12568,"Ġsymbolic":12569,"Ġthrilled":12570,"Ġpuzzles":12571,"Given":12572,"Ob":12573,"Ġwages":12574,"Ġnerve":12575,"ĠFair":12576,"Ġcommission":12577,"ĠNegoti":12578,"ĠUrban":12579,"iations":12580,"alog":12581,"Ġpatches":12582,"ĠPDF":12583,"Ġshoes":12584,"ĠInterestingly":12585,"Ġwarran":12586,"Ġtouchpoints":12587,"Ġsynthesis":12588,"ĠAcademy":12589,"Ġbounce":12590,"idelity":12591,"star":12592,"ĠSQL":12593,"Ġsubset":12594,"Ġsoftly":12595,"Ġslope":12596,"Ġdigitally":12597,"attle":12598,"Ġmur":12599,"ĠDial":12600,"Ġdiscounts":12601,"Ġbund":12602,"Ġloads":12603,"Ġcarried":12604,"ĠCoach":12605,"Ġathlete":12606,"Ġexacerbating":12607,"Ġaroma":12608,"ĠConsumer":12609,"Ġgestures":12610,"Ġbinding":12611,"emaking":12612,"Ġstrings":12613,"Ġdetecting":12614,"Ġguilt":12615,"Ġsearches":12616,"Ġexemplified":12617,"Access":12618,"curement":12619,"Ãł":12620,"Ġwholes":12621,"Ġseed":12622,"ĠHen":12623,"Ġexposing":12624,"tex":12625,"ĠQual":12626,"Ġdrum":12627,"Ġgardens":12628,"Ġdos":12629,"Ġhors":12630,"ĠEp":12631,"ĠBudd":12632,"elve":12633,"Ġindel":12634,"Ġthank":12635,"Ġmineral":12636,"ĠClimate":12637,"Ġdiagnosed":12638,"Ġhubs":12639,"ĠSD":12640,"ĠDrug":12641,"Ġministry":12642,"Ġquicker":12643,"Ġcandies":12644,"RO":12645,"itan":12646,"izer":12647,"Ġsparking":12648,"tivirus":12649,"Ġcalculating":12650,"Ġmorph":12651,"Ġstimulate":12652,"Ġfragile":12653,"Ġsturd":12654,"itis":12655,"Ġnotably":12656,"urses":12657,"ĠMastering":12658,"\\)":12659,"produc":12660,"Ġunited":12661,"Ġpreventive":12662,"Ġheadlines":12663,"Ġadventur":12664,"Ġdirected":12665,"Ġaccompanying":12666,"reme":12667,"Ġclues":12668,"ilitating":12669,"ĠAcross":12670,"Ġcrush":12671,"Ġsuffered":12672,"designed":12673,"Ġpodcasts":12674,"Ġcoefficients":12675,"mal":12676,"ua":12677,"utely":12678,"Ġshy":12679,"Ġpresident":12680,"Ġverbal":12681,"ĠResilience":12682,"Ġdraws":12683,"Ġphotographers":12684,"ĠDetermine":12685,"ĠFurther":12686,"ĠRate":12687,"Ġvisitor":12688,"ranean":12689,"urt":12690,"Ġgases":12691,"Ġquaint":12692,"Ġefficiencies":12693,"Ġreadings":12694,"Ġmerging":12695,"ĠAgency":12696,"ĠConnections":12697,"Ġaccomplished":12698,"Ġscheduled":12699,"Ġinconsistent":12700,"tiques":12701,"erge":12702,"ĠOh":12703,"Ġoptimized":12704,"ĠInspir":12705,"Ġinherently":12706,"Ġportable":12707,"ĠInitial":12708,"ĠEngineering":12709,"Ġsterling":12710,"uana":12711,"Ġtucked":12712,"olars":12713,"Ġchart":12714,"Ġcolored":12715,"Ġgenerous":12716,"Ġvolatile":12717,"$:":12718,"season":12719,"Ġworker":12720,"Ġdividends":12721,"Ġportions":12722,"Ġstemming":12723,"Similar":12724,"storming":12725,"Following":12726,")-":12727,"tures":12728,"you":12729,"Hist":12730,"cuss":12731,"Ġtwe":12732,"Ġdrama":12733,"Ġpreconceived":12734,"26":12735,"Ġseating":12736,"Ġboat":12737,"Ġcurves":12738,"Ġcyl":12739,"Ġcorresponds":12740,"Ġinevitable":12741,"Ġlung":12742,"Ġconj":12743,"ĠFarm":12744,"Ġyours":12745,"Ġcelestial":12746,"Ġnine":12747,"ateur":12748,"Ġneat":12749,"Ġweights":12750,"Ġideological":12751,"posing":12752,"Ġclassification":12753,"Ġsinging":12754,"Ġheadfirst":12755,"ND":12756,"Ġmerc":12757,"ĠCEO":12758,"ugged":12759,"Americ":12760,"33":12761,"Ġbid":12762,"Ġhockey":12763,"ĠWin":12764,"avi":12765,"ĠMachine":12766,"Ġscholarship":12767,"Ġcosmetic":12768,"ĠRelevant":12769,"PN":12770,"Î±":12771,"rock":12772,"Ġsubt":12773,"Ġgranting":12774,"Ġlineup":12775,"loading":12776,"Ġallegations":12777,"ca":12778,"Ã¶":12779,"reaching":12780,"Ġrehabilitation":12781,"ĠAccur":12782,"ponents":12783,"Ġ70":12784,"Ġentertaining":12785,"Ġimperative":12786,"Ġregistered":12787,"ships":12788,"ĠSon":12789,"Ġallies":12790,"Ġimpacted":12791,"Ġlogs":12792,"Ġscrutin":12793,"Sub":12794,"itt":12795,"ĠChamp":12796,"Ġoccasional":12797,"Ġstopped":12798,"edience":12799,"ectiveness":12800,"Ġoffline":12801,"Ġsystematically":12802,"Ġviewer":12803,"Ġreflections":12804,"Ġgreener":12805,"ĠCarol":12806,"Ġlawyers":12807,"PG":12808,"Then":12809,"Ġsolidify":12810,"Ġsquares":12811,"Ġdisciples":12812,"urgical":12813,"ĠCr":12814,"Ġsupplements":12815,"Exam":12816,"Ġrepetitive":12817,"Ġmarkers":12818,"Ġtranquility":12819,"igs":12820,"irty":12821,"Ġexhaust":12822,"eme":12823,"Ġshades":12824,"Ġclearer":12825,"Ġpayday":12826,"Ġstretch":12827,"Integr":12828,"Go":12829,"eas":12830,"site":12831,"activity":12832,"ĠROI":12833,"ĠWild":12834,"Ġsuits":12835,"Ġscenic":12836,"Ġdissect":12837,"ĠAbout":12838,"Ġelaborate":12839,"Take":12840,"ĠFast":12841,"factor":12842,"Ġconcert":12843,"Ġgraphs":12844,"reetings":12845,"ijuana":12846,"ĠBroad":12847,"Ġsalvation":12848,"Ġboundless":12849,"Ġcrystals":12850,"Ġsettling":12851,"nis":12852,"ĠTable":12853,"ibration":12854,"ounding":12855,"ĠStorage":12856,"Ġcompromised":12857,"inyl":12858,"ĠEffects":12859,"Ġmesmerizing":12860,"Ġgone":12861,"ousing":12862,"iotic":12863,"Ġradius":12864,"ĠModels":12865,"Ġreverence":12866,"ĠMagic":12867,"Ġmacro":12868,"Ġepisodes":12869,"Ġsymmetry":12870,"ĠSav":12871,"Ġmisinformation":12872,"Ġresorting":12873,"ĠFaith":12874,"Ġloose":12875,"Ġassociate":12876,"ilipp":12877,"Ġbuildup":12878,"ĠSilver":12879,"Ġembodied":12880,"Ġhusband":12881,"Ġindelible":12882,"Ġinfer":12883,"ications":12884,"ansion":12885,"Ġworried":12886,"Ġscan":12887,"ober":12888,"tisan":12889,"ĠPrice":12890,"Ġprobabilities":12891,"Ġupgrade":12892,"Ġbreakthroughs":12893,"ĠExercise":12894,"Ġsovereignty":12895,"ĠIS":12896,"ĠBlu":12897,"anta":12898,"Ġappearing":12899,"Ġdecorative":12900,"Ġjurisdiction":12901,"zero":12902,"Ġlob":12903,"Ġrating":12904,"ĠThank":12905,"ĠDream":12906,"ĠNumber":12907,"Ġmitigation":12908,"Ġirregular":12909,"Ġnegotiating":12910,"Ġfabrication":12911,"ĠPreparing":12912,"PM":12913,"}_":12914,"Ġimplying":12915,"Inc":12916,"Ġsmallest":12917,"Ġreminds":12918,"Ġopponent":12919,"Ah":12920,"Est":12921,"endants":12922,"Ġhorror":12923,"ĠArtistry":12924,"Life":12925,"TC":12926,"rink":12927,"ĠFlow":12928,"Ġrequirement":12929,"Ġdirector":12930,"Ġcirculation":12931,"Ġunderscoring":12932,"Ġarbitrary":12933,"Ġwithdraw":12934,"Ġut":12935,"Ġstating":12936,"Ġunderrepresented":12937,"Ġdeduc":12938,"Ġimmunity":12939,"Ġhunting":12940,"Ġproprietary":12941,"Ġlucrative":12942,"after":12943,"Ġtro":12944,"retion":12945,"Ġelected":12946,"ĠBur":12947,"ĠLibr":12948,"Ġventuring":12949,"Ġresiliency":12950,"Tw":12951,"Ġlighter":12952,"ĠRub":12953,"Ġgeneric":12954,"ĠServer":12955,"rat":12956,"zil":12957,"etal":12958,"ĠTen":12959,"ĠPoints":12960,"Ġinitiate":12961,"ĠParis":12962,"rating":12963,"Ġcake":12964,"Ġwrote":12965,"Ġchest":12966,"Ġresiding":12967,"lice":12968,"ĠJo":12969,"Ġmultiply":12970,"Ġlegacies":12971,"Ġvalidity":12972,"Ġpassengers":12973,"ĠConcern":12974,"ecks":12975,"keep":12976,"Ġresemb":12977,"ĠFunctions":12978,"ĠGather":12979,"Ġappeals":12980,"Ġpredetermined":12981,"ĠMuslim":12982,"Ġacceptable":12983,"Ġmature":12984,"Ġengineer":12985,"Ġconflicting":12986,"rupted":12987,"Ġru":12988,"ĠSeg":12989,"operative":12990,"ĠFrank":12991,"Ġje":12992,"Ġadditions":12993,"Ġcivilizations":12994,"including":12995,"width":12996,"berry":12997,"posed":12998,"atisfaction":12999,"Ġvacuum":13000,"ĠCommonly":13001,"ĠCelebr":13002,"gic":13003,"Ġpill":13004,"itures":13005,"ĠCourse":13006,"ĠHyd":13007,"ĠGem":13008,"Ġregen":13009,"Ġsigned":13010,"Ġthreatening":13011,"ĠMont":13012,"Ġlaboratory":13013,"Ġbacterial":13014,"Ġdeliberate":13015,"Mus":13016,"Ġcomfor":13017,"Ġkil":13018,"lessness":13019,"Ġposture":13020,"Ġpools":13021,"Ġvegan":13022,"Ġfrequencies":13023,"Ġ2005":13024,"Ġsimplifying":13025,"Ġfragment":13026,"Ġhydrogen":13027,"Ġgradual":13028,"Ġturmoil":13029,"ĠChicago":13030,"Ġfate":13031,"ĠThird":13032,"Ġanomal":13033,"Ġship":13034,"ĠProblem":13035,"ĠAgree":13036,"Ġmargins":13037,"Ġsubscription":13038,"omans":13039,"Ġreserves":13040,"ĠOw":13041,"Ġshouldn":13042,"Ġmortality":13043,"ĠMexico":13044,"ĠVehic":13045,"ĠBox":13046,"Ġdispro":13047,"Ġaccused":13048,"ĠAlong":13049,"Ġmakeup":13050,"Ġpublication":13051,"Ġaffection":13052,"Ġhosted":13053,"mathcal":13054,"Ġunpack":13055,"rapher":13056,"Embracing":13057,"BI":13058,"Ġbes":13059,"rained":13060,"ĠPoint":13061,"Ġresidence":13062,"ĠHel":13063,"oster":13064,"Ġdece":13065,"Ġvisualize":13066,"ĠReport":13067,"ĠUpd":13068,"-------------------------------":13069,"ĠRichard":13070,"oked":13071,"ĠEffor":13072,"Ġoutputs":13073,"Ġregimes":13074,"Sure":13075,"cence":13076,"Ġfav":13077,"Ġpron":13078,"Ġtrades":13079,"ĠProtecting":13080,"Ġtrouble":13081,"Ġframes":13082,"Ġsoothing":13083,"yal":13084,"Ġfingers":13085,"oto":13086,"Ġmodest":13087,"Ġpowered":13088,"rison":13089,"ĠTool":13090,"Ġclosure":13091,"Ġlayouts":13092,"Ġlacking":13093,"ĠAC":13094,"ĠLic":13095,"tration":13096,"ĠJim":13097,"Ġ${":13098,"Ġbreach":13099,"ĠPicture":13100,"Ġanalyzed":13101,"Ġtransforms":13102,"Ġshowcased":13103,"Ġindicative":13104,"Ġsuperficial":13105,"Ġpreparedness":13106,"Ġcollateral":13107,"ĠEmpathy":13108,"iams":13109,"Ġbare":13110,"ĠBrief":13111,"aval":13112,"Ġmodification":13113,"Ġfostered":13114,"Ġdepos":13115,"Ġpositioned":13116,"Ġweekend":13117,"Her":13118,"ĠGPU":13119,"Ġouter":13120,"Ġ28":13121,"ĠConduct":13122,"ĠRegulation":13123,"Ġwondering":13124,"Ġneurological":13125,"eptember":13126,"Ġfibers":13127,"rations":13128,"amous":13129,"otors":13130,"Ġabound":13131,"Ġindoor":13132,"ĠStories":13133,"ointing":13134,"Ġparticle":13135,"Ġoptimism":13136,"Ġdrinking":13137,"Ġdeparture":13138,"65":13139,"bow":13140,"orious":13141,"Ġliver":13142,"ĠThinking":13143,"ographer":13144,"ĠNight":13145,"Ġreproduction":13146,"Ġrepresentative":13147,"Ġgroundwork":13148,"ĠLegacy":13149,"ĠCrafting":13150,"ĠDirector":13151,"Ġatmospheric":13152,"ĠFestival":13153,"lar":13154,"mu":13155,"unct":13156,"Ġimpaired":13157,"Ġuphold":13158,"ĠDesigning":13159,"Ġdarkness":13160,"ĠKorea":13161,"riends":13162,"Ġleagues":13163,"Ġexamined":13164,"Ġsupervision":13165,"naments":13166,"Ġlicenses":13167,"ĠPrivate":13168,"Ġdense":13169,"ĠTail":13170,"ĠSug":13171,"ĠRun":13172,"ĠNative":13173,"Ġpersonalization":13174,"Ġextensively":13175,"ĠRegulations":13176,"interest":13177,"ĠHarmonyville":13178,"IC":13179,"MP":13180,"Ġseparately":13181,"Ġdiameter":13182,"ĠInitially":13183,"ĠcafÃ©":13184,"blow":13185,"rum":13186,"amper":13187,"ĠPoly":13188,"ĠView":13189,"Ġcraving":13190,"ĠSeason":13191,"Ġinformative":13192,"Ġmothers":13193,"Ġtrio":13194,"ĠCreation":13195,"Ġdominance":13196,"Ġinfluencer":13197,"(\"":13198,"Part":13199,"eday":13200,"Ġchrom":13201,"assment":13202,"Ġformulas":13203,"titution":13204,"Ġmethodology":13205,"Ġeras":13206,"ĠCreativity":13207,"Ġvendor":13208,"Ġnecklace":13209,"fire":13210,"Ã¼":13211,"ĠDivers":13212,"ĠViol":13213,"Ġedition":13214,"Ġexhilar":13215,"Ġowning":13216,"Ġexpenditures":13217,"ediatric":13218,"Greetings":13219,"Ġresume":13220,"ignific":13221,"Ġspecialize":13222,"ĠIndigenous":13223,"ĠPerfect":13224,"Ġadequately":13225,"Ġphilosophical":13226,"Ġjournalism":13227,"Ġsandwich":13228,"ST":13229,"Ġfract":13230,"Ġmodalities":13231,"cium":13232,"Ġmasterpieces":13233,"itamin":13234,"Engaging":13235,"len":13236,"Ġcomprise":13237,"apse":13238,"Ġmetric":13239,"ĠMultiple":13240,"Ġfores":13241,"ĠCPU":13242,"Ġunified":13243,"eption":13244,"Ġsurpass":13245,"Ġresponders":13246,"ĠGeorg":13247,"Ġdistributing":13248,"Ġintimacy":13249,"Ġshelter":13250,"atre":13251,"ĠSup":13252,"Ġselections":13253,"ĠPracticing":13254,"ĠDiscovering":13255,"Ġvalidate":13256,"ĠAustralian":13257,"Ġvocabulary":13258,"Ġuniquely":13259,"ĠMartin":13260,"Ġaquatic":13261,"ĠTransparency":13262,"tech":13263,"Ġvistas":13264,"ados":13265,"Ġspine":13266,"airy":13267,"Ġconsumed":13268,"ĠMediter":13269,"ĠChristmas":13270,"Ġmanipulating":13271,"Ġextrac":13272,"Ġreforms":13273,"Ġsacrifice":13274,"Ġfutures":13275,"Ġlur":13276,"employment":13277,"Ġquantum":13278,"Ġspecifying":13279,"Ġletting":13280,"Ġstyling":13281,"ĠExpanding":13282,"Ġuncovering":13283,"ĠStandards":13284,"High":13285,"Ġalerts":13286,"Ġbeer":13287,"Ġsymptom":13288,"Ġprincipal":13289,"Ġattitude":13290,"Ġcreature":13291,"Ġtravers":13292,"Ġaccol":13293,"Ġloop":13294,"Ġdocumenting":13295,"Ġtowns":13296,"ĠDisplay":13297,"Ġsemi":13298,"Ġfatty":13299,"ĠSpirituality":13300,"Ġphrase":13301,"Supp":13302,"')":13303,"Ġfixtures":13304,"ulous":13305,"Ġorange":13306,"Ġdenomin":13307,"ogenesis":13308,"look":13309,"Ġhits":13310,"actic":13311,"ĠBul":13312,"Ġjewel":13313,"Ġoperator":13314,"pril":13315,"ĠSupporting":13316,"ĠBridging":13317,"valu":13318,"Ġtape":13319,"Ġnit":13320,"rati":13321,"ĠCook":13322,"Ġleaf":13323,"ĠWay":13324,"Ġmoderate":13325,"porting":13326,"Ġlots":13327,"Ġburst":13328,"embering":13329,"Ġescalating":13330,"Ġmountains":13331,"}}{":13332,"Ġpizza":13333,"ĠGene":13334,"Ġstrikes":13335,"Ġobstruc":13336,"Ġscratch":13337,"umni":13338,"Ġwashing":13339,"ĠLandscape":13340,"Ġtheological":13341,"Ġgiant":13342,"Ġcoher":13343,"Ġharder":13344,"Ġvaccines":13345,"ĠOliver":13346,"Ġreim":13347,"Ġarithmetic":13348,"Ġadjustment":13349,"ĠScripture":13350,"Ġexcept":13351,"ĠCand":13352,"Ġregression":13353,"ĠConduc":13354,"Ġblocking":13355,"Ġrigor":13356,"Ġadjustable":13357,"Ġtranscending":13358,"vasive":13359,"Ġoven":13360,"ĠRh":13361,"Ġdecipher":13362,"ocked":13363,"ircraft":13364,"Ġranking":13365,"ependence":13366,"ĠInspired":13367,"Ġmentoring":13368,"Ġsubsequently":13369,"Ġcompetitor":13370,"Ġproficient":13371,"ĠVirgin":13372,"Establish":13373,"fund":13374,"oured":13375,"ĠHill":13376,"ĠLif":13377,"Ġelite":13378,"Ġholes":13379,"ĠDiagnos":13380,"ĠInitiatives":13381,"Ġfraudulent":13382,"/>":13383,"tick":13384,"asty":13385,"Ġknee":13386,"Ġtranslating":13387,"Ġphilanthrop":13388,"Ġscientist":13389,"ĠThoughts":13390,"ĠPartnerships":13391,"Less":13392,"Under":13393,"een":13394,"ĠGar":13395,"ĠDevelopers":13396,"ĠCurious":13397,"Ġolive":13398,"Ġcapacities":13399,"Ġcommerce":13400,"Ġpasta":13401,"Ġencapsulates":13402,"Today":13403,"ĠTac":13404,"ĠAT":13405,"aga":13406,"ĠDam":13407,"ĠWas":13408,"Ġabnormal":13409,"Ġmanages":13410,"Ġtraged":13411,"Ġglobalization":13412,"ĠSimple":13413,"Ġrecorded":13414,"Ġfailing":13415,"Ġtournament":13416,"Ġpropositions":13417,"Ġcombatting":13418,"Ġinhabitants":13419,"urricular":13420,".$":13421,"Your":13422,"ounder":13423,"Ġhttps":13424,"odynam":13425,"ĠUI":13426,"ĠChief":13427,"ĠExchange":13428,"iano":13429,"ĠStudio":13430,"Ġintrinsic":13431,"ĠApplication":13432,"ĠPsychological":13433,"Ġechoed":13434,"Ġmuseum":13435,"ĠGDPR":13436,"around":13437,"eller":13438,"lamb":13439,"Ġdistinction":13440,"ĠIdeally":13441,"Ġperpetuating":13442,"Ġdiscernment":13443,"edies":13444,"Ġunin":13445,"ĠStri":13446,"Ġcorrelation":13447,"Ġticket":13448,"Ġindirectly":13449,"long":13450,"Ġcomedy":13451,"ĠStudent":13452,"Ġcleanliness":13453,"Ġarticulate":13454,"Ġliquidity":13455,"ĠSouthern":13456,"Ġrejuven":13457,"ĠFunctionality":13458,"Dis":13459,"ĠMean":13460,"Ġcontend":13461,"ĠKar":13462,"partial":13463,"Ġgrades":13464,"Ġbuyer":13465,"Ġcaptivated":13466,"Ġpraise":13467,"ominantly":13468,"Ġuneven":13469,"national":13470,"ĠSeveral":13471,"adget":13472,"Ġtwelve":13473,"Ġlift":13474,"ĠProperties":13475,"Ġilluminate":13476,"Ġoccurrences":13477,".*":13478,"lia":13479,"rm":13480,"Ġacute":13481,"Ġdispers":13482,"Ġpharmaceuticals":13483,"Ġsumm":13484,"ĠEvidence":13485,"Ġprevalence":13486,"acon":13487,"ipal":13488,"Ġheal":13489,"ognitive":13490,"Ġsouls":13491,"Ġhitting":13492,"Ġdeploying":13493,"Ġcommentary":13494,"Ġdentistry":13495,"Ġcontamination":13496,"ln":13497,"Ġwand":13498,"Ġelastic":13499,"Ġsymphony":13500,"ĠResults":13501,"Ġ2004":13502,"liminary":13503,"Ġveteran":13504,"Ġcatalyst":13505,"ĠIslamic":13506,"feeding":13507,"Ġgum":13508,"Ġending":13509,"plan":13510,"Ġsho":13511,"Ġspinal":13512,"ysical":13513,"Ġshifted":13514,"Ġacquisitions":13515,"Ġglucose":13516,"ĠFailure":13517,"ĠMediterranean":13518,"New":13519,"Ġnan":13520,"Ġperme":13521,"Ġoptional":13522,"Ġdecay":13523,"Ġbeginners":13524,"Ġspreads":13525,"Ġpropelling":13526,"ĠArea":13527,"Ġbell":13528,"olis":13529,"Ġbeads":13530,"ĠDating":13531,"ĠNavig":13532,"Ġdiff":13533,"Ġfactory":13534,"Ġsenses":13535,"Ġherein":13536,"ĠEnvironment":13537,"Ġacademics":13538,"ĠMembers":13539,"Ġjargon":13540,"Ġimperfections":13541,"case":13542,"gans":13543,"ilateral":13544,"Ġimpose":13545,"Ġsupre":13546,"Ġclust":13547,"ĠStruct":13548,"Ġsubsid":13549,"Ġprolif":13550,"Ġswitching":13551,"Ġsubmitting":13552,"iatric":13553,"ĠDemocratic":13554,"American":13555,"Ġambition":13556,"Ġcaptivate":13557,"Ġrhet":13558,"Ġrecreation":13559,"ĠCryptocurr":13560,"ras":13561,"tail":13562,"utives":13563,"Ġtears":13564,"Ġshake":13565,"Ġspoken":13566,"Ġroyal":13567,
[...]
